{
  "version": "1.0",
  "truncation": null,
  "padding": null,
  "added_tokens": [
    {
      "id": 0,
      "content": "<pad>",
      "single_word": false,
      "lstrip": false,
      "rstrip": false,
      "normalized": false,
      "special": true
    },
    {
      "id": 1,
      "content": "<s>",
      "single_word": false,
      "lstrip": false,
      "rstrip": false,
      "normalized": false,
      "special": true
    },
    {
      "id": 2,
      "content": "</s>",
      "single_word": false,
      "lstrip": false,
      "rstrip": false,
      "normalized": false,
      "special": true
    },
    {
      "id": 3,
      "content": "<unk>",
      "single_word": false,
      "lstrip": false,
      "rstrip": false,
      "normalized": false,
      "special": true
    },
    {
      "id": 4,
      "content": "<mask>",
      "single_word": false,
      "lstrip": false,
      "rstrip": false,
      "normalized": false,
      "special": true
    }
  ],
  "normalizer": null,
  "pre_tokenizer": {
    "type": "ByteLevel",
    "add_prefix_space": false,
    "trim_offsets": true,
    "use_regex": true
  },
  "post_processor": {
    "type": "ByteLevel",
    "add_prefix_space": false,
    "trim_offsets": true,
    "use_regex": true
  },
  "decoder": null,
  "model": {
    "type": "BPE",
    "dropout": null,
    "unk_token": "<unk>",
    "continuing_subword_prefix": null,
    "end_of_word_suffix": null,
    "fuse_unk": false,
    "byte_fallback": false,
    "ignore_merges": false,
    "vocab": {
      "<pad>": 0,
      "<s>": 1,
      "</s>": 2,
      "<unk>": 3,
      "<mask>": 4,
      "!": 5,
      "\"": 6,
      "#": 7,
      "$": 8,
      "%": 9,
      "&": 10,
      "'": 11,
      "(": 12,
      ")": 13,
      "*": 14,
      "+": 15,
      ",": 16,
      "-": 17,
      ".": 18,
      "/": 19,
      "0": 20,
      "1": 21,
      "2": 22,
      "3": 23,
      "4": 24,
      "5": 25,
      "6": 26,
      "7": 27,
      "8": 28,
      "9": 29,
      ":": 30,
      ";": 31,
      "<": 32,
      "=": 33,
      ">": 34,
      "?": 35,
      "@": 36,
      "A": 37,
      "B": 38,
      "C": 39,
      "D": 40,
      "E": 41,
      "F": 42,
      "G": 43,
      "H": 44,
      "I": 45,
      "J": 46,
      "K": 47,
      "L": 48,
      "M": 49,
      "N": 50,
      "O": 51,
      "P": 52,
      "Q": 53,
      "R": 54,
      "S": 55,
      "T": 56,
      "U": 57,
      "V": 58,
      "W": 59,
      "X": 60,
      "Y": 61,
      "Z": 62,
      "[": 63,
      "\\": 64,
      "]": 65,
      "^": 66,
      "a": 67,
      "b": 68,
      "c": 69,
      "d": 70,
      "e": 71,
      "f": 72,
      "g": 73,
      "h": 74,
      "i": 75,
      "j": 76,
      "k": 77,
      "l": 78,
      "m": 79,
      "n": 80,
      "o": 81,
      "p": 82,
      "q": 83,
      "r": 84,
      "s": 85,
      "t": 86,
      "u": 87,
      "v": 88,
      "w": 89,
      "x": 90,
      "y": 91,
      "z": 92,
      "{": 93,
      "|": 94,
      "}": 95,
      "~": 96,
      "¡": 97,
      "¢": 98,
      "£": 99,
      "¤": 100,
      "¥": 101,
      "¦": 102,
      "§": 103,
      "¨": 104,
      "©": 105,
      "ª": 106,
      "«": 107,
      "¬": 108,
      "®": 109,
      "¯": 110,
      "°": 111,
      "±": 112,
      "²": 113,
      "³": 114,
      "´": 115,
      "µ": 116,
      "¶": 117,
      "·": 118,
      "¸": 119,
      "¹": 120,
      "º": 121,
      "»": 122,
      "¼": 123,
      "½": 124,
      "¾": 125,
      "¿": 126,
      "Â": 127,
      "Ã": 128,
      "Ä": 129,
      "Å": 130,
      "Æ": 131,
      "Ç": 132,
      "È": 133,
      "É": 134,
      "Ê": 135,
      "Ë": 136,
      "Ì": 137,
      "Í": 138,
      "Î": 139,
      "Ï": 140,
      "Ð": 141,
      "Ñ": 142,
      "Ò": 143,
      "Ó": 144,
      "Ô": 145,
      "Õ": 146,
      "Ö": 147,
      "×": 148,
      "Ø": 149,
      "Ù": 150,
      "Ú": 151,
      "Û": 152,
      "Ü": 153,
      "Ý": 154,
      "Þ": 155,
      "ß": 156,
      "à": 157,
      "á": 158,
      "â": 159,
      "ã": 160,
      "ä": 161,
      "å": 162,
      "æ": 163,
      "ç": 164,
      "è": 165,
      "é": 166,
      "ê": 167,
      "ï": 168,
      "ð": 169,
      "Ġ": 170,
      "Ģ": 171,
      "ģ": 172,
      "Ĥ": 173,
      "ĥ": 174,
      "Ħ": 175,
      "ħ": 176,
      "Ĩ": 177,
      "ĩ": 178,
      "Ī": 179,
      "ī": 180,
      "Ĭ": 181,
      "ĭ": 182,
      "Į": 183,
      "į": 184,
      "İ": 185,
      "ı": 186,
      "Ĳ": 187,
      "ĳ": 188,
      "Ĵ": 189,
      "ĵ": 190,
      "Ķ": 191,
      "ķ": 192,
      "ĸ": 193,
      "Ĺ": 194,
      "ĺ": 195,
      "Ļ": 196,
      "ļ": 197,
      "Ľ": 198,
      "ľ": 199,
      "Ŀ": 200,
      "ŀ": 201,
      "Ł": 202,
      "ł": 203,
      "Ń": 204,
      "Ġe": 205,
      "is": 206,
      "us": 207,
      "Ġa": 208,
      "er": 209,
      "qu": 210,
      "um": 211,
      "it": 212,
      "or": 213,
      "in": 214,
      "Ġs": 215,
      "en": 216,
      "at": 217,
      "Ġp": 218,
      "on": 219,
      "Ġc": 220,
      "Ġn": 221,
      "es": 222,
      "Ġd": 223,
      "Ġv": 224,
      "am": 225,
      "Ġm": 226,
      "em": 227,
      "ur": 228,
      "et": 229,
      "Ġqu": 230,
      "ic": 231,
      "ul": 232,
      "ol": 233,
      "Ġt": 234,
      "Ġin": 235,
      "ec": 236,
      "ti": 237,
      "Ġl": 238,
      "el": 239,
      "im": 240,
      "an": 241,
      "ut": 242,
      "Ġf": 243,
      "un": 244,
      "ar": 245,
      "os": 246,
      "Ġi": 247,
      "Ġet": 248,
      "as": 249,
      "ib": 250,
      "que": 251,
      "Ġr": 252,
      "ae": 253,
      "ent": 254,
      "Ġcon": 255,
      "li": 256,
      "ac": 257,
      "od": 258,
      "id": 259,
      "ed": 260,
      "st": 261,
      "..": 262,
      "Ġpr": 263,
      "om": 264,
      "Ġh": 265,
      "end": 266,
      "al": 267,
      "unt": 268,
      "ĠA": 269,
      "ĠS": 270,
      "ibus": 271,
      "Ġest": 272,
      "ia": 273,
      "Ġad": 274,
      "Ġut": 275,
      "ra": 276,
      "ĠP": 277,
      "per": 278,
      "ab": 279,
      "ĠC": 280,
      "ĠE": 281,
      "il": 282,
      "pt": 283,
      "se": 284,
      "Ġex": 285,
      "ect": 286,
      "ĠD": 287,
      "olor": 288,
      "ĠI": 289,
      "Ġnon": 290,
      "ĠN": 291,
      "ci": 292,
      "Ġma": 293,
      "gn": 294,
      "ell": 295,
      "uc": 296,
      "Ġvel": 297,
      "Ġdolor": 298,
      "ati": 299,
      "Ġac": 300,
      "ud": 301,
      "ĠM": 302,
      "ort": 303,
      "ull": 304,
      "Ġo": 305,
      "ere": 306,
      "Ġdi": 307,
      "Ġali": 308,
      "tr": 309,
      "Ġsit": 310,
      "ps": 311,
      "Ġvol": 312,
      "Ġb": 313,
      "Ġam": 314,
      "Ġel": 315,
      "Ġsed": 316,
      "Ġan": 317,
      "Ġper": 318,
      "ant": 319,
      "Ġre": 320,
      "ĠV": 321,
      "esti": 322,
      "Ġer": 323,
      "Qu": 324,
      "ug": 325,
      "Ġips": 326,
      "Ġid": 327,
      "Ġde": 328,
      "ĠQu": 329,
      "te": 330,
      "emp": 331,
      "oc": 332,
      "ius": 333,
      "and": 334,
      "upt": 335,
      "Ġaut": 336,
      "Ġat": 337,
      "ter": 338,
      "pis": 339,
      "Ġeg": 340,
      "io": 341,
      "Ġamet": 342,
      "quam": 343,
      "Ġquis": 344,
      "atur": 345,
      "Ġg": 346,
      "Ġpro": 347,
      "Ġqui": 348,
      "ing": 349,
      "ap": 350,
      "Ġeu": 351,
      "etur": 352,
      "Ġtemp": 353,
      "ot": 354,
      "Ġsu": 355,
      "ici": 356,
      "ore": 357,
      "ir": 358,
      "est": 359,
      "Ġnec": 360,
      "iv": 361,
      "itur": 362,
      "Ġcons": 363,
      "Ġvolupt": 364,
      "orum": 365,
      "enti": 366,
      "Ġmol": 367,
      "Ġfac": 368,
      "Ġen": 369,
      "ate": 370,
      "entum": 371,
      "ation": 372,
      "Ġor": 373,
      "Ġpos": 374,
      "mod": 375,
      "Ġnis": 376,
      "ĠIn": 377,
      "iss": 378,
      "Ġdic": 379,
      "unc": 380,
      "Ġcom": 381,
      "Ġvit": 382,
      "ium": 383,
      "ens": 384,
      "orem": 385,
      "Ġenim": 386,
      "ero": 387,
      "Ġipsum": 388,
      "ff": 389,
      "Ġcum": 390,
      "atis": 391,
      "Ġne": 392,
      "erit": 393,
      "Ġquod": 394,
      "Ġmagn": 395,
      "Ġom": 396,
      "inc": 397,
      "to": 398,
      "ulla": 399,
      "Ġquam": 400,
      "Ġim": 401,
      "ll": 402,
      "tis": 403,
      "ĠT": 404,
      "ĠL": 405,
      "Ġpl": 406,
      "sequ": 407,
      "Ġomn": 408,
      "Ġar": 409,
      "ob": 410,
      "uct": 411,
      "Ġsem": 412,
      "Ġvitae": 413,
      "ĠF": 414,
      "ig": 415,
      "ue": 416,
      "ad": 417,
      "are": 418,
      "ula": 419,
      "Ġdu": 420,
      "Ġelit": 421,
      "idunt": 422,
      "ullam": 423,
      "Ġaliqu": 424,
      "entes": 425,
      "eo": 426,
      "ĠU": 427,
      "Ġeget": 428,
      "re": 429,
      "ili": 430,
      "ce": 431,
      "ulum": 432,
      "ales": 433,
      "ĠH": 434,
      "Ġsol": 435,
      "Ġpar": 436,
      "Ġlib": 437,
      "imus": 438,
      "Ġconsequ": 439,
      "ĠR": 440,
      "Ġlac": 441,
      "ectus": 442,
      "ta": 443,
      "ris": 444,
      "ellus": 445,
      "ĠSed": 446,
      "Ġes": 447,
      "Ġse": 448,
      "aec": 449,
      "Ġul": 450,
      "Ġconsect": 451,
      "tum": 452,
      "iam": 453,
      "ro": 454,
      "Ġill": 455,
      "uris": 456,
      "lic": 457,
      "cip": 458,
      "lis": 459,
      "Ġsc": 460,
      "iti": 461,
      "ĠEt": 462,
      "Ġconsectetur": 463,
      "Ġacc": 464,
      "und": 465,
      "ass": 466,
      "Ġod": 467,
      "atem": 468,
      "tiam": 469,
      "bi": 470,
      "Ġport": 471,
      "Ġnos": 472,
      "issim": 473,
      "Ġultr": 474,
      "Ġinter": 475,
      "isque": 476,
      "Ġvelit": 477,
      "arum": 478,
      "ri": 479,
      "ag": 480,
      "estib": 481,
      "Ġhab": 482,
      "ilis": 483,
      "Ġsunt": 484,
      "Ġadi": 485,
      "Ġnisi": 486,
      "estibulum": 487,
      "Ġtempor": 488,
      "Ġven": 489,
      "Ġnulla": 490,
      "ess": 491,
      "Ġj": 492,
      "omin": 493,
      "erum": 494,
      "Ġmolesti": 495,
      "erat": 496,
      "incidunt": 497,
      "ei": 498,
      "Ġsus": 499,
      "entesque": 500,
      "ellentesque": 501,
      "Ġcur": 502,
      "Ġrep": 503,
      "Ġadipis": 504,
      "iat": 505,
      "Ġtincidunt": 506,
      "onec": 507,
      "usto": 508,
      "api": 509,
      "Ġerat": 510,
      "ita": 511,
      "Ġlab": 512,
      "Ġante": 513,
      "Ġneque": 514,
      "Ġab": 515,
      "eb": 516,
      "Ġea": 517,
      "Ġnunc": 518,
      "Ġquo": 519,
      "ĠO": 520,
      "Ġla": 521,
      "amus": 522,
      "Ġmi": 523,
      "Ġarc": 524,
      "endis": 525,
      "Ġmagna": 526,
      "Ġodio": 527,
      "eg": 528,
      "etus": 529,
      "rum": 530,
      "Ġquae": 531,
      "ulp": 532,
      "Ġautem": 533,
      "Ġtur": 534,
      "Ġquia": 535,
      "Ġsapi": 536,
      "Ġcu": 537,
      "vid": 538,
      "Ġcor": 539,
      "iet": 540,
      "Ġur": 541,
      "ĠB": 542,
      "Ġesse": 543,
      "Ã¦": 544,
      "cc": 545,
      "Ġlibero": 546,
      "ill": 547,
      "na": 548,
      "Ġcommod": 549,
      "Ġfr": 550,
      "endum": 551,
      "cing": 552,
      "land": 553,
      "Ġu": 554,
      "ugiat": 555,
      "Ġdiam": 556,
      "Ġfacilis": 557,
      "Ġullam": 558,
      "Ġmin": 559,
      "Ġsi": 560,
      "erm": 561,
      "pti": 562,
      "Ġaliquam": 563,
      "ene": 564,
      "Ġturpis": 565,
      "Ġdis": 566,
      ",.": 567,
      "urus": 568,
      "Ġas": 569,
      "Ġgra": 570,
      "ibh": 571,
      "Ġdign": 572,
      "ĠDonec": 573,
      "Ġplac": 574,
      "uit": 575,
      "itor": 576,
      "atus": 577,
      "int": 578,
      "av": 579,
      "ari": 580,
      "cipit": 581,
      "auc": 582,
      "Ġph": 583,
      "op": 584,
      "isus": 585,
      "Ġnibh": 586,
      "ior": 587,
      "ffic": 588,
      "itud": 589,
      "Ġorci": 590,
      "Ġbland": 591,
      "Ġviv": 592,
      "atum": 593,
      "Ġadipiscing": 594,
      "Ġquid": 595,
      "Ġtellus": 596,
      "ĠUt": 597,
      "erunt": 598,
      "Ġlorem": 599,
      "Ġpra": 600,
      "assa": 601,
      "Ġconv": 602,
      "sus": 603,
      "Ġlectus": 604,
      "pp": 605,
      "ulis": 606,
      "elis": 607,
      "risti": 608,
      "Ġaug": 609,
      "uis": 610,
      "ion": 611,
      "ĠG": 612,
      "Ġrisus": 613,
      "Ġmat": 614,
      "Ġmassa": 615,
      "Ġmauris": 616,
      "Ġpurus": 617,
      "Ġnisl": 618,
      "Ġdui": 619,
      "Ġleo": 620,
      "Ġpot": 621,
      "Ġ(": 622,
      "aucibus": 623,
      "ortor": 624,
      "estas": 625,
      "Ġdictum": 626,
      "ine": 627,
      "Ġarcu": 628,
      "Ġjusto": 629,
      "Ġlacus": 630,
      "aret": 631,
      "uere": 632,
      "Ġmax": 633,
      "Ġaugue": 634,
      "Ġfaucibus": 635,
      "Ġtortor": 636,
      "ada": 637,
      "Ġurna": 638,
      "ices": 639,
      "Ìģ": 640,
      "Ġdignissim": 641,
      "cor": 642,
      "Ġsuscipit": 643,
      "pat": 644,
      "vin": 645,
      "Ġfelis": 646,
      "hil": 647,
      "Ġsemper": 648,
      "ĠMa": 649,
      "dum": 650,
      "Ġimper": 651,
      "ub": 652,
      "Ġmetus": 653,
      "Ġlig": 654,
      "alesu": 655,
      "Ġeros": 656,
      "alesuada": 657,
      "Ġexp": 658,
      "Ġetiam": 659,
      "eat": 660,
      "tra": 661,
      "Ġsapien": 662,
      "ov": 663,
      "Ġeum": 664,
      "Ġegestas": 665,
      "Ġinc": 666,
      "Ġmalesuada": 667,
      "anti": 668,
      "ĠAli": 669,
      "Ġligula": 670,
      "Ġcommodo": 671,
      "uctor": 672,
      "Ġun": 673,
      "itudin": 674,
      "Ġcond": 675,
      "Ġme": 676,
      "uctus": 677,
      "Ġposs": 678,
      "Ġfe": 679,
      "utpat": 680,
      "arius": 681,
      "tus": 682,
      "erra": 683,
      "Ġconsequat": 684,
      "atibus": 685,
      "ras": 686,
      "eler": 687,
      "ihil": 688,
      "Ġmod": 689,
      "Ġnostr": 690,
      "Ġauctor": 691,
      "Ġvolutpat": 692,
      "anc": 693,
      "Ġpul": 694,
      "Ġposuere": 695,
      "Ġtempus": 696,
      "ers": 697,
      "orbi": 698,
      "ĠNam": 699,
      "Ġultrices": 700,
      "Ġpret": 701,
      "cus": 702,
      "Ġanim": 703,
      "corper": 704,
      "ortis": 705,
      "Ġomnis": 706,
      "Ġsp": 707,
      "Ġcong": 708,
      "elerisque": 709,
      "Ġeos": 710,
      "Ġrerum": 711,
      "Ġ1": 712,
      "hon": 713,
      "uri": 714,
      "teg": 715,
      "Ġeius": 716,
      "Ġdel": 717,
      "Ġvestibulum": 718,
      "Ġullamcorper": 719,
      "Ġtr": 720,
      "ristique": 721,
      "san": 722,
      "Ġvulp": 723,
      "ementum": 724,
      "ata": 725,
      "Ġluctus": 726,
      "utate": 727,
      "Ġhoc": 728,
      "Ġfeugiat": 729,
      "Ġimp": 730,
      "Ġiac": 731,
      "Ġpellentesque": 732,
      "oris": 733,
      "lig": 734,
      "Ġtristique": 735,
      "Ġblandit": 736,
      "esent": 737,
      "obis": 738,
      "Ġscelerisque": 739,
      "Ġprim": 740,
      "allis": 741,
      "iter": 742,
      "Ġbib": 743,
      "abitur": 744,
      "Ġvulputate": 745,
      "Ġpretium": 746,
      "Ġdes": 747,
      "ĠPro": 748,
      "Ġqua": 749,
      "Ġorn": 750,
      "eh": 751,
      "illa": 752,
      "Ġvoluptatem": 753,
      "agit": 754,
      "Ġcursus": 755,
      "Ġtu": 756,
      "Ġvid": 757,
      "tion": 758,
      "titor": 759,
      "Ġsim": 760,
      "enean": 761,
      "umsan": 762,
      "obortis": 763,
      "Ġal": 764,
      "imentum": 765,
      "Ġelementum": 766,
      "Ġte": 767,
      "Ġvarius": 768,
      "icies": 769,
      "cept": 770,
      "Ġco": 771,
      "aretra": 772,
      "Ġaliquet": 773,
      "ĠCur": 774,
      "Ġmollis": 775,
      "inia": 776,
      "vida": 777,
      "rerit": 778,
      "Ġporttitor": 779,
      "Ġeuis": 780,
      "endrerit": 781,
      "Ġeuismod": 782,
      "oreet": 783,
      "Ġquas": 784,
      "enas": 785,
      "diet": 786,
      "ationem": 787,
      "Ġlobortis": 788,
      "Ġviverra": 789,
      "Ġfacilisis": 790,
      "Ġconvallis": 791,
      "Ġmattis": 792,
      "ermentum": 793,
      "Ġcongue": 794,
      "ĠPra": 795,
      "agittis": 796,
      "Ġpharetra": 797,
      "vinar": 798,
      "Ġnihil": 799,
      "Ġbibendum": 800,
      "Ġporta": 801,
      "fend": 802,
      "Ġhendrerit": 803,
      "de": 804,
      "Ġaccumsan": 805,
      "atione": 806,
      "Ġlaoreet": 807,
      "Ġimperdiet": 808,
      "Ġinterdum": 809,
      "Ġsollic": 810,
      "ingilla": 811,
      "Ġgravida": 812,
      "icula": 813,
      "Ġlacinia": 814,
      "Ġfermentum": 815,
      "Ġultricies": 816,
      "Ġsagittis": 817,
      "Ġplacerat": 818,
      "endisse": 819,
      "Ġsint": 820,
      "enatis": 821,
      "Ġpulvinar": 822,
      "bus": 823,
      "pendisse": 824,
      "Ġfringilla": 825,
      "apibus": 826,
      "Ġca": 827,
      "Ġveh": 828,
      "ĠCon": 829,
      "Ġcondimentum": 830,
      "eri": 831,
      "atio": 832,
      "honcus": 833,
      "itate": 834,
      "teger": 835,
      "Ġmolestie": 836,
      "Ġiaculis": 837,
      "Ġdapibus": 838,
      "Ġornare": 839,
      "Ġvenenatis": 840,
      "ĠDe": 841,
      "Ġob": 842,
      "Ġsollicitudin": 843,
      "alis": 844,
      "ven": 845,
      "eifend": 846,
      "Ġvero": 847,
      "itas": 848,
      "utrum": 849,
      "Ġrhoncus": 850,
      "ori": 851,
      "Ġsod": 852,
      "ĠAliquam": 853,
      "Ġeleifend": 854,
      "tio": 855,
      "go": 856,
      "Ġvoluptas": 857,
      "Ġvir": 858,
      "Ġsodales": 859,
      "Ġrutrum": 860,
      "erc": 861,
      "endi": 862,
      "ĠVestibulum": 863,
      "ans": 864,
      "Ġdolorem": 865,
      "Ġfin": 866,
      "ĠPh": 867,
      "asellus": 868,
      "Ġvehicula": 869,
      "Ġsub": 870,
      "usce": 871,
      "Ġsec": 872,
      "Ġatque": 873,
      "fer": 874,
      "Ġst": 875,
      "ĠAn": 876,
      "Ġconsequatur": 877,
      "Ġtam": 878,
      "Ġrec": 879,
      "ex": 880,
      "Ġis": 881,
      "Ġfug": 882,
      "Ġocc": 883,
      "Ġdeb": 884,
      "Ġann": 885,
      "edit": 886,
      "ĠNulla": 887,
      "untur": 888,
      "ĠPellentesque": 889,
      "Ġaccus": 890,
      "Ġmul": 891,
      "ibi": 892,
      "tin": 893,
      "oci": 894,
      "Ġus": 895,
      "ÌĦ": 896,
      "Ġquidem": 897,
      "Ġcorp": 898,
      "Ġsic": 899,
      "ure": 900,
      "ime": 901,
      "ĠViv": 902,
      "Ġnam": 903,
      "ru": 904,
      "ĠNunc": 905,
      "ĠAd": 906,
      "Ġnobis": 907,
      "Ġdolore": 908,
      "antur": 909,
      "andae": 910,
      "ĠSus": 911,
      "iores": 912,
      "Ġres": 913,
      "Ġcomm": 914,
      "pe": 915,
      "ĠEtiam": 916,
      "ente": 917,
      "fic": 918,
      "ĠDuis": 919,
      "Ġpart": 920,
      "Ġquibus": 921,
      "ĠEx": 922,
      "aecenas": 923,
      "ĠNullam": 924,
      "Ġver": 925,
      "ĠCurabitur": 926,
      "Ġ\"": 927,
      "ĠVivamus": 928,
      "ĠAenean": 929,
      "qui": 930,
      "ĠMauris": 931,
      "lit": 932,
      "ali": 933,
      "itis": 934,
      "ĠMaecenas": 935,
      "Ġprae": 936,
      "Ġpotest": 937,
      "ffici": 938,
      "ĠPraesent": 939,
      "sum": 940,
      "dam": 941,
      "ĠCras": 942,
      "Ġint": 943,
      "Ġcl": 944,
      "Ġnum": 945,
      "ĠQuisque": 946,
      "ĠMorbi": 947,
      "reh": 948,
      "antium": 949,
      "ĠInteger": 950,
      "Ġpat": 951,
      "Ġita": 952,
      "ĠFusce": 953,
      "ĠPhasellus": 954,
      "hi": 955,
      "Ġ&": 956,
      "Ġprop": 957,
      "Ġreg": 958,
      "pid": 959,
      "Ġtot": 960,
      "Ġdolores": 961,
      "ĠSuspendisse": 962,
      "Ġsuper": 963,
      "Ġapp": 964,
      "udi": 965,
      "Ġsum": 966,
      "ĠProin": 967,
      "erv": 968,
      "Ġinv": 969,
      "ĠNon": 970,
      "ost": 971,
      "Ġeffic": 972,
      "ates": 973,
      "enda": 974,
      "Ġrem": 975,
      "entia": 976,
      "ĠCh": 977,
      "ina": 978,
      "itus": 979,
      "Ġrepell": 980,
      "ĠAt": 981,
      "orm": 982,
      "ch": 983,
      "itum": 984,
      "Ġpraes": 985,
      "og": 986,
      "Ġleg": 987,
      "Ġcomp": 988,
      "ima": 989,
      "ĠPr": 990,
      "Ġten": 991,
      "uta": 992,
      "iae": 993,
      "Ġter": 994,
      "ip": 995,
      "Ġopti": 996,
      "Ġmolestiae": 997,
      "ica": 998,
      "ii": 999,
      "Ġpers": 1000,
      "Ġbon": 1001,
      "entium": 1002,
      "eris": 1003,
      "Ġfam": 1004,
      "Ġfinibus": 1005,
      "Ġexerc": 1006,
      "eret": 1007,
      "Ġgen": 1008,
      "rehend": 1009,
      "Ġloc": 1010,
      "Ġ2": 1011,
      "Ġmon": 1012,
      "ĠQui": 1013,
      "Ġasper": 1014,
      "Ġmaximus": 1015,
      "Ġlabore": 1016,
      "ix": 1017,
      "Ġduc": 1018,
      "Ġefficitur": 1019,
      "ores": 1020,
      "ato": 1021,
      "ĠLorem": 1022,
      "Ġtempore": 1023,
      "Ġoffic": 1024,
      "Ġop": 1025,
      "ĠVol": 1026,
      "Ġhomin": 1027,
      "Ġsoci": 1028,
      "Ġman": 1029,
      "Ġcr": 1030,
      "Ġag": 1031,
      "Ġdec": 1032,
      "Ġsecund": 1033,
      "Ġquos": 1034,
      "ĠCum": 1035,
      "Ġveniam": 1036,
      "Ġei": 1037,
      "les": 1038,
      "Ġhic": 1039,
      "ĠDolor": 1040,
      "Ġind": 1041,
      "Lorem": 1042,
      "ulpa": 1043,
      "ist": 1044,
      "Ġmaxime": 1045,
      "Ġsae": 1046,
      "ilia": 1047,
      "Ġnecess": 1048,
      "ition": 1049,
      "ĠJ": 1050,
      "inis": 1051,
      "itu": 1052,
      "ert": 1053,
      "Ġaliquid": 1054,
      "Ġpost": 1055,
      "entur": 1056,
      "ep": 1057,
      "ern": 1058,
      "ulo": 1059,
      "Ġillum": 1060,
      "ando": 1061,
      "Ġfacere": 1062,
      "itatem": 1063,
      "Ġcupid": 1064,
      "Ġtamen": 1065,
      "Ġdist": 1066,
      "Ġap": 1067,
      "Ġminus": 1068,
      "ĠSi": 1069,
      "Ġno": 1070,
      "ĠVolupt": 1071,
      "ulus": 1072,
      "ĠDomin": 1073,
      "Ġpo": 1074,
      "ĠAut": 1075,
      "Ġsal": 1076,
      "ie": 1077,
      "jus": 1078,
      "Ġund": 1079,
      "ecto": 1080,
      "Ġofficia": 1081,
      "Ġinf": 1082,
      "emo": 1083,
      "ui": 1084,
      "Ġreprehend": 1085,
      "Ġius": 1086,
      "Ġculpa": 1087,
      "Ġdeserunt": 1088,
      "era": 1089,
      "Ġrel": 1090,
      "Ġoper": 1091,
      "Ġelig": 1092,
      "iatur": 1093,
      "antum": 1094,
      "Ġlaborum": 1095,
      "Ġsanc": 1096,
      "ign": 1097,
      "Ġexercit": 1098,
      "itatibus": 1099,
      "Ġ-": 1100,
      "Ġmed": 1101,
      "Ġhac": 1102,
      "Ġipsa": 1103,
      "Ġconst": 1104,
      "oll": 1105,
      "ĠQuod": 1106,
      "Ġaper": 1107,
      "Ġpec": 1108,
      "Ġlaud": 1109,
      "Ġmollit": 1110,
      "Ġgr": 1111,
      "Ġvis": 1112,
      "ann": 1113,
      "ĠEst": 1114,
      "Ġerr": 1115,
      "Ġquasi": 1116,
      "Ġoffici": 1117,
      "ript": 1118,
      "Ġins": 1119,
      "Ġcar": 1120,
      "Ġvoluptate": 1121,
      "II": 1122,
      "irc": 1123,
      "Ġcaus": 1124,
      "vis": 1125,
      "Ġhis": 1126,
      "avit": 1127,
      "Ġess": 1128,
      "Ġmodo": 1129,
      "ccles": 1130,
      "Ġfl": 1131,
      "entis": 1132,
      "Ġexcept": 1133,
      "Ġvoc": 1134,
      "itiis": 1135,
      "ux": 1136,
      "Ġfu": 1137,
      "ani": 1138,
      "endus": 1139,
      "eniti": 1140,
      "Ġsen": 1141,
      "Ġoccaec": 1142,
      "ilique": 1143,
      "Ġsaepe": 1144,
      "Ġpariatur": 1145,
      "le": 1146,
      "ire": 1147,
      "ph": 1148,
      "Ġiusto": 1149,
      "Ġinst": 1150,
      "ale": 1151,
      "uli": 1152,
      "rupti": 1153,
      "Ġnostrum": 1154,
      "ult": 1155,
      "Ġreprehenderit": 1156,
      "ang": 1157,
      "ret": 1158,
      "Ġfid": 1159,
      "Ġmel": 1160,
      "Ġanimi": 1161,
      "dic": 1162,
      "Ġprimis": 1163,
      "Ġfili": 1164,
      "abo": 1165,
      "Ġassum": 1166,
      "Ġnov": 1167,
      "Ġverit": 1168,
      "Ġtibi": 1169,
      "Ġfugiat": 1170,
      "ĠId": 1171,
      "Ġnomin": 1172,
      "ationis": 1173,
      "Ġcorporis": 1174,
      "edita": 1175,
      "inctio": 1176,
      "gr": 1177,
      "Ġsecundum": 1178,
      "orro": 1179,
      "Ġprovid": 1180,
      ":.": 1181,
      "pici": 1182,
      "itt": 1183,
      "Ġomnes": 1184,
      "ile": 1185,
      "ua": 1186,
      "Ġconf": 1187,
      "gis": 1188,
      "itatis": 1189,
      "Ġnatur": 1190,
      "Ġcap": 1191,
      "Ġeam": 1192,
      "Ġharum": 1193,
      "ma": 1194,
      "ebat": 1195,
      "Ġhabit": 1196,
      "oribus": 1197,
      "Ġmorbi": 1198,
      "gitur": 1199,
      "Ġcirc": 1200,
      "Ġred": 1201,
      "ĠAr": 1202,
      "00": 1203,
      "?.": 1204,
      "ond": 1205,
      "Ġsicut": 1206,
      "ura": 1207,
      "urient": 1208,
      "Ġsoluta": 1209,
      "Ġimpedit": 1210,
      "Ġsac": 1211,
      "orios": 1212,
      "Ġfuga": 1213,
      "Ġeo": 1214,
      "Ġnostra": 1215,
      "esci": 1216,
      "ini": 1217,
      "Ġtor": 1218,
      "Ġillo": 1219,
      "Ġcommun": 1220,
      "Ġunde": 1221,
      "Ġeligendi": 1222,
      "Ġvoluptatum": 1223,
      "Ġratione": 1224,
      "udiandae": 1225,
      "Ġfames": 1226,
      "Ġdeleniti": 1227,
      "icet": 1228,
      "Ġdolorum": 1229,
      "ĠEr": 1230,
      "Ġaccusamus": 1231,
      "entem": 1232,
      "ĠUn": 1233,
      "Ġconc": 1234,
      "Ġsimilique": 1235,
      "ĠX": 1236,
      "Ġhum": 1237,
      "Ġiure": 1238,
      "esc": 1239,
      "Ġfuit": 1240,
      "Ġdef": 1241,
      "ĠNe": 1242,
      "ĠIta": 1243,
      "Ġpop": 1244,
      "aris": 1245,
      "atu": 1246,
      "ĠRom": 1247,
      "Ġcont": 1248,
      "Ġdoc": 1249,
      "Ġcorrupti": 1250,
      "Ġoptio": 1251,
      "ĠVel": 1252,
      "ĠCom": 1253,
      "Ġtemporibus": 1254,
      "veniet": 1255,
      "entiam": 1256,
      "Ġmagis": 1257,
      "ione": 1258,
      "Ġparturient": 1259,
      "ĠAm": 1260,
      "Ġdistinctio": 1261,
      "Ġbeat": 1262,
      "icus": 1263,
      "Ġpossimus": 1264,
      "Ġducimus": 1265,
      "Ġcumque": 1266,
      "emus": 1267,
      "mn": 1268,
      "ĠAl": 1269,
      "Ġdicta": 1270,
      "Ġnumquam": 1271,
      "quit": 1272,
      "Ġrecus": 1273,
      "Ġexplic": 1274,
      "tim": 1275,
      "ora": 1276,
      "endo": 1277,
      "Ġdom": 1278,
      "isset": 1279,
      "Ġpen": 1280,
      "oriosam": 1281,
      "Ġblanditiis": 1282,
      "Ġmolestias": 1283,
      "Ġpraesentium": 1284,
      "Ġplaceat": 1285,
      "ite": 1286,
      "co": 1287,
      "incip": 1288,
      "Ġduis": 1289,
      "Ġcupiditate": 1290,
      "Ġexpedita": 1291,
      "fect": 1292,
      "Ġmollitia": 1293,
      "Ġalias": 1294,
      "one": 1295,
      "Ġhaec": 1296,
      "Ġofficiis": 1297,
      "Ġtac": 1298,
      "Ġrepellendus": 1299,
      "Ġdignissimos": 1300,
      "Ġdonec": 1301,
      "ÌĢ": 1302,
      "Ġquibusdam": 1303,
      "Ġsign": 1304,
      "Ġanno": 1305,
      "ram": 1306,
      "Ġmal": 1307,
      "Ġexcepturi": 1308,
      "aud": 1309,
      "Ġprovident": 1310,
      "eni": 1311,
      "Ġmagni": 1312,
      "uer": 1313,
      "ĠAb": 1314,
      "Ġprod": 1315,
      "ino": 1316,
      "Ġnatus": 1317,
      "Ġomnia": 1318,
      "Ġassumenda": 1319,
      "Ġhu": 1320,
      "Ġipsam": 1321,
      "Ġmihi": 1322,
      "ĠMar": 1323,
      "asc": 1324,
      "Ġnecessitatibus": 1325,
      "Ġduo": 1326,
      "Ġpa": 1327,
      "Ġdebitis": 1328,
      "Ġrepudiandae": 1329,
      "Ġearum": 1330,
      "ĠQuid": 1331,
      "entibus": 1332,
      "Ġquem": 1333,
      "uper": 1334,
      "Ġalter": 1335,
      "Ġiste": 1336,
      "iciendis": 1337,
      "ĠDei": 1338,
      "Ġserv": 1339,
      "Ġigitur": 1340,
      "tes": 1341,
      "rim": 1342,
      "Ġnot": 1343,
      "Ġubi": 1344,
      "pl": 1345,
      "pse": 1346,
      "all": 1347,
      "Ġporro": 1348,
      "Ġdix": 1349,
      "uo": 1350,
      "ne": 1351,
      "Ġproc": 1352,
      "icum": 1353,
      "ionem": 1354,
      "enae": 1355,
      "Ġdie": 1356,
      "ferendis": 1357,
      "Ġminima": 1358,
      "Ġfugit": 1359,
      "lli": 1360,
      "Ġnesci": 1361,
      "ptent": 1362,
      "ĠNec": 1363,
      "natur": 1364,
      "Ġoccaecati": 1365,
      "ensis": 1366,
      "Ġiam": 1367,
      "Ġdelectus": 1368,
      "ĠFr": 1369,
      "Ġaud": 1370,
      "Ġerror": 1371,
      "ust": 1372,
      "Ġvoluptatibus": 1373,
      "piciatis": 1374,
      "Ġaliqua": 1375,
      "Ġform": 1376,
      "Ġtempora": 1377,
      "Ġverb": 1378,
      "Ġdomin": 1379,
      "vers": 1380,
      "ice": 1381,
      "Ġprob": 1382,
      ";.": 1383,
      "entore": 1384,
      "ific": 1385,
      "Ġciv": 1386,
      "enta": 1387,
      "ĠOmn": 1388,
      "Ġtotam": 1389,
      "tem": 1390,
      "Ġapud": 1391,
      "Ġnemo": 1392,
      "Ġcommodi": 1393,
      "Ġmus": 1394,
      "Ġspec": 1395,
      "Ġgl": 1396,
      "hit": 1397,
      "quid": 1398,
      "quent": 1399,
      "ationes": 1400,
      "icis": 1401,
      "tius": 1402,
      "Ġvoluptates": 1403,
      "Ġmaiores": 1404,
      "Ġrecusandae": 1405,
      "estr": 1406,
      "ong": 1407,
      "Ġcub": 1408,
      "Ġch": 1409,
      "pisc": 1410,
      "Ġitaque": 1411,
      "irm": 1412,
      "Ġergo": 1413,
      "Ġeveniet": 1414,
      "Ġcas": 1415,
      "ico": 1416,
      "Ġlaboriosam": 1417,
      "eter": 1418,
      "Ġmodi": 1419,
      "Ġw": 1420,
      "Ġadipisci": 1421,
      "Ġintell": 1422,
      "ĠQuis": 1423,
      "Ġhabet": 1424,
      "Ġmagnam": 1425,
      "Ġmea": 1426,
      "Ġaperiam": 1427,
      "ana": 1428,
      "ver": 1429,
      "he": 1430,
      "Ġsequi": 1431,
      "Ġtenetur": 1432,
      "Ġord": 1433,
      "Ġmort": 1434,
      "Ġquisquam": 1435,
      "oqu": 1436,
      "Ġsibi": 1437,
      "Ġval": 1438,
      "Ġcontra": 1439,
      "Ġexercitationem": 1440,
      "Ġtrans": 1441,
      "Ġeorum": 1442,
      "iis": 1443,
      "Ġveritatis": 1444,
      "Ġfi": 1445,
      "Ġdoloribus": 1446,
      "Ġscript": 1447,
      "Ġconsequuntur": 1448,
      "ĠCl": 1449,
      "Ġprincip": 1450,
      "Ġminim": 1451,
      "Ġmem": 1452,
      "si": 1453,
      "ĠQuia": 1454,
      "Ġsine": 1455,
      "Ġsapiente": 1456,
      "aria": 1457,
      "Ġexc": 1458,
      "ito": 1459,
      "tu": 1460,
      "ĠOr": 1461,
      "Ġ:": 1462,
      "Ġquisque": 1463,
      "alem": 1464,
      "Ġpraec": 1465,
      "ni": 1466,
      "Ġmis": 1467,
      "Ġiud": 1468,
      "Ġreiciendis": 1469,
      "Ġdictumst": 1470,
      "Ġodit": 1471,
      "pter": 1472,
      "ĠPl": 1473,
      "Ġilli": 1474,
      "Ġeaque": 1475,
      "ĠIm": 1476,
      "Ġrepellat": 1477,
      "Ġasperiores": 1478,
      "ĠSit": 1479,
      "ĠIll": 1480,
      "Ġille": 1481,
      "urae": 1482,
      "Ġbeatae": 1483,
      "Ġincept": 1484,
      "tionem": 1485,
      "hib": 1486,
      "ĠPer": 1487,
      "Ġperferendis": 1488,
      "isse": 1489,
      "Ġfort": 1490,
      "Ġdo": 1491,
      "Ġarchit": 1492,
      "Ġfer": 1493,
      "Ġign": 1494,
      "Ġquoque": 1495,
      "rib": 1496,
      "Ġejus": 1497,
      "Ġtra": 1498,
      "ane": 1499,
      "Ġincid": 1500,
      "uisse": 1501,
      "Ġhabitant": 1502,
      "Ġoc": 1503,
      "piscop": 1504,
      "vit": 1505,
      "Ġpecc": 1506,
      "Ġurb": 1507,
      "Ġsci": 1508,
      "Ġipse": 1509,
      "Ġcogn": 1510,
      "itasse": 1511,
      "Ġomnibus": 1512,
      "atea": 1513,
      "Ġpraesent": 1514,
      "dem": 1515,
      "Ġem": 1516,
      "Ġaccusantium": 1517,
      "Ġhon": 1518,
      "Ġdoloremque": 1519,
      "Ġperspiciatis": 1520,
      "Ġquaerat": 1521,
      "Ġsenectus": 1522,
      "anus": 1523,
      "icae": 1524,
      "ard": 1525,
      "Ġilla": 1526,
      "Ġinventore": 1527,
      "Ġlaudantium": 1528,
      "Ġnetus": 1529,
      "Ġfec": 1530,
      "Ġtorquent": 1531,
      "rem": 1532,
      "ĠSe": 1533,
      "itora": 1534,
      "Ġincidunt": 1535,
      "Ġarchitecto": 1536,
      "Ġexplicabo": 1537,
      "Ġaenean": 1538,
      "Ġput": 1539,
      "isi": 1540,
      "Ġnesciunt": 1541,
      "Ġuti": 1542,
      "onis": 1543,
      "atoque": 1544,
      "Ġaspernatur": 1545,
      "ive": 1546,
      "ĠW": 1547,
      "tibus": 1548,
      "Ġcubilia": 1549,
      "Ġmund": 1550,
      "Ġimm": 1551,
      "Ġ19": 1552,
      "Ġir": 1553,
      "Ġcre": 1554,
      "Ġinceptos": 1555,
      "ĠAc": 1556,
      "ĠDeus": 1557,
      "Ġsens": 1558,
      "Ġaptent": 1559,
      "ord": 1560,
      "Ġplatea": 1561,
      "ĠAs": 1562,
      "ĠHoc": 1563,
      "Ġ3": 1564,
      "Ġsocios": 1565,
      "ubia": 1566,
      "up": 1567,
      "onem": 1568,
      "ym": 1569,
      "ios": 1570,
      "ator": 1571,
      "Ġlitora": 1572,
      "Ġresp": 1573,
      "Ġhabitasse": 1574,
      "Ġdicit": 1575,
      "ach": 1576,
      "Ġillud": 1577,
      "Ġsing": 1578,
      "ublic": 1579,
      "Ġeff": 1580,
      "Ġsua": 1581,
      "Ġmun": 1582,
      "Ġnatoque": 1583,
      "Ġrid": 1584,
      "Ġ'": 1585,
      "ĠFac": 1586,
      "inus": 1587,
      "tium": 1588,
      "ĠSc": 1589,
      "Ġtum": 1590,
      "Ġsuspendisse": 1591,
      "ĠTemp": 1592,
      "Ġvos": 1593,
      "enaeos": 1594,
      "ĠQuae": 1595,
      "Ġfaci": 1596,
      "Ġae": 1597,
      "Ġtaciti": 1598,
      "ĠMol": 1599,
      "ĠQuam": 1600,
      "tut": 1601,
      "Ġconubia": 1602,
      "ĠEa": 1603,
      "Ġfor": 1604,
      "Ġsociosqu": 1605,
      "ano": 1606,
      "act": 1607,
      "ĠIps": 1608,
      "ĠQuo": 1609,
      "Ġvix": 1610,
      "ĠNos": 1611,
      "ast": 1612,
      "Ġesset": 1613,
      "Ġbene": 1614,
      "ĠInter": 1615,
      "Ġprof": 1616,
      "Ġvic": 1617,
      "Ġpet": 1618,
      "inam": 1619,
      "Ġinquit": 1620,
      "Ġnullam": 1621,
      "ĠChris": 1622,
      "yr": 1623,
      "Ġlong": 1624,
      "ilium": 1625,
      "Ġtantum": 1626,
      "urr": 1627,
      "Ġmei": 1628,
      "Ġsequ": 1629,
      "Ġpropter": 1630,
      "ĠEn": 1631,
      "andum": 1632,
      "Ġâ": 1633,
      "vi": 1634,
      "Ġusque": 1635,
      "ÌĪ": 1636,
      "Ġpertin": 1637,
      "Ġpenatibus": 1638,
      "Ġpon": 1639,
      "ustr": 1640,
      "ĠSic": 1641,
      "ĠCor": 1642,
      "tione": 1643,
      "andi": 1644,
      "th": 1645,
      "Ġed": 1646,
      "Ġpu": 1647,
      "entiae": 1648,
      "imenaeos": 1649,
      "Ġunum": 1650,
      "Ġdisp": 1651,
      "Ġaff": 1652,
      "Ġmagnis": 1653,
      "Ġnasc": 1654,
      "ĠK": 1655,
      "ĠChristi": 1656,
      "Ġque": 1657,
      "Ġsolum": 1658,
      "Ġsumm": 1659,
      "Ġopp": 1660,
      "ĠEccles": 1661,
      "Ġcer": 1662,
      "Ġeiusmod": 1663,
      "bit": 1664,
      "Ġsalut": 1665,
      "Ġerit": 1666,
      "Ġcras": 1667,
      "ĠprÃ¦": 1668,
      "Ġliber": 1669,
      "Ġcausa": 1670,
      "Ġdisc": 1671,
      "Ġdicitur": 1672,
      "Ġmet": 1673,
      "antes": 1674,
      "uci": 1675,
      "iculus": 1676,
      "ve": 1677,
      "Ġhimenaeos": 1678,
      "uti": 1679,
      "itia": 1680,
      "Ġdet": 1681,
      "ivers": 1682,
      "Ġmut": 1683,
      "Ġped": 1684,
      "Ġinven": 1685,
      "Ġalia": 1686,
      "git": 1687,
      "umque": 1688,
      "if": 1689,
      "Ġplur": 1690,
      "Ġdol": 1691,
      "Ġinteger": 1692,
      "endit": 1693,
      "pic": 1694,
      "va": 1695,
      "Ġref": 1696,
      "ĠPat": 1697,
      "ĠSanc": 1698,
      "Ġhas": 1699,
      "Ġvim": 1700,
      "plic": 1701,
      "oria": 1702,
      "Ġmil": 1703,
      "Ġabs": 1704,
      "Ġev": 1705,
      "Ġego": 1706,
      "osc": 1707,
      "inde": 1708,
      "Ġit": 1709,
      "Ġvirtut": 1710,
      "Ġnostrud": 1711,
      "Ġmontes": 1712,
      "ĠMagn": 1713,
      "Ġcurabitur": 1714,
      "Ġass": 1715,
      "Ġspir": 1716,
      "ĠAp": 1717,
      "Ġusu": 1718,
      "ĠConsequ": 1719,
      "Ġfab": 1720,
      "Ġlud": 1721,
      "Ġsea": 1722,
      "ĠRep": 1723,
      "ĠCa": 1724,
      "ĠDic": 1725,
      "arium": 1726,
      "erent": 1727,
      "Ġadm": 1728,
      "Ġhos": 1729,
      "inem": 1730,
      "Ġsup": 1731,
      "Ġaet": 1732,
      "Ġincididunt": 1733,
      "Ġfrat": 1734,
      "Ġcred": 1735,
      "ectum": 1736,
      "uv": 1737,
      "omen": 1738,
      "pit": 1739,
      "Ġpri": 1740,
      "ĠReg": 1741,
      "Ġeccles": 1742,
      "ĠCons": 1743,
      "ones": 1744,
      "Ġdem": 1745,
      "res": 1746,
      "Ġregn": 1747,
      "Ġhom": 1748,
      "oni": 1749,
      "Ġcol": 1750,
      "Ġpublic": 1751,
      "Ġsuis": 1752,
      "Ġproin": 1753,
      "ento": 1754,
      ").": 1755,
      "Ġdiss": 1756,
      "Ġdum": 1757,
      "Ġlat": 1758,
      "Ġcoll": 1759,
      "inum": 1760,
      "Ġtant": 1761,
      "quis": 1762,
      "Ġexter": 1763,
      "Ġperf": 1764,
      "Ġvestr": 1765,
      "pere": 1766,
      "ons": 1767,
      "Ġmor": 1768,
      "enter": 1769,
      "Ġterr": 1770,
      "adem": 1771,
      "Ġnull": 1772,
      "ĠSp": 1773,
      "Ġsuo": 1774,
      "anis": 1775,
      "Ġcel": 1776,
      "Ġridiculus": 1777,
      "anum": 1778,
      "aliter": 1779,
      "Ġprom": 1780,
      "odo": 1781,
      "Ġsent": 1782,
      "Ġopus": 1783,
      "str": 1784,
      "edi": 1785,
      "no": 1786,
      "Ġost": 1787,
      "ĠUnde": 1788,
      "Ġnascetur": 1789,
      "Ġappell": 1790,
      "itter": 1791,
      "Ġsimul": 1792,
      "edic": 1793,
      "urg": 1794,
      "erea": 1795,
      "empl": 1796,
      "Ġobs": 1797,
      "imum": 1798,
      "Ġpraefect": 1799,
      "ĠquÃ¦": 1800,
      "Ġluc": 1801,
      "Ġoport": 1802,
      "imo": 1803,
      "ider": 1804,
      "reg": 1805,
      "ena": 1806,
      "ĠDeo": 1807,
      "ionis": 1808,
      "Ġuna": 1809,
      "Ġaliquip": 1810,
      "ax": 1811,
      "Ġdivin": 1812,
      "Ġomnium": 1813,
      "Ġadd": 1814,
      "ecenas": 1815,
      "Ġcui": 1816,
      "ulos": 1817,
      "Ġcontin": 1818,
      "ĠVen": 1819,
      "olog": 1820,
      "ota": 1821,
      "Ġmaecenas": 1822,
      "tam": 1823,
      "ies": 1824,
      "Ġneg": 1825,
      "Ġing": 1826,
      "ĠLab": 1827,
      "tionis": 1828,
      "uum": 1829,
      "ĠSol": 1830,
      "qua": 1831,
      "Ġquin": 1832,
      "ĠGra": 1833,
      "Ġdep": 1834,
      "Ġk": 1835,
      "ept": 1836,
      "Ġcal": 1837,
      "atim": 1838,
      "icam": 1839,
      "ide": 1840,
      "ĠHic": 1841,
      "Ġsive": 1842,
      "eli": 1843,
      "ĠLib": 1844,
      "Ġprimum": 1845,
      "Ġaliis": 1846,
      "ĠAcc": 1847,
      "ellig": 1848,
      "ilicet": 1849,
      "oss": 1850,
      "Ġmar": 1851,
      "Ġpraefecturae": 1852,
      "ĠItaque": 1853,
      "Ġconsul": 1854,
      "Ġle": 1855,
      "Ġeis": 1856,
      "isc": 1857,
      "itio": 1858,
      "ationibus": 1859,
      "idit": 1860,
      "ÌĤ": 1861,
      "lia": 1862,
      "ĠCu": 1863,
      "Ġhuius": 1864,
      "ys": 1865,
      "alibus": 1866,
      "ĠRe": 1867,
      "ĠTh": 1868,
      "ĠHaec": 1869,
      "Ġcuius": 1870,
      "ĠAug": 1871,
      "Ġbell": 1872,
      "Ġintelleg": 1873,
      "Ġsatis": 1874,
      "Ġrect": 1875,
      "iri": 1876,
      "oniam": 1877,
      "itae": 1878,
      "Ġpossit": 1879,
      "abit": 1880,
      "Ġtua": 1881,
      "Ġ4": 1882,
      "Ġcan": 1883,
      "Ġret": 1884,
      "inae": 1885,
      "ante": 1886,
      "Ġ20": 1887,
      "Ġloqu": 1888,
      "Ġvolunt": 1889,
      "Ġquando": 1890,
      "Ġsuum": 1891,
      "Ġparte": 1892,
      "Ġclass": 1893,
      "ecti": 1894,
      "Ġcontr": 1895,
      "Ġadh": 1896,
      "Ġvobis": 1897,
      "Ġideo": 1898,
      "ath": 1899,
      "Ġto": 1900,
      "Ġsuam": 1901,
      "Ġvul": 1902,
      "Ġpatr": 1903,
      "Ġanti": 1904,
      "num": 1905,
      "Ġloco": 1906,
      "Ġol": 1907,
      "Ġoff": 1908,
      "Ġcurae": 1909,
      "Ġintellig": 1910,
      "ebant": 1911,
      "Ġnonum": 1912,
      "Ġnim": 1913,
      "di": 1914,
      "Ġmov": 1915,
      "Ġmult": 1916,
      "ostol": 1917,
      "abat": 1918,
      "ident": 1919,
      "Ġpac": 1920,
      "ĠNeque": 1921,
      "idem": 1922,
      "ĠIs": 1923,
      "ĠVoluptatem": 1924,
      "atos": 1925,
      "Ġidem": 1926,
      "esse": 1927,
      "ĠSt": 1928,
      "Ġphasellus": 1929,
      "Ġtem": 1930,
      "ĠCar": 1931,
      "utus": 1932,
      "ĠPar": 1933,
      "Ġarg": 1934,
      "Ġibi": 1935,
      "Ġnomine": 1936,
      "ox": 1937,
      "ĠOmnis": 1938,
      "Ġnomen": 1939,
      "ric": 1940,
      "Ä±": 1941,
      "ario": 1942,
      "oph": 1943,
      "Ġtrad": 1944,
      "Ġoptim": 1945,
      "ĠHis": 1946,
      "eretur": 1947,
      "essus": 1948,
      "ea": 1949,
      "illum": 1950,
      "Ġratio": 1951,
      "Ġmens": 1952,
      "Ġ5": 1953,
      "cipi": 1954,
      "alia": 1955,
      "Ġsupra": 1956,
      "iles": 1957,
      "umus": 1958,
      "Ġscilicet": 1959,
      "Ġquad": 1960,
      "iones": 1961,
      "etuer": 1962,
      "ips": 1963,
      "Ġnoc": 1964,
      "Ġpossunt": 1965,
      "enit": 1966,
      "ier": 1967,
      "Ġsui": 1968,
      "ĠEnim": 1969,
      "urum": 1970,
      "Ġlaboris": 1971,
      "ola": 1972,
      "Ġdies": 1973,
      "itionem": 1974,
      "ĠMolesti": 1975,
      "),": 1976,
      "arii": 1977,
      "Ġpropr": 1978,
      "Ġrebus": 1979,
      "Ġperm": 1980,
      "icium": 1981,
      "ĠNihil": 1982,
      "Ġfacilisi": 1983,
      "Ġpotenti": 1984,
      "Ġvivamus": 1985,
      "Ġmot": 1986,
      "bum": 1987,
      "ĠSec": 1988,
      "atia": 1989,
      "Ġillis": 1990,
      "ĠPa": 1991,
      "lius": 1992,
      "Ġvidetur": 1993,
      "tea": 1994,
      "unti": 1995,
      "par": 1996,
      "ĠRerum": 1997,
      "ona": 1998,
      "Ġconi": 1999,
      "Ġfusce": 2000,
      "imi": 2001,
      "ĠSunt": 2002,
      "uto": 2003,
      "Ġhanc": 2004,
      "ĠErgo": 2005,
      "Ġcop": 2006,
      "Ġomni": 2007,
      "Ġth": 2008,
      "entus": 2009,
      "onum": 2010,
      "ĠPet": 2011,
      "ĠQua": 2012,
      "Ġposse": 2013,
      "idi": 2014,
      "pet": 2015,
      "Ġerant": 2016,
      "Ġhomo": 2017,
      "Ġang": 2018,
      "Ġdivers": 2019,
      "estim": 2020,
      "Ġbonum": 2021,
      "tific": 2022,
      "XX": 2023,
      "ĠEum": 2024,
      "ĠClass": 2025,
      "erint": 2026,
      "Ġpropri": 2027,
      "odem": 2028,
      "ĠLat": 2029,
      "Ġded": 2030,
      "ĠOd": 2031,
      "ha": 2032,
      "Ġprimo": 2033,
      "Ġcirca": 2034,
      "Ġgener": 2035,
      "Ġtunc": 2036,
      "Ġvi": 2037,
      "Ġhomines": 2038,
      "antia": 2039,
      "Ġmand": 2040,
      "modi": 2041,
      "exus": 2042,
      "Ġsociis": 2043,
      "Ġfieri": 2044,
      "yn": 2045,
      "Ġunivers": 2046,
      "ĠAmet": 2047,
      "!.": 2048,
      "Ġepiscop": 2049,
      "Ġhabere": 2050,
      "Ġdilig": 2051,
      "Ġlitter": 2052,
      "Ġseu": 2053,
      "Ġconsectetuer": 2054,
      "Ġiudic": 2055,
      "Ġquantum": 2056,
      "Ġexempl": 2057,
      "ensi": 2058,
      "ĠTe": 2059,
      "Ġaequ": 2060,
      "Ġpag": 2061,
      "Ġadhuc": 2062,
      "xit": 2063,
      "pi": 2064,
      "Ġreli": 2065,
      "Ġcorpus": 2066,
      "Ġmater": 2067,
      "Ġexercitation": 2068,
      "Ġullamco": 2069,
      "Ġpoter": 2070,
      "Ġtim": 2071,
      "Ġdixit": 2072,
      "Ġdim": 2073,
      "Ġvers": 2074,
      "itudinem": 2075,
      "Ġfuerit": 2076,
      "ĠAng": 2077,
      "tur": 2078,
      "ech": 2079,
      "ÌĨ": 2080,
      "Ġphil": 2081,
      "endam": 2082,
      "odi": 2083,
      "ilio": 2084,
      "Ġvita": 2085,
      "Ġvide": 2086,
      "Ġbre": 2087,
      "Ġrefer": 2088,
      "Ġpraet": 2089,
      "Ġscrib": 2090,
      "Ġof": 2091,
      "Ġsex": 2092,
      "Ġredd": 2093,
      "lus": 2094,
      "Ġdiff": 2095,
      "Ġdebet": 2096,
      "ĠComm": 2097,
      "Ġz": 2098,
      "ĠDominus": 2099,
      "ung": 2100,
      "\".": 2101,
      "ucc": 2102,
      "Ġtab": 2103,
      "erd": 2104,
      "ĠEs": 2105,
      "Ġfit": 2106,
      "ecta": 2107,
      "ruc": 2108,
      "Ġpal": 2109,
      "ber": 2110,
      "ĠDeum": 2111,
      "ulas": 2112,
      "ĠEos": 2113,
      "ĠFranc": 2114,
      "trum": 2115,
      "Ġgrati": 2116,
      "ebr": 2117,
      "ara": 2118,
      "Ġpass": 2119,
      "tae": 2120,
      "ĠDolorem": 2121,
      "Ġfut": 2122,
      "Ġcet": 2123,
      "Ġdesc": 2124,
      "omodo": 2125,
      "andem": 2126,
      "icing": 2127,
      "ĠTr": 2128,
      "Ġnatura": 2129,
      "Ġaliud": 2130,
      "ĠEu": 2131,
      "Ġsupp": 2132,
      "Ġdiu": 2133,
      "Ġrei": 2134,
      "anda": 2135,
      "Ġsignific": 2136,
      "yst": 2137,
      "dus": 2138,
      "Ġcircum": 2139,
      "Ġprima": 2140,
      "Ġphilos": 2141,
      "tiones": 2142,
      "ĠVoluptas": 2143,
      "Ġher": 2144,
      "Ġdam": 2145,
      "ĠAtque": 2146,
      "nis": 2147,
      "Ġling": 2148,
      "rips": 2149,
      "ocr": 2150,
      "Ġfal": 2151,
      "Ġtrib": 2152,
      "atam": 2153,
      "rag": 2154,
      "Ġmulta": 2155,
      "Ġon": 2156,
      "Ġmiser": 2157,
      "Ġplus": 2158,
      "...": 2159,
      "Ġquaer": 2160,
      "ĠDomini": 2161,
      "tia": 2162,
      "ĠDel": 2163,
      "Ġquant": 2164,
      "Ġadipisicing": 2165,
      "Ġstr": 2166,
      "ĠVelit": 2167,
      "Ġha": 2168,
      "Ġtest": 2169,
      "Ġbe": 2170,
      "Ġfacit": 2171,
      "Ġeadem": 2172,
      "iliter": 2173,
      "Ġconstit": 2174,
      "Ġstud": 2175,
      "uet": 2176,
      "ĠNum": 2177,
      "ĠSim": 2178,
      "ĠQuas": 2179,
      "Ġpraest": 2180,
      "Ġaute": 2181,
      "ĠNexus": 2182,
      "Ġista": 2183,
      "ĠIo": 2184,
      "ĠAutem": 2185,
      "Ġtuum": 2186,
      "ros": 2187,
      "quir": 2188,
      "ĠConsequatur": 2189,
      "pos": 2190,
      "ĠCurae": 2191,
      "umb": 2192,
      "angu": 2193,
      "rac": 2194,
      "Ġcompl": 2195,
      "anae": 2196,
      "Ġamb": 2197,
      "Ġpars": 2198,
      "ulit": 2199,
      "lud": 2200,
      "Ġperic": 2201,
      "Ġsaec": 2202,
      "-.": 2203,
      "Ġexper": 2204,
      "uerunt": 2205,
      "Ġpartem": 2206,
      "Ġhabent": 2207,
      "Ġnego": 2208,
      "Ġreper": 2209,
      "Ġordin": 2210,
      "Ġminis": 2211,
      "itudo": 2212,
      "Ġfund": 2213,
      "asse": 2214,
      "atae": 2215,
      "uro": 2216,
      "ress": 2217,
      "enis": 2218,
      "Ġterra": 2219,
      "icip": 2220,
      "Ġorb": 2221,
      "Ġmir": 2222,
      "Ġgrav": 2223,
      "Ġait": 2224,
      "torum": 2225,
      "Ġini": 2226,
      "enus": 2227,
      "Ġhominum": 2228,
      "Ġipso": 2229,
      "Ġirure": 2230,
      "ariis": 2231,
      "ĠGraec": 2232,
      "ebatur": 2233,
      "Ġnostri": 2234,
      "Ġlic": 2235,
      "Ġvere": 2236,
      "rab": 2237,
      "ĠBr": 2238,
      "Ġetc": 2239,
      "Ġfere": 2240,
      "Ġux": 2241,
      "Ġgraec": 2242,
      "eur": 2243,
      "onium": 2244,
      "inqu": 2245,
      "ĠInc": 2246,
      "ida": 2247,
      "ĠSecund": 2248,
      "ĠVir": 2249,
      "Ġmai": 2250,
      "Ġser": 2251,
      "Ġpartes": 2252,
      "sit": 2253,
      "Ġimag": 2254,
      "Ġinde": 2255,
      "atores": 2256,
      "Ġlicet": 2257,
      "Ġy": 2258,
      "Ġmulti": 2259,
      "issime": 2260,
      "Ġpostea": 2261,
      "Ġext": 2262,
      "atat": 2263,
      "Ġrev": 2264,
      "utum": 2265,
      "ibet": 2266,
      "ĠInterdum": 2267,
      "Ġqual": 2268,
      "modum": 2269,
      "Ġpraedic": 2270,
      "Ĥ¬": 2271,
      "ipis": 2272,
      "Ġdil": 2273,
      "lo": 2274,
      "ĠMat": 2275,
      "Ġeffici": 2276,
      ".,": 2277,
      "Ġquidam": 2278,
      "rig": 2279,
      "Ġ6": 2280,
      "Ġexterni": 2281,
      "ulae": 2282,
      "ilem": 2283,
      "itione": 2284,
      "Ġfuisse": 2285,
      "ectu": 2286,
      "yp": 2287,
      "ique": 2288,
      "pta": 2289,
      "bris": 2290,
      "ĠMax": 2291,
      "sa": 2292,
      "Ġcillum": 2293,
      "ĠâĤ¬": 2294,
      "Ġsucc": 2295,
      "antibus": 2296,
      "Ġcommune": 2297,
      "ba": 2298,
      "avi": 2299,
      "sc": 2300,
      "aed": 2301,
      "antem": 2302,
      "su": 2303,
      "issima": 2304,
      "eta": 2305,
      "Ġdefin": 2306,
      "ĠPost": 2307,
      "ĠNov": 2308,
      "III": 2309,
      "Ġperpet": 2310,
      "ĠMin": 2311,
      "ĠEg": 2312,
      "Ġquoniam": 2313,
      "Ġeodem": 2314,
      "Ġfacta": 2315,
      "Ġextr": 2316,
      "Ġgratia": 2317,
      "Ġlabor": 2318,
      "issimum": 2319,
      "la": 2320,
      "Ġcam": 2321,
      "Ġvig": 2322,
      "ĠSint": 2323,
      "Ġprec": 2324,
      "Ġdiscip": 2325,
      "Ġincol": 2326,
      "Ġfecit": 2327,
      "Ġlocum": 2328,
      "lam": 2329,
      "Ġinteg": 2330,
      "Ġ18": 2331,
      "Ġgub": 2332,
      "ĠLa": 2333,
      "ĠTer": 2334,
      "Ġmanu": 2335,
      "Ġpol": 2336,
      "oed": 2337,
      "Ġrelig": 2338,
      "tid": 2339,
      "uga": 2340,
      "Ġcogit": 2341,
      "Ġaux": 2342,
      "itudine": 2343,
      "Ġipsius": 2344,
      "fac": 2345,
      "tas": 2346,
      "lium": 2347,
      "mo": 2348,
      "Ġcael": 2349,
      "Ġsubst": 2350,
      "Ġgenus": 2351,
      "ak": 2352,
      "Ġintr": 2353,
      "Ġmelius": 2354,
      "ĠEl": 2355,
      "vo": 2356,
      "ĠImper": 2357,
      "Ġsanctus": 2358,
      "Ġoccaecat": 2359,
      "ulam": 2360,
      "ĠZ": 2361,
      "ias": 2362,
      "ĠItem": 2363,
      "ĠÂ": 2364,
      "enique": 2365,
      "lin": 2366,
      "Ġrespond": 2367,
      "Ġwisi": 2368,
      "Ġvitam": 2369,
      "ĠÎ": 2370,
      "rob": 2371,
      "atorum": 2372,
      "Ġspeci": 2373,
      "Ġexs": 2374,
      "ĠIpsum": 2375,
      "erant": 2376,
      "ĠAdipis": 2377,
      "Ġproduc": 2378,
      "Ġcust": 2379,
      "Ġannos": 2380,
      "uus": 2381,
      "Ġillius": 2382,
      "Ġproident": 2383,
      "Ã¦c": 2384,
      "Ġson": 2385,
      "ĠVer": 2386,
      "ĠApp": 2387,
      "Ġunus": 2388,
      "Ġconstitu": 2389,
      "Ġipsi": 2390,
      "Ġatt": 2391,
      "fici": 2392,
      "Ġcupidatat": 2393,
      "Ġprius": 2394,
      "Ġpropos": 2395,
      "ĠUl": 2396,
      "ĠRes": 2397,
      "ĠGal": 2398,
      "erci": 2399,
      "Ġquaesti": 2400,
      "ides": 2401,
      "Ġbona": 2402,
      "Ġelect": 2403,
      "Ġacce": 2404,
      "ulc": 2405,
      "ron": 2406,
      "Ì§": 2407,
      "Ġnav": 2408,
      "Ġarm": 2409,
      "oriam": 2410,
      "Ġalii": 2411,
      "Ġ201": 2412,
      "Ġhor": 2413,
      "ulg": 2414,
      "Ġdisput": 2415,
      "Ġterm": 2416,
      "Ġserm": 2417,
      "Ġphilosoph": 2418,
      "Ġiis": 2419,
      "ĠDuo": 2420,
      "Ġmundi": 2421,
      "Ġutrum": 2422,
      "Ġpede": 2423,
      "ĠUr": 2424,
      "ĠSem": 2425,
      "Ġperson": 2426,
      "Ġdicere": 2427,
      "issimi": 2428,
      "ĠTur": 2429,
      "oli": 2430,
      "Ġamic": 2431,
      "Ġquorum": 2432,
      "uerit": 2433,
      "elli": 2434,
      "idum": 2435,
      "enum": 2436,
      "Ġfig": 2437,
      "Ġ*": 2438,
      "Ġ/": 2439,
      "Ġtract": 2440,
      "Ġfactum": 2441,
      "Ġmultis": 2442,
      "Ġproduct": 2443,
      "ĠAccus": 2444,
      "Ġ[": 2445,
      "itam": 2446,
      "ho": 2447,
      "Ġthe": 2448,
      "Ġpros": 2449,
      "erus": 2450,
      "ĠAugus": 2451,
      "uram": 2452,
      "bat": 2453,
      "ular": 2454,
      "Ġdicendum": 2455,
      "Ġaetern": 2456,
      "ĠCo": 2457,
      "ptio": 2458,
      "itates": 2459,
      "ĠVitae": 2460,
      "ft": 2461,
      "Ġapplic": 2462,
      "Ġgaud": 2463,
      "Ġspect": 2464,
      "Ġdiem": 2465,
      "Ġinquam": 2466,
      "odie": 2467,
      "Ġmedi": 2468,
      "Ġappar": 2469,
      "Ġfilius": 2470,
      "ebus": 2471,
      "Ġprox": 2472,
      "erem": 2473,
      "oth": 2474,
      "Ġdissenti": 2475,
      "Ġpraeb": 2476,
      "Ġmo": 2477,
      "Ġtota": 2478,
      "icem": 2479,
      "ilius": 2480,
      "mus": 2481,
      "ĠNo": 2482,
      "ĠPraet": 2483,
      "Ġverum": 2484,
      "Ġverba": 2485,
      "Ġmaior": 2486,
      "Ġaed": 2487,
      "Ġjam": 2488,
      "Ġinterp": 2489,
      "ense": 2490,
      "Ġcognosc": 2491,
      "ĠÃ¦": 2492,
      "Ġaqu": 2493,
      "ĠTu": 2494,
      "quidem": 2495,
      "Ġregione": 2496,
      "Ġvalde": 2497,
      "ella": 2498,
      "Ġamp": 2499,
      "arch": 2500,
      "Ġlo": 2501,
      "Ġvest": 2502,
      "ĠPos": 2503,
      "Ġ7": 2504,
      "Ġadvers": 2505,
      "ĠPon": 2506,
      "Ġrest": 2507,
      "ĠNisi": 2508,
      "ĠMon": 2509,
      "Ġnob": 2510,
      "Ġlum": 2511,
      "Ġrex": 2512,
      "Ġnostro": 2513,
      "inistr": 2514,
      "modo": 2515,
      "ute": 2516,
      "ĠConsect": 2517,
      "Ġpater": 2518,
      "ĠDec": 2519,
      "ĠJo": 2520,
      "ulorum": 2521,
      "Ġpugn": 2522,
      "ete": 2523,
      "ĠSal": 2524,
      "Ġsti": 2525,
      "umentum": 2526,
      "Ġinfer": 2527,
      "Ġhunc": 2528,
      "fr": 2529,
      "Ġusus": 2530,
      "Ġmodum": 2531,
      "ĠCaes": 2532,
      "isti": 2533,
      "ĠOcc": 2534,
      "Ġcunc": 2535,
      "amur": 2536,
      "Ġfinem": 2537,
      "Ġsacerd": 2538,
      "Ġomnino": 2539,
      "ebit": 2540,
      "essit": 2541,
      "Ġfirm": 2542,
      "Ġsuae": 2543,
      "Ġpraecip": 2544,
      "Ġcolor": 2545,
      "Ġessent": 2546,
      "ĠGerm": 2547,
      "Ġprov": 2548,
      "ĠNemo": 2549,
      "Ġdiv": 2550,
      "Ġmanus": 2551,
      "ĠSpir": 2552,
      "ĠFacilis": 2553,
      "Ġquat": 2554,
      "abant": 2555,
      "Ġpecun": 2556,
      "alium": 2557,
      "Ġtamquam": 2558,
      "estig": 2559,
      "ĠMolestiae": 2560,
      "ĠDolores": 2561,
      "Ġpriv": 2562,
      "etis": 2563,
      "Ġquomodo": 2564,
      "ugn": 2565,
      "Ġvinc": 2566,
      "Ġfel": 2567,
      "ĠThe": 2568,
      "Ġjus": 2569,
      "Ġrationem": 2570,
      "uxta": 2571,
      "Ġcert": 2572,
      "ĠAsper": 2573,
      "Ġadhib": 2574,
      "Ġmiss": 2575,
      "da": 2576,
      "do": 2577,
      "Ġfur": 2578,
      "ortun": 2579,
      "Ġ8": 2580,
      "ptem": 2581,
      "Ġperd": 2582,
      "art": 2583,
      "Ġpond": 2584,
      "Ġtuo": 2585,
      "ĠExcept": 2586,
      "ania": 2587,
      "endere": 2588,
      "Ġequ": 2589,
      "....": 2590,
      "Ġpraem": 2591,
      "ĠPers": 2592,
      "Ġnol": 2593,
      "ĠEpiscop": 2594,
      "Ġsil": 2595,
      "Ġgem": 2596,
      "Ġsuas": 2597,
      "bo": 2598,
      "Ġprogr": 2599,
      "abilis": 2600,
      "icorum": 2601,
      "ĠFl": 2602,
      "Ġdeinde": 2603,
      "Ġos": 2604,
      "Ġdedit": 2605,
      "Ġben": 2606,
      "Ġpotius": 2607,
      "plex": 2608,
      "udo": 2609,
      "ĠTum": 2610,
      "ca": 2611,
      "ĠDi": 2612,
      "erumque": 2613,
      "Ġvt": 2614,
      "Ġaudi": 2615,
      "Ġrecte": 2616,
      "onom": 2617,
      "Ġinstrum": 2618,
      "ĠIst": 2619,
      "uam": 2620,
      "Ġcaput": 2621,
      "eant": 2622,
      "ĠImp": 2623,
      "Ġquaedam": 2624,
      "Ġmilit": 2625,
      "Ġhist": 2626,
      "Ġpati": 2627,
      "inta": 2628,
      "aus": 2629,
      "Ġforma": 2630,
      "cipere": 2631,
      "Ġinterret": 2632,
      "Ġtuam": 2633,
      "Ġmerit": 2634,
      "arr": 2635,
      "ĠCap": 2636,
      "ãģ": 2637,
      "Ġapostol": 2638,
      "antis": 2639,
      "Ġannis": 2640,
      "Ġvac": 2641,
      "Ġspiritu": 2642,
      "Ġcorpore": 2643,
      "ĠQuibus": 2644,
      "Ġav": 2645,
      "Ġrad": 2646,
      "Ġpauc": 2647,
      "enn": 2648,
      "Ġtres": 2649,
      "In": 2650,
      "Ġvirtus": 2651,
      "obus": 2652,
      "Ġsangu": 2653,
      "Ġolim": 2654,
      "ĠEgo": 2655,
      "Ġaliquando": 2656,
      "Ġnoster": 2657,
      "ectio": 2658,
      "Ġextra": 2659,
      "ĠOrci": 2660,
      "Ġindustr": 2661,
      "Ġfidem": 2662,
      "ĠDes": 2663,
      "anorum": 2664,
      "Ġillam": 2665,
      "Ġfacile": 2666,
      "iens": 2667,
      "ĠBland": 2668,
      "Ġaltera": 2669,
      "Ġinim": 2670,
      "Ġdelic": 2671,
      "Ġmer": 2672,
      "Ġpotes": 2673,
      "Ġarbit": 2674,
      "ĠUll": 2675,
      "ĠRepell": 2676,
      "Ġexpet": 2677,
      "Ġterram": 2678,
      "aster": 2679,
      "Ġscrips": 2680,
      "ines": 2681,
      "ĠLe": 2682,
      "ĠII": 2683,
      "ecum": 2684,
      "Ġuno": 2685,
      "Ġoportet": 2686,
      "Ġforte": 2687,
      "ivit": 2688,
      "ĠPraeterea": 2689,
      "US": 2690,
      "ĠPlac": 2691,
      "Ġcib": 2692,
      "Ġnostris": 2693,
      "ĠOb": 2694,
      "ĠGr": 2695,
      "entio": 2696,
      "Ġperfect": 2697,
      "estatis": 2698,
      "Ġull": 2699,
      "ationi": 2700,
      "apt": 2701,
      "itiae": 2702,
      "Ġomne": 2703,
      "etetur": 2704,
      "Ġsociet": 2705,
      "Ġanimo": 2706,
      "raph": 2707,
      "tor": 2708,
      "Ġquar": 2709,
      "Ġpulch": 2710,
      "ĠIam": 2711,
      "rog": 2712,
      "inas": 2713,
      "Ġ200": 2714,
      "adips": 2715,
      "Ġnun": 2716,
      "eps": 2717,
      "ĠDign": 2718,
      "Ġ15": 2719,
      "Ġvell": 2720,
      "Ġjud": 2721,
      "pist": 2722,
      "Ġmerc": 2723,
      "Ġdon": 2724,
      "Ġvirtute": 2725,
      "ÌĮ": 2726,
      "Ġsumus": 2727,
      "adipscing": 2728,
      "Ġhuic": 2729,
      "lem": 2730,
      "mi": 2731,
      "ĠPraes": 2732,
      "Ġannum": 2733,
      "itiam": 2734,
      "Ġverbis": 2735,
      "Ġden": 2736,
      "Ġintra": 2737,
      "ĠOdio": 2738,
      "Ġanima": 2739,
      "Ġhinc": 2740,
      "issent": 2741,
      "lar": 2742,
      "anos": 2743,
      "eres": 2744,
      "Ġhominis": 2745,
      "Ġvin": 2746,
      "Ġmach": 2747,
      "Ġaur": 2748,
      "estum": 2749,
      "ĠEsse": 2750,
      "itiones": 2751,
      "ĠConsectetur": 2752,
      "Ġnovum": 2753,
      "Ġtandem": 2754,
      "Ġinn": 2755,
      "Ġtotum": 2756,
      "Ġpopulo": 2757,
      "cce": 2758,
      "ido": 2759,
      "issimus": 2760,
      "ĠCommun": 2761,
      "Ġcomit": 2762,
      "Ġsubi": 2763,
      "tic": 2764,
      "irmod": 2765,
      "Ġiri": 2766,
      "ĠCorp": 2767,
      "Ġoratio": 2768,
      "andam": 2769,
      "Ġmeus": 2770,
      "ĠEur": 2771,
      "Î¿": 2772,
      "averunt": 2773,
      "Ġfamili": 2774,
      "aretur": 2775,
      "esset": 2776,
      "ga": 2777,
      "vum": 2778,
      "Ġpres": 2779,
      "Ġasc": 2780,
      "tos": 2781,
      "Ġperven": 2782,
      "Ġvenit": 2783,
      "Ġhominem": 2784,
      "rus": 2785,
      "ĠArc": 2786,
      "Ġsadipscing": 2787,
      "Ġregis": 2788,
      "CC": 2789,
      "ioris": 2790,
      "Ġpossumus": 2791,
      "rae": 2792,
      "Ġindic": 2793,
      "epit": 2794,
      "ĠChristus": 2795,
      "ionibus": 2796,
      "Ġsummo": 2797,
      "Ġcompos": 2798,
      "ĠEius": 2799,
      "Ġpostul": 2800,
      "amen": 2801,
      "ĠDomino": 2802,
      "Ġcant": 2803,
      "Ġmeum": 2804,
      "och": 2805,
      "Ġfide": 2806,
      "Ġinvidunt": 2807,
      "ĠApostol": 2808,
      "ĠChristo": 2809,
      "Ġtui": 2810,
      "Ġingen": 2811,
      "itionis": 2812,
      "Ġinterpret": 2813,
      "ese": 2814,
      "Ġconfirm": 2815,
      "Ġconsetetur": 2816,
      "ĠExp": 2817,
      "Ġopera": 2818,
      "ĠRec": 2819,
      "ĠSapi": 2820,
      "Ġpor": 2821,
      "Ġstat": 2822,
      "Ġagn": 2823,
      "ĠUllam": 2824,
      "Ġdoctr": 2825,
      "edere": 2826,
      "uisset": 2827,
      "amm": 2828,
      "icos": 2829,
      "Î±": 2830,
      "ĠSae": 2831,
      "Ġ10": 2832,
      "ĠDuc": 2833,
      "Î¹": 2834,
      "Ġlibro": 2835,
      "Ġsingulis": 2836,
      "Ġalio": 2837,
      "Ġomnem": 2838,
      "ĠLac": 2839,
      "Ġsuos": 2840,
      "isit": 2841,
      "Ġmanif": 2842,
      "Ġ9": 2843,
      "gren": 2844,
      "ror": 2845,
      "uf": 2846,
      "Ġinstit": 2847,
      "Ġnonumy": 2848,
      "Ġlev": 2849,
      "Ġmulto": 2850,
      "Ġingr": 2851,
      "iunt": 2852,
      "ĠAg": 2853,
      "line": 2854,
      "ergren": 2855,
      "utis": 2856,
      "Ġmortem": 2857,
      "issa": 2858,
      "rehens": 2859,
      "Ġcelebr": 2860,
      "Ġhi": 2861,
      "Ġaccusam": 2862,
      "Ġalt": 2863,
      "Ġeas": 2864,
      "esta": 2865,
      "Ġpraeter": 2866,
      "ĠHab": 2867,
      "Ġsancti": 2868,
      "Ġiterum": 2869,
      "onia": 2870,
      "annes": 2871,
      "Ġdex": 2872,
      "Ġconsilium": 2873,
      "osa": 2874,
      "Ġline": 2875,
      "cum": 2876,
      "Ġdicunt": 2877,
      "Ġeirmod": 2878,
      "aecati": 2879,
      "echn": 2880,
      "Ġposset": 2881,
      "ariae": 2882,
      "pto": 2883,
      "ularis": 2884,
      "Ġdomum": 2885,
      "Ġbonorum": 2886,
      "Ġstatim": 2887,
      "my": 2888,
      "ucius": 2889,
      "ĠQuos": 2890,
      "rop": 2891,
      "Ġvestri": 2892,
      "ĠEcclesiae": 2893,
      "ĠCas": 2894,
      "Ġglori": 2895,
      "Ġfre": 2896,
      "Ġrog": 2897,
      "ĠConst": 2898,
      "uptatum": 2899,
      "oro": 2900,
      "ĠXX": 2901,
      "Ġvoluptua": 2902,
      "ãĤ": 2903,
      "uius": 2904,
      "Ġelitr": 2905,
      "Ġfacult": 2906,
      "Ġfas": 2907,
      "Ġpopulus": 2908,
      "Ġgenere": 2909,
      "Ġconsilio": 2910,
      "ĠCumque": 2911,
      "ĠY": 2912,
      "Ġhodie": 2913,
      "Ġnecesse": 2914,
      "ĠIud": 2915,
      "ĠPo": 2916,
      "Ġmateria": 2917,
      "Ġmos": 2918,
      "Ġfidel": 2919,
      "Ġplures": 2920,
      "Ġib": 2921,
      "vus": 2922,
      "Ġdia": 2923,
      "Ġnimis": 2924,
      "het": 2925,
      "ĠSuper": 2926,
      "enam": 2927,
      "Ġtemporis": 2928,
      "ĠDa": 2929,
      "Ġvia": 2930,
      "ĠMel": 2931,
      "arent": 2932,
      "ĠDeinde": 2933,
      "Ġalterum": 2934,
      "yc": 2935,
      "Ġcens": 2936,
      "Ġdenique": 2937,
      "Ġli": 2938,
      "Ġiriure": 2939,
      "itati": 2940,
      "Ġgubergren": 2941,
      "eper": 2942,
      "elus": 2943,
      "Ġiuv": 2944,
      "athol": 2945,
      "Ġomitt": 2946,
      "ton": 2947,
      "ĠVid": 2948,
      "Ġpere": 2949,
      "bas": 2950,
      "nus": 2951,
      "imis": 2952,
      "ĠArch": 2953,
      "Ġrebum": 2954,
      "Ġaqua": 2955,
      "Ġpatri": 2956,
      "ĠEi": 2957,
      "ĠCr": 2958,
      "Ġconsider": 2959,
      "ĠNobis": 2960,
      "Ġobserv": 2961,
      "Ġopin": 2962,
      "ectionem": 2963,
      "inceps": 2964,
      "tro": 2965,
      "arg": 2966,
      "Ġhujus": 2967,
      "ĠHisp": 2968,
      "Ġsep": 2969,
      "Ġnem": 2970,
      "inibus": 2971,
      "Ġpatet": 2972,
      "Ġcorpora": 2973,
      "Ġnaturae": 2974,
      "ĠSac": 2975,
      "ĠEurop": 2976,
      "Ġipsis": 2977,
      "Ġdiebus": 2978,
      "ĠDignissim": 2979,
      "Ġmalum": 2980,
      "Ġinstitu": 2981,
      "ĠSum": 2982,
      "Ġsch": 2983,
      "Ġcompar": 2984,
      "ĠInv": 2985,
      "ĠEcclesia": 2986,
      "ĠSancti": 2987,
      "nam": 2988,
      "Ġlocis": 2989,
      "atoris": 2990,
      "Ġcujus": 2991,
      "Ġdici": 2992,
      "Ġclita": 2993,
      "Ġcul": 2994,
      "du": 2995,
      "Ġincolarum": 2996,
      "Ġchar": 2997,
      "atius": 2998,
      "Ġexcepteur": 2999,
      "ystem": 3000,
      "Ġiter": 3001,
      "itto": 3002,
      "idus": 3003,
      "atas": 3004,
      "age": 3005,
      "hor": 3006,
      "trib": 3007,
      "Ġtation": 3008,
      "ĠSicut": 3009,
      "Ġabsol": 3010,
      "yl": 3011,
      "etr": 3012,
      "ĠInde": 3013,
      "ĠAnno": 3014,
      "ĠPorro": 3015,
      "ĠMi": 3016,
      "oto": 3017,
      "Ġstatu": 3018,
      "endas": 3019,
      "versus": 3020,
      "Ġsimplic": 3021,
      "Ġmotus": 3022,
      "Ġclar": 3023,
      "Ġcad": 3024,
      "ĠMul": 3025,
      "Ġvalet": 3026,
      "Ġuel": 3027,
      "Ġtit": 3028,
      "Ġhabemus": 3029,
      "iorum": 3030,
      "ĠAmer": 3031,
      "abor": 3032,
      "Ġadv": 3033,
      "Ġmom": 3034,
      "ĠLibero": 3035,
      "ĠRem": 3036,
      "Åĵ": 3037,
      "po": 3038,
      "Ġdico": 3039,
      "Ġaliquo": 3040,
      "ecit": 3041,
      "sal": 3042,
      "idis": 3043,
      "anu": 3044,
      "anam": 3045,
      "Ġrequir": 3046,
      "ulli": 3047,
      "Ġmeis": 3048,
      "Ġluptatum": 3049,
      "anno": 3050,
      "Ġmateri": 3051,
      "Ġmitt": 3052,
      "Ġiu": 3053,
      "Ġsequitur": 3054,
      "Ġsenti": 3055,
      "ĠDolore": 3056,
      "Ġvend": 3057,
      "Ġpaulo": 3058,
      "Ġconven": 3059,
      "Ġquot": 3060,
      "Ġmultum": 3061,
      "Ġorig": 3062,
      "ĠMus": 3063,
      "ĠSu": 3064,
      "Ġsper": 3065,
      "arc": 3066,
      "cili": 3067,
      "ĠDiam": 3068,
      "ĠâĢ": 3069,
      "ĠPoss": 3070,
      "ommod": 3071,
      "endos": 3072,
      "Ġsom": 3073,
      "Ġstet": 3074,
      "Ġsa": 3075,
      "Ġerud": 3076,
      "Ġvolor": 3077,
      "ĠSaepe": 3078,
      "Ġfilii": 3079,
      "Ġexerci": 3080,
      "Ġdiffic": 3081,
      "leg": 3082,
      "Ġdeser": 3083,
      "Ġfactus": 3084,
      "Ġvet": 3085,
      "Ġmac": 3086,
      "Ġspecies": 3087,
      "tior": 3088,
      "Ġconstruc": 3089,
      "lend": 3090,
      "Ġtol": 3091,
      "ĠDeb": 3092,
      "Ġoccas": 3093,
      "eti": 3094,
      "Ġsumma": 3095,
      "ibile": 3096,
      "Ġvituper": 3097,
      "ĠCam": 3098,
      "eum": 3099,
      "pius": 3100,
      "ĠIes": 3101,
      "rist": 3102,
      "yd": 3103,
      "ĠPort": 3104,
      "Ġmulier": 3105,
      "essum": 3106,
      "Ġmemb": 3107,
      "Ġvirg": 3108,
      "ĠLeg": 3109,
      "atoribus": 3110,
      "Ġextrem": 3111,
      "Ġposter": 3112,
      "este": 3113,
      "Ġdub": 3114,
      "ĠVis": 3115,
      "Ġappet": 3116,
      "iore": 3117,
      "ela": 3118,
      "Ġvult": 3119,
      "Ġaliquis": 3120,
      "tri": 3121,
      "abatur": 3122,
      "Ġconsum": 3123,
      "cis": 3124,
      "Ġclam": 3125,
      "eto": 3126,
      "Ġard": 3127,
      "ĠIllum": 3128,
      "entorum": 3129,
      "Ġsolet": 3130,
      "estin": 3131,
      "ĠLaud": 3132,
      "Ġvidit": 3133,
      "Ġsan": 3134,
      "Ġx": 3135,
      "Ġalios": 3136,
      "Ġort": 3137,
      "tidie": 3138,
      "Ġaus": 3139,
      "tif": 3140,
      "ĠSub": 3141,
      "Ġfidei": 3142,
      "Ġlocus": 3143,
      "Ġnaturam": 3144,
      "ĠEv": 3145,
      "Ġcausam": 3146,
      "vinci": 3147,
      "20": 3148,
      "ĠQ": 3149,
      "Ġsplend": 3150,
      "Ġultim": 3151,
      "uae": 3152,
      "ĠAnd": 3153,
      "Ġmodus": 3154,
      "itudinis": 3155,
      "una": 3156,
      "onte": 3157,
      "erentur": 3158,
      "Ġhominibus": 3159,
      "antiam": 3160,
      "Ġobi": 3161,
      "Ġdomus": 3162,
      "Ġostend": 3163,
      "issimo": 3164,
      "ugit": 3165,
      "atium": 3166,
      "Ġpauper": 3167,
      "Ġtemper": 3168,
      "ĠBo": 3169,
      "onibus": 3170,
      "Ġsacram": 3171,
      "itium": 3172,
      "Ġast": 3173,
      "Ġpeccatum": 3174,
      "pect": 3175,
      "ĠTot": 3176,
      "ĠDis": 3177,
      "Ġconsuet": 3178,
      "Ġmori": 3179,
      "Ġexpl": 3180,
      "Ġcarm": 3181,
      "Ġantiqu": 3182,
      "Ġinvenire": 3183,
      "Ġopt": 3184,
      "Ġscriptor": 3185,
      "Ġtex": 3186,
      "tinus": 3187,
      "Ġtechn": 3188,
      "ĠChristum": 3189,
      "Î½": 3190,
      "Ġsor": 3191,
      "Ġvestra": 3192,
      "ĠPol": 3193,
      "Ġsin": 3194,
      "Ġflum": 3195,
      "ĠTen": 3196,
      "ĠCal": 3197,
      "Ġtuis": 3198,
      "icas": 3199,
      "Ġdiffer": 3200,
      "Ġdemon": 3201,
      "incia": 3202,
      "ith": 3203,
      "Ġnotitia": 3204,
      "Ġori": 3205,
      "ok": 3206,
      "Ġstudi": 3207,
      "Ġspiritus": 3208,
      "Ġmedio": 3209,
      "estis": 3210,
      "Ġscripta": 3211,
      "Ġviri": 3212,
      "Ġ$": 3213,
      "ĠOffici": 3214,
      "Ġmalis": 3215,
      "angel": 3216,
      "Ġpopuli": 3217,
      "Ġvari": 3218,
      "ev": 3219,
      "nes": 3220,
      "Ġdev": 3221,
      "Ġfuisset": 3222,
      "Ġcerte": 3223,
      "Ġutinam": 3224,
      "ĠIpsa": 3225,
      ")..": 3226,
      "VI": 3227,
      "Ġpotuit": 3228,
      "Ġlibert": 3229,
      "Ġquic": 3230,
      "Ġmaj": 3231,
      "ppe": 3232,
      "eth": 3233,
      "acia": 3234,
      "ursus": 3235,
      "ĠAlex": 3236,
      "Ġanni": 3237,
      "rupt": 3238,
      "Ġcurr": 3239,
      "ĠAnte": 3240,
      "Ġfem": 3241,
      "ĠErat": 3242,
      "Ġfun": 3243,
      "ĠElig": 3244,
      "ĠInd": 3245,
      "ĠSuscipit": 3246,
      "ĠResp": 3247,
      "Ġ16": 3248,
      "Ġdicat": 3249,
      "ĠOffic": 3250,
      "Ġcrim": 3251,
      "Ġquaes": 3252,
      "Ġepic": 3253,
      "Ġnonn": 3254,
      "ĠAnti": 3255,
      "Ġnonummy": 3256,
      "Ġexis": 3257,
      "Ġprohib": 3258,
      "ĠUnivers": 3259,
      "aci": 3260,
      "ins": 3261,
      "ĠBeat": 3262,
      "ĠIus": 3263,
      "Ġbrev": 3264,
      "Ġdelect": 3265,
      "iora": 3266,
      "Ġteg": 3267,
      "Ġaliter": 3268,
      "Ġdomini": 3269,
      "ĠIII": 3270,
      "Ġmoder": 3271,
      "Ġhaud": 3272,
      "Ġore": 3273,
      "Ġverbum": 3274,
      "Ġvindic": 3275,
      "Ġvera": 3276,
      "etum": 3277,
      "ptus": 3278,
      "ĠTunc": 3279,
      "Ġgeneris": 3280,
      "Ġurbe": 3281,
      "Ġcult": 3282,
      "Ġobli": 3283,
      "ĠScript": 3284,
      "Ġmeo": 3285,
      "Ġmagno": 3286,
      "eno": 3287,
      "ĠPot": 3288,
      "Ġmonaster": 3289,
      "Ġibidem": 3290,
      "Ġdicens": 3291,
      "Ġcustod": 3292,
      "Ġsane": 3293,
      "Ġrecip": 3294,
      "ertim": 3295,
      "Ġdesign": 3296,
      "Ġdominus": 3297,
      "Ġdesider": 3298,
      "Ġconclus": 3299,
      "Ġsimilis": 3300,
      "Ġquamvis": 3301,
      "bis": 3302,
      "Ġtestim": 3303,
      "ĠExerc": 3304,
      "ĠVerum": 3305,
      "ĠOc": 3306,
      "ĠUbi": 3307,
      "Ġ17": 3308,
      "Ìĥ": 3309,
      "Ġpotentia": 3310,
      "ĠTemporibus": 3311,
      "ĠVal": 3312,
      "Ġall": 3313,
      "Ġdivis": 3314,
      "Ġcapit": 3315,
      "Ġludus": 3316,
      "Ġiust": 3317,
      "verit": 3318,
      "Ġpraecept": 3319,
      "Ġpuer": 3320,
      "ilibus": 3321,
      "ĠQuasi": 3322,
      "Ġbellum": 3323,
      "ĠMaxime": 3324,
      "ripti": 3325,
      "rica": 3326,
      "annis": 3327,
      "ecim": 3328,
      "Ġcru": 3329,
      "Ġadeo": 3330,
      "Ġpatria": 3331,
      "ĠPri": 3332,
      "ĠAper": 3333,
      "arem": 3334,
      "emn": 3335,
      "Ġdux": 3336,
      "ĠSoci": 3337,
      "Ġnumero": 3338,
      "ich": 3339,
      "Ġnullo": 3340,
      "ĠAdipiscing": 3341,
      "Ġmale": 3342,
      "Ġprope": 3343,
      "Ġnegoti": 3344,
      "Ġillos": 3345,
      "cript": 3346,
      "eribus": 3347,
      "ĠMo": 3348,
      "ĠCupid": 3349,
      "ationum": 3350,
      "ĠMag": 3351,
      "Ġalic": 3352,
      "Ġlux": 3353,
      "actus": 3354,
      "amentum": 3355,
      "Ġquinque": 3356,
      "ĠMart": 3357,
      "Ġna": 3358,
      "ĠMed": 3359,
      "Ġlonge": 3360,
      "ĠVero": 3361,
      "Ġeiusdem": 3362,
      "err": 3363,
      "Ġprofess": 3364,
      "Ġagit": 3365,
      "Ġadministr": 3366,
      "ĠQuem": 3367,
      "Ġsalutem": 3368,
      "Ġbr": 3369,
      "liae": 3370,
      "ĠGen": 3371,
      "At": 3372,
      "Ġfilium": 3373,
      "Ġep": 3374,
      "Ġprobo": 3375,
      "Ġnova": 3376,
      "Ġvali": 3377,
      "Ġurbem": 3378,
      "Ġprincipes": 3379,
      "Ġpur": 3380,
      "ril": 3381,
      "mum": 3382,
      "ioribus": 3383,
      "Ġmill": 3384,
      "Ġcent": 3385,
      "entius": 3386,
      "Ġ12": 3387,
      "Ġmemor": 3388,
      "ave": 3389,
      "yam": 3390,
      "Ġunius": 3391,
      "ĠVeniam": 3392,
      "tt": 3393,
      "ĠDum": 3394,
      "ĠIns": 3395,
      "iorem": 3396,
      "Ġecclesi": 3397,
      "Ġpiet": 3398,
      "Ġcli": 3399,
      "ya": 3400,
      "Ġsubs": 3401,
      "arb": 3402,
      "pr": 3403,
      "Ġadol": 3404,
      "Ġlap": 3405,
      "Ġparum": 3406,
      "Ġcat": 3407,
      "Ġignor": 3408,
      "Ġconvers": 3409,
      "atorem": 3410,
      "ebantur": 3411,
      "Ġdicuntur": 3412,
      "ĠPrincip": 3413,
      "Ġmundo": 3414,
      "ĠLabore": 3415,
      "oriae": 3416,
      "atura": 3417,
      "andis": 3418,
      "Ġexistim": 3419,
      "Ġum": 3420,
      "Ġaccid": 3421,
      "áħ": 3422,
      "áĦ": 3423,
      "Ġiub": 3424,
      "Ġconveni": 3425,
      "osque": 3426,
      "Ġadmodum": 3427,
      "endae": 3428,
      "Ġexig": 3429,
      "atuor": 3430,
      "Ġdur": 3431,
      "uas": 3432,
      "Ġdicam": 3433,
      "onus": 3434,
      "olis": 3435,
      "Ġcog": 3436,
      "ĠNumquam": 3437,
      "imur": 3438,
      "ereb": 3439,
      "Ġepist": 3440,
      "ĠReges": 3441,
      "Ġfrig": 3442,
      "ĠCol": 3443,
      "peret": 3444,
      "Ġarbitr": 3445,
      "Ġregnum": 3446,
      "com": 3447,
      "Ġregem": 3448,
      "Ġminister": 3449,
      "ĠEd": 3450,
      "Ġumb": 3451,
      "lum": 3452,
      "Ġtoto": 3453,
      "ĠIac": 3454,
      "Ġsystem": 3455,
      "Ġmedia": 3456,
      "anquam": 3457,
      "Ġostendit": 3458,
      "Ġhabeat": 3459,
      "Ġsepar": 3460,
      "Ġubique": 3461,
      "Ġprimus": 3462,
      "Ġlibris": 3463,
      "Ġdei": 3464,
      "Ġusum": 3465,
      "ĠTempore": 3466,
      "Ġimpl": 3467,
      "ĠGl": 3468,
      "Ġprud": 3469,
      "ĠReprehend": 3470,
      "inos": 3471,
      "Ġcoram": 3472,
      "ptum": 3473,
      "Ġceter": 3474,
      "ĠGu": 3475,
      "Ġdir": 3476,
      "Ġexhib": 3477,
      "roque": 3478,
      "Ġordine": 3479,
      "icord": 3480,
      "Ġplag": 3481,
      "ĠNesci": 3482,
      "ER": 3483,
      "uss": 3484,
      "iori": 3485,
      "Ġinterrete": 3486,
      "Ġcoel": 3487,
      "org": 3488,
      "Ġtuae": 3489,
      "Ġvolumus": 3490,
      "oveo": 3491,
      "Ġduobus": 3492,
      "Ġgratiam": 3493,
      "Ġaccept": 3494,
      "Ġlim": 3495,
      "Ġnomina": 3496,
      "Ġpect": 3497,
      "Ġvidere": 3498,
      "ĠAssum": 3499,
      "abile": 3500,
      "ĠAlexand": 3501,
      "ĠMagni": 3502,
      "Ġren": 3503,
      "Ġveni": 3504,
      "Ġ11": 3505,
      "ĠCui": 3506,
      "Ġdolupt": 3507,
      "Ġquodam": 3508,
      "Ġlingua": 3509,
      "tris": 3510,
      "eph": 3511,
      "Ġcura": 3512,
      "ĠMac": 3513,
      "Ġmore": 3514,
      "Ġconcept": 3515,
      "ĠElit": 3516,
      "ermin": 3517,
      "Ġtribus": 3518,
      "Ġfuerunt": 3519,
      "ĠBen": 3520,
      "ĠJes": 3521,
      "itationem": 3522,
      "Ġaedific": 3523,
      "Ġpersec": 3524,
      "ay": 3525,
      "eas": 3526,
      "ares": 3527,
      "Ġactu": 3528,
      "ĠVic": 3529,
      "Ġoccurr": 3530,
      "Ġmagnum": 3531,
      "Ġconsec": 3532,
      "ĠHarum": 3533,
      "dis": 3534,
      "ustra": 3535,
      "Ġmensis": 3536,
      "Ġnunti": 3537,
      "Ġvict": 3538,
      "usa": 3539,
      "Ġexist": 3540,
      "Ġofficium": 3541,
      "Ġauxilium": 3542,
      "ensibus": 3543,
      "ĠOfficia": 3544,
      "Ġlign": 3545,
      "Ġtale": 3546,
      "Ġconting": 3547,
      "Ġmala": 3548,
      "ĠHinc": 3549,
      "Ġpunc": 3550,
      "Ġtut": 3551,
      "ono": 3552,
      "Ġincor": 3553,
      "ĠNostrum": 3554,
      "Ġmunus": 3555,
      "ĠMagna": 3556,
      "ĠLuc": 3557,
      "ĠIusto": 3558,
      "abis": 3559,
      "ĠCulpa": 3560,
      "Ġtanta": 3561,
      "Ġmunere": 3562,
      "erg": 3563,
      "ĠCan": 3564,
      "olo": 3565,
      "uctum": 3566,
      "Ġterrae": 3567,
      "Ġaccommod": 3568,
      "Ġadul": 3569,
      "ellas": 3570,
      "Ġsuav": 3571,
      "enses": 3572,
      "Ġpraed": 3573,
      "Ġdeter": 3574,
      "Ġinfin": 3575,
      "ĠOrd": 3576,
      "escit": 3577,
      "Ġtak": 3578,
      "ĠBrit": 3579,
      "ĠEam": 3580,
      "ĠIsra": 3581,
      "Ġscire": 3582,
      "non": 3583,
      "Ġsubd": 3584,
      "Ġrelinqu": 3585,
      "Ġtri": 3586,
      "Ġhost": 3587,
      "Ġand": 3588,
      "Ġmeam": 3589,
      "ĠVerit": 3590,
      "ĠLoci": 3591,
      "Ġbonis": 3592,
      "\",": 3593,
      "Ġcetera": 3594,
      "ĠCorporis": 3595,
      "ectis": 3596,
      "Ġmox": 3597,
      "Ġmen": 3598,
      "Ġitem": 3599,
      "ĠAliquid": 3600,
      "Ġpropria": 3601,
      "Ġnullum": 3602,
      "Ġvelut": 3603,
      "ĠDeserunt": 3604,
      "Ġvener": 3605,
      "pon": 3606,
      "Ġconstructio": 3607,
      "Ġaudire": 3608,
      "ilii": 3609,
      "Ġuxor": 3610,
      "Ġdare": 3611,
      "Ġviris": 3612,
      "Ġgradus": 3613,
      "js": 3614,
      "Ġiuxta": 3615,
      "Ġminime": 3616,
      "Ġnus": 3617,
      "ĠVoluptate": 3618,
      "Ġsur": 3619,
      "Ġamplius": 3620,
      "Ġpertinet": 3621,
      "Ġpredic": 3622,
      "Ġseri": 3623,
      "az": 3624,
      "ment": 3625,
      "Ġsimil": 3626,
      "Ġpostquam": 3627,
      "Ġgloria": 3628,
      "Ġinfirm": 3629,
      "Ġimperium": 3630,
      ".\".": 3631,
      "Ġpersequ": 3632,
      "ĠMollit": 3633,
      "ĠNatus": 3634,
      "asd": 3635,
      "Ġtran": 3636,
      "Ġsaepius": 3637,
      "ors": 3638,
      "Ġquatuor": 3639,
      "rorum": 3640,
      "Îµ": 3641,
      "ribus": 3642,
      "Ġpraef": 3643,
      "ĠIste": 3644,
      "Ġda": 3645,
      "Ġdispos": 3646,
      "ĠMinus": 3647,
      "Ġtanto": 3648,
      "Ġprocessus": 3649,
      "ĠUltr": 3650,
      "ĠIlle": 3651,
      "ĠSen": 3652,
      "nem": 3653,
      "Ġcommend": 3654,
      "issimis": 3655,
      "red": 3656,
      "Ġsustin": 3657,
      "Ġinfra": 3658,
      "ectione": 3659,
      "Ġdubit": 3660,
      "ÏĦ": 3661,
      "Ġeffectus": 3662,
      "Ġadolesc": 3663,
      "Ġau": 3664,
      "Ġtoll": 3665,
      "entior": 3666,
      "Ġiuris": 3667,
      "ĠReprehenderit": 3668,
      "Ġseptem": 3669,
      "ĠHier": 3670,
      "Ġsensus": 3671,
      "Ġnostrae": 3672,
      "Ġoculis": 3673,
      "Ġsese": 3674,
      "Ġcit": 3675,
      "Ġ14": 3676,
      "ind": 3677,
      "ĠInst": 3678,
      "Ġanimal": 3679,
      "Ġsigna": 3680,
      "Ġtrium": 3681,
      "ebas": 3682,
      "ĠCat": 3683,
      "Ġuir": 3684,
      "ĠPater": 3685,
      "Ġultra": 3686,
      "cord": 3687,
      "Ġpaul": 3688,
      "ucta": 3689,
      "Ġillustr": 3690,
      "Ġturb": 3691,
      "ĠGerman": 3692,
      "ĠProvid": 3693,
      "Ġecclesia": 3694,
      "âĢ": 3695,
      "Ġprovinci": 3696,
      "Ġsententia": 3697,
      "Ġsolu": 3698,
      "ĠDominum": 3699,
      "Ġmisericord": 3700,
      "idium": 3701,
      "Ġpror": 3702,
      "Ġtalis": 3703,
      "ĠFugit": 3704,
      "olus": 3705,
      "ĠDicta": 3706,
      "ĠQuidem": 3707,
      "Ġlege": 3708,
      "ĠVix": 3709,
      "Ġlegere": 3710,
      "Ġsuccess": 3711,
      "Ġsolv": 3712,
      "imata": 3713,
      "Ġcausae": 3714,
      "Ġnit": 3715,
      "ĠSoluta": 3716,
      "Ġpatris": 3717,
      "Ġsanct": 3718,
      "ĠIure": 3719,
      "Ġdata": 3720,
      "Ġcontenti": 3721,
      "Ġduas": 3722,
      "Ġunam": 3723,
      "ĠDo": 3724,
      "Ġanimam": 3725,
      "ĠAccusamus": 3726,
      "Ġhuiusmodi": 3727,
      "Ġconserv": 3728,
      "Ġfratres": 3729,
      "Ġnarr": 3730,
      "yth": 3731,
      "ĠBib": 3732,
      "ĠNecess": 3733,
      "ograph": 3734,
      "ĠhÃ¦c": 3735,
      "Ġconsp": 3736,
      "Ġpell": 3737,
      "ĠcÃ¦": 3738,
      "ĠMun": 3739,
      "Ġdiceret": 3740,
      "ĠSpiritus": 3741,
      "Ġactus": 3742,
      "Ġexperi": 3743,
      "Ġdamn": 3744,
      "Ġdivina": 3745,
      "Ġfuerat": 3746,
      "elicet": 3747,
      "ĠFoed": 3748,
      "Ġobl": 3749,
      "cumque": 3750,
      "enim": 3751,
      "ĠAeg": 3752,
      "Ġitin": 3753,
      "ĠFacere": 3754,
      "Ġpartibus": 3755,
      "otis": 3756,
      "by": 3757,
      "Ġpossess": 3758,
      "Ġreliqu": 3759,
      "ĠFugiat": 3760,
      "Ġcommunic": 3761,
      "Ġpropor": 3762,
      "Ġnegleg": 3763,
      "ĠCiv": 3764,
      "Ġinsign": 3765,
      "ĠIpse": 3766,
      "Ġaci": 3767,
      "ĠAlias": 3768,
      "upti": 3769,
      "Ġnostram": 3770,
      "aptis": 3771,
      "ĠHi": 3772,
      "Ġquaeque": 3773,
      "emor": 3774,
      "Ġarb": 3775,
      "Ġvideo": 3776,
      "ĠMM": 3777,
      "Ġcommunium": 3778,
      "ĠEget": 3779,
      "10": 3780,
      "Ġcorrum": 3781,
      "ĠFrat": 3782,
      "Ġfilio": 3783,
      "Ġarma": 3784,
      "Ġtotius": 3785,
      "abili": 3786,
      "ĠEligendi": 3787,
      "Ġinstruc": 3788,
      "ĠOfficiis": 3789,
      "Ġaliquyam": 3790,
      "arn": 3791,
      "Ġquaestio": 3792,
      "ĠExplic": 3793,
      "anci": 3794,
      "Ġloci": 3795,
      "ĠTempora": 3796,
      "ĠDem": 3797,
      "ĠAnimi": 3798,
      "Ġutroque": 3799,
      "Ġparticip": 3800,
      "Ġvas": 3801,
      "Ġeleg": 3802,
      "Ġprem": 3803,
      "iu": 3804,
      "Ġeloqu": 3805,
      "Ġhabuit": 3806,
      "Ġmedium": 3807,
      "ĠHas": 3808,
      "vam": 3809,
      "ĠCommunia": 3810,
      "Ġviam": 3811,
      "UM": 3812,
      "Ġmali": 3813,
      "Ġnumer": 3814,
      "Ġadversus": 3815,
      "Ġsuff": 3816,
      "Ġsignum": 3817,
      "Ġhabitati": 3818,
      "ĠDist": 3819,
      "averit": 3820,
      "ĠDomine": 3821,
      "Ġdefend": 3822,
      "Ġbas": 3823,
      "entu": 3824,
      "Ġfoed": 3825,
      "ity": 3826,
      "unque": 3827,
      "ĠImpedit": 3828,
      "Ġcali": 3829,
      "ĠCommodi": 3830,
      "enc": 3831,
      "ef": 3832,
      "ingu": 3833,
      "Ġveri": 3834,
      "ĠPhil": 3835,
      "Ġfa": 3836,
      "ĠDeleniti": 3837,
      "Ġampl": 3838,
      "ĠPap": 3839,
      "ĠMagnam": 3840,
      "ĠIdem": 3841,
      "ĠDolorum": 3842,
      "Ġappare": 3843,
      "ugait": 3844,
      "Ì¨": 3845,
      "Ġsuscipi": 3846,
      "ebis": 3847,
      "Ġobtin": 3848,
      "ĠMan": 3849,
      "tig": 3850,
      "vae": 3851,
      "Ġfine": 3852,
      "ĠLaborum": 3853,
      "ĠError": 3854,
      "Ġsententiae": 3855,
      "Ġmalorum": 3856,
      "ĠDebitis": 3857,
      "Ġic": 3858,
      "Ġcod": 3859,
      "tionibus": 3860,
      "ĠBeatae": 3861,
      "Ġperegr": 3862,
      "Ġsusp": 3863,
      "ĠAdipisci": 3864,
      "ardus": 3865,
      "Ġplura": 3866,
      "ariatur": 3867,
      "ĠCong": 3868,
      "itatum": 3869,
      "anter": 3870,
      "Ġfortasse": 3871,
      "Ġsepti": 3872,
      "ĠOmnes": 3873,
      "ellum": 3874,
      "ĠSimilique": 3875,
      "Ġaeque": 3876,
      "cipitur": 3877,
      "men": 3878,
      "ĠIllo": 3879,
      "Ġhuman": 3880,
      "Ġchristi": 3881,
      "ĠQuibusdam": 3882,
      "Ġboni": 3883,
      "ixit": 3884,
      "ĠCorrupti": 3885,
      "ĠRomani": 3886,
      "ĠDucimus": 3887,
      "ĠConv": 3888,
      "Ġdecem": 3889,
      "icarum": 3890,
      "ĠOptio": 3891,
      "Ġconclud": 3892,
      "raesent": 3893,
      "Ġ13": 3894,
      "ĠMinima": 3895,
      "ĠQuin": 3896,
      "ack": 3897,
      "aur": 3898,
      "ĠVirg": 3899,
      "Ġequidem": 3900,
      "Ġtel": 3901,
      "ĠPraesentium": 3902,
      "Ġmelior": 3903,
      "ĠEaque": 3904,
      "Ġoptimum": 3905,
      "Ġbl": 3906,
      "ĠPlaceat": 3907,
      "Ġbello": 3908,
      "ĠModi": 3909,
      "Ġalius": 3910,
      "Ġpap": 3911,
      "Ġfides": 3912,
      "Ġqualis": 3913,
      "estus": 3914,
      "Ġmedioc": 3915,
      "ensem": 3916,
      "Ġdomo": 3917,
      "rix": 3918,
      "Ġsubl": 3919,
      "otum": 3920,
      "ĠVoluptates": 3921,
      "Ġrap": 3922,
      "Ġmaxima": 3923,
      "Ġdat": 3924,
      "Ġerunt": 3925,
      "olv": 3926,
      "ensum": 3927,
      "Ġsola": 3928,
      "uos": 3929,
      "ĠAst": 3930,
      "acta": 3931,
      "Ġmanibus": 3932,
      "ĠBlanditiis": 3933,
      "imam": 3934,
      "Ġmare": 3935,
      "Ġdemonstr": 3936,
      "ĠIdeo": 3937,
      "Ġappellantur": 3938,
      "ĠVos": 3939,
      "Ġads": 3940,
      "able": 3941,
      "ĠEveniet": 3942,
      "eunt": 3943,
      "Ġaccipi": 3944,
      "ulari": 3945,
      "ĠTor": 3946,
      "ĠPal": 3947,
      "ittit": 3948,
      "ĠIpsam": 3949,
      "ĠVoluptatum": 3950,
      "Ġformam": 3951,
      "Ġabst": 3952,
      "Ġaestim": 3953,
      "ĠStr": 3954,
      "ĠCupiditate": 3955,
      "Ġist": 3956,
      "ĠArchit": 3957,
      "ĠAperiam": 3958,
      "Ġpluribus": 3959,
      "Ġanimae": 3960,
      "Ġdiscipl": 3961,
      "Ġprophet": 3962,
      "libet": 3963,
      "Ġduos": 3964,
      "Ġargumentum": 3965,
      "ĠExcepturi": 3966,
      "ĠMollitia": 3967,
      "ĠLaboriosam": 3968,
      "Ġlabores": 3969,
      "hie": 3970,
      "Ġtyp": 3971,
      "Ġindustria": 3972,
      "undum": 3973,
      "ĠRh": 3974,
      "ĠQuare": 3975,
      "Ġcasu": 3976,
      "ĠScelerisque": 3977,
      "ĠMolestias": 3978,
      "ellae": 3979,
      "ĠPossimus": 3980,
      "aciter": 3981,
      "Ġpublica": 3982,
      "ĠEarum": 3983,
      "Ġcaec": 3984,
      "ĠTotam": 3985,
      "Ġant": 3986,
      "ĠIt": 3987,
      "ĠPrimum": 3988,
      "liam": 3989,
      "Et": 3990,
      "Ġcopios": 3991,
      "Ġconiunc": 3992,
      "Ġhabeo": 3993,
      "ĠAssumenda": 3994,
      "ĠRatione": 3995,
      "Ġfore": 3996,
      "Ġpopulum": 3997,
      "aev": 3998,
      "Ġonline": 3999,
      "Ġpotestate": 4000,
      "Ġoffer": 4001,
      "Ġregni": 4002,
      "Ġtakimata": 4003,
      "ĠMe": 4004,
      "iit": 4005,
      "Ġrub": 4006,
      "ĠBritann": 4007,
      "Ġrationibus": 4008,
      "ĠRepudiandae": 4009,
      "ĠExpedita": 4010,
      "ĠDignissimos": 4011,
      "fl": 4012,
      "rah": 4013,
      "ĠMet": 4014,
      "Ġepiscopus": 4015,
      "ule": 4016,
      "//": 4017,
      "Ġsacri": 4018,
      "Ġnatum": 4019,
      "Ġcollig": 4020,
      "Ġconsci": 4021,
      "Ġplerumque": 4022,
      "iÃ¦": 4023,
      "Ġpud": 4024,
      "Ġpossint": 4025,
      "iret": 4026,
      "Ġcomprehens": 4027,
      "ĠSin": 4028,
      "ĠNecessitatibus": 4029,
      "ĠEcce": 4030,
      "ĠCer": 4031,
      "tii": 4032,
      "Ġgenera": 4033,
      "ĠIsrael": 4034,
      "Ġcern": 4035,
      "ĠQuisquam": 4036,
      "Ġcand": 4037,
      "Ġanimum": 4038,
      "Ġurbis": 4039,
      "ĠExercitationem": 4040,
      "Ġmorte": 4041,
      "Ġdeus": 4042,
      "Ġlect": 4043,
      "Ġinform": 4044,
      "ĠMaiores": 4045,
      "Ġfaciunt": 4046,
      "itos": 4047,
      "ĠProvident": 4048,
      "Ġkasd": 4049,
      "ĠAsperiores": 4050,
      "Ġviol": 4051,
      "Ġprocul": 4052,
      "ĠVI": 4053,
      "ĠSemper": 4054,
      "ectionis": 4055,
      "Ġrob": 4056,
      "ĠSam": 4057,
      "asque": 4058,
      "Ġvirtutem": 4059,
      "ĠÐ": 4060,
      "arios": 4061,
      "hone": 4062,
      "Ġpraesertim": 4063,
      "undia": 4064,
      "ĠInt": 4065,
      "Ġfiat": 4066,
      "Ġoportere": 4067,
      "ĠIncidunt": 4068,
      "acula": 4069,
      "Ġvivere": 4070,
      "ĠFe": 4071,
      "ĠOccaecati": 4072,
      "ĠQuaerat": 4073,
      "Ġvariis": 4074,
      "ittere": 4075,
      "Ġnig": 4076,
      "Ġcorde": 4077,
      "ondam": 4078,
      "Ġbono": 4079,
      "Ġoccid": 4080,
      "ĠAccusantium": 4081,
      "ectitur": 4082,
      "Ġaeg": 4083,
      "IV": 4084,
      "ĠOmnia": 4085,
      "ĠVeritatis": 4086,
      "Ġiuven": 4087,
      "oniae": 4088,
      "Ġdivid": 4089,
      "Ġdomino": 4090,
      "Ġbenedic": 4091,
      "Ġvert": 4092,
      "ĠOdit": 4093,
      "ĠDoloribus": 4094,
      "so": 4095,
      "Ġdetermin": 4096,
      "ĠSequi": 4097,
      "Ġfav": 4098,
      "ĠAliqu": 4099,
      "Ġment": 4100,
      "ĠRespond": 4101,
      "ĠArchitecto": 4102,
      "ĠIndic": 4103,
      "Ġnumerus": 4104,
      "Ġminimum": 4105,
      "Ġstip": 4106,
      "Sed": 4107,
      "19": 4108,
      "esque": 4109,
      "Ġmortuus": 4110,
      "Ġfelic": 4111,
      "Ġalb": 4112,
      "ĠDelectus": 4113,
      "Ġobst": 4114,
      "ĠRecus": 4115,
      "Ġinp": 4116,
      "Ġamore": 4117,
      "eu": 4118,
      "ĠAth": 4119,
      "ĠSecundo": 4120,
      "Ġfon": 4121,
      "ĠInventore": 4122,
      "Ġoculos": 4123,
      "ĠPariatur": 4124,
      "Ġterrarum": 4125,
      "Ġordinem": 4126,
      "Ġfeugait": 4127,
      "Ġru": 4128,
      "Ġlaudem": 4129,
      "Ġlam": 4130,
      "ugis": 4131,
      "wn": 4132,
      "rius": 4133,
      "Ġanc": 4134,
      "Ġlet": 4135,
      "olum": 4136,
      "Ġnub": 4137,
      "ĠTenetur": 4138,
      "ĠFuga": 4139,
      "uxit": 4140,
      "Ġtuus": 4141,
      "Ġrust": 4142,
      "ĠJud": 4143,
      "Ġputant": 4144,
      "Ġprogress": 4145,
      "ĠAspernatur": 4146,
      "be": 4147,
      "Ġvirtu": 4148,
      "Ġpoterit": 4149,
      "eces": 4150,
      "Ġnati": 4151,
      "ĠServ": 4152,
      "Ġhered": 4153,
      "Ġdiscere": 4154,
      "ĠPom": 4155,
      "ĠDiv": 4156,
      "Ġparti": 4157,
      "Ġnut": 4158,
      "Ġconj": 4159,
      "Ġbonus": 4160,
      "Ġcotidie": 4161,
      "ĠColl": 4162,
      "Ġinsol": 4163,
      "Ġadj": 4164,
      "Ġperc": 4165,
      "Ġaure": 4166,
      "ĠLaudantium": 4167,
      "olae": 4168,
      "ry": 4169,
      "Ġtent": 4170,
      "Ġillorum": 4171,
      "aculum": 4172,
      "ĠConsequuntur": 4173,
      "Ġinu": 4174,
      "ĠRepellat": 4175,
      "ĠNic": 4176,
      "Ġfructus": 4177,
      "ĠSch": 4178,
      "illae": 4179,
      "ĠExplicabo": 4180,
      "Ġdiversis": 4181,
      "ertitur": 4182,
      "ĠSapiente": 4183,
      "Ġexst": 4184,
      "Ġamor": 4185,
      "Ġhabebat": 4186,
      "Ġresist": 4187,
      "isl": 4188,
      "Ġgravis": 4189,
      "Ġvirum": 4190,
      "Ġlate": 4191,
      "Ġreform": 4192,
      "ĠPerspiciatis": 4193,
      "Ġvidelicet": 4194,
      "Ġinclud": 4195,
      "Ġtransl": 4196,
      "Ġdelenit": 4197,
      "Ġquadr": 4198,
      "ĠOl": 4199,
      "mine": 4200,
      "Ġsententiam": 4201,
      "ĠVoluptatibus": 4202,
      "Ġtorqu": 4203,
      "ĠPerferendis": 4204,
      "ĠDistinctio": 4205,
      "Ġves": 4206,
      "ĠCirc": 4207,
      "Ġsecret": 4208,
      "Ġrelic": 4209,
      "Ġconsuetud": 4210,
      "Ġpericula": 4211,
      "ĠNesciunt": 4212,
      "Ġvent": 4213,
      "An": 4214,
      "ĠRecusandae": 4215,
      "Ġpaulatim": 4216,
      "ites": 4217,
      "Ġpossim": 4218,
      "Ġplacet": 4219,
      "Ġproced": 4220,
      "itat": 4221,
      "Ġferre": 4222,
      "ĠLud": 4223,
      "ĠReiciendis": 4224,
      "ĠAugue": 4225,
      "ĠExcepteur": 4226,
      "Ġprol": 4227,
      "Ġmovet": 4228,
      "equ": 4229,
      "://": 4230,
      "ĠCommodo": 4231,
      "ecte": 4232,
      "Ġlegit": 4233,
      "ĠRepellendus": 4234,
      "Ġmente": 4235,
      "ĠDoloremque": 4236,
      "Ġtanquam": 4237,
      "ioque": 4238,
      "ariam": 4239,
      "Ġsaeculo": 4240,
      "usque": 4241,
      "eam": 4242,
      "inti": 4243,
      "Ġsecundo": 4244,
      "fi": 4245,
      "Ġpic": 4246,
      "Ġsag": 4247,
      "ĠSecundum": 4248,
      "Ġfinis": 4249,
      "itiv": 4250,
      "Ġfol": 4251,
      "onit": 4252,
      "Ġloqui": 4253,
      "ĠRomae": 4254,
      "Ġprot": 4255,
      "Ġintellectus": 4256,
      "Ġfaciam": 4257,
      "Ġvoce": 4258,
      "Ġhonor": 4259,
      "ellis": 4260,
      "ĠDom": 4261,
      "Ġquippe": 4262,
      "Ġelem": 4263,
      "uras": 4264,
      "embris": 4265,
      "Ġnullus": 4266,
      "aph": 4267,
      "Ġvehem": 4268,
      "Ġbelli": 4269,
      "Ġvulg": 4270,
      "Ġsensibus": 4271,
      "Ġfuerint": 4272,
      "Ġretin": 4273,
      "Ġnocte": 4274,
      "Ġcess": 4275,
      "aeque": 4276,
      "isco": 4277,
      "Ġsubstanti": 4278,
      "Ġalienum": 4279,
      "Ġsaltem": 4280,
      "Ġnondum": 4281,
      "ĠPaulus": 4282,
      "tuor": 4283,
      "ĠDie": 4284,
      "Ġexemplum": 4285,
      "byter": 4286,
      "Ġillic": 4287,
      "uni": 4288,
      "Ġindig": 4289,
      "Ġprincipium": 4290,
      "Ġauctoritate": 4291,
      "Ġindign": 4292,
      "iber": 4293,
      "Ġfra": 4294,
      "TI": 4295,
      "Ġpotestatem": 4296,
      "ello": 4297,
      "Ġclaus": 4298,
      "quod": 4299,
      "ĠEm": 4300,
      "Ġdulc": 4301,
      "Ġphilosophia": 4302,
      "ĠArist": 4303,
      "ĠBe": 4304,
      "umenta": 4305,
      "Ġcav": 4306,
      "Ġlaet": 4307,
      "Å¿": 4308,
      "ĠIV": 4309,
      "Ġmatrim": 4310,
      "Ġimped": 4311,
      "ĠInf": 4312,
      "Ġplant": 4313,
      "Ġmortis": 4314,
      "Ġsust": 4315,
      "Ġreduc": 4316,
      "Ġmit": 4317,
      "arunt": 4318,
      "Ġder": 4319,
      "ĠiP": 4320,
      "ĠTra": 4321,
      "Ġnota": 4322,
      "Ġfama": 4323,
      "Ġcompet": 4324,
      "Ġarmis": 4325,
      "Ġdig": 4326,
      "Ġobsc": 4327,
      "escere": 4328,
      "inci": 4329,
      "iz": 4330,
      "Ġsolus": 4331,
      "Ġreligios": 4332,
      "Ġmultos": 4333,
      "Ġlitteris": 4334,
      "Ġhort": 4335,
      "sis": 4336,
      "ĠHen": 4337,
      "Ġtransm": 4338,
      "ĠLig": 4339,
      "Ġetsi": 4340,
      "ĠXV": 4341,
      "Ġtria": 4342,
      "Ġabsque": 4343,
      "Ġaliam": 4344,
      "Ġsuorum": 4345,
      "Ġni": 4346,
      "ĠJoh": 4347,
      "ĠGo": 4348,
      "ĠEgestas": 4349,
      "ĠHel": 4350,
      "Ġalium": 4351,
      "ãĥ": 4352,
      "ĠLacus": 4353,
      "Ġalterius": 4354,
      "ĠPul": 4355,
      "Ġabi": 4356,
      "Ġsimiliter": 4357,
      "asset": 4358,
      "Ġscientia": 4359,
      "ĠAccumsan": 4360,
      "Ġpropriet": 4361,
      "Ġdeclar": 4362,
      "Ġcruc": 4363,
      "ĠVide": 4364,
      "Ġquondam": 4365,
      "Ġcivibus": 4366,
      "orium": 4367,
      "Ġadiuv": 4368,
      "Ġstudio": 4369,
      "exit": 4370,
      "Ġjudic": 4371,
      "Ġsemel": 4372,
      "Ġferri": 4373,
      "Ġulla": 4374,
      "Ġutilit": 4375,
      "verti": 4376,
      "Ġiudicium": 4377,
      "Ġpast": 4378,
      "Ïģ": 4379,
      "ĠConf": 4380,
      "Ġconstat": 4381,
      "Ġfall": 4382,
      "Ġperpetua": 4383,
      "Ġfrater": 4384,
      "Ġconvenire": 4385,
      "omm": 4386,
      "abil": 4387,
      "Ġconfer": 4388,
      "Ġnunquam": 4389,
      "Ġdamnum": 4390,
      "Ġsanguine": 4391,
      "onere": 4392,
      "undi": 4393,
      "ĠOp": 4394,
      "Ġeduc": 4395,
      "Ġceleb": 4396,
      "Ġiniqu": 4397,
      "Ġlegem": 4398,
      "olu": 4399,
      "Ġidest": 4400,
      "Ġglad": 4401,
      "Ġquer": 4402,
      "onio": 4403,
      "Ġinqu": 4404,
      "Ġjust": 4405,
      "ge": 4406,
      "Ġmentis": 4407,
      "Ġmob": 4408,
      "Ġprorsus": 4409,
      "ĠDavid": 4410,
      "ĠCic": 4411,
      "eoph": 4412,
      "ĠAud": 4413,
      "Ġcopia": 4414,
      "esto": 4415,
      "ĠPetri": 4416,
      "Ġelabor": 4417,
      "Ġcard": 4418,
      "ĠSci": 4419,
      "Ġliter": 4420,
      "itani": 4421,
      "Ġloca": 4422,
      "Ġmemoria": 4423,
      "tima": 4424,
      "Ġmultiplic": 4425,
      "000": 4426,
      "nae": 4427,
      "Ġcivitatis": 4428,
      "Ġrespons": 4429,
      "Ġrursus": 4430,
      "ibilis": 4431,
      "Ġmans": 4432,
      "Ġcreatur": 4433,
      "ilipp": 4434,
      "lu": 4435,
      "une": 4436,
      "Ġmilia": 4437,
      "Ġidque": 4438,
      "15": 4439,
      "Ġoccup": 4440,
      "ĠMei": 4441,
      "Ġnusquam": 4442,
      "Ġmanum": 4443,
      "ĠEpic": 4444,
      "Ġcondici": 4445,
      "Ġpariter": 4446,
      "usc": 4447,
      "Ġsecunda": 4448,
      "ĠMea": 4449,
      "ĠLeo": 4450,
      "acio": 4451,
      "ĠEuropae": 4452,
      "Ġagere": 4453,
      "tera": 4454,
      "ĠPontific": 4455,
      "Ġaccepit": 4456,
      "ow": 4457,
      "Ġpurg": 4458,
      "Ġdistinc": 4459,
      "Ġpropriae": 4460,
      "Ġmediocr": 4461,
      "Ġimpetus": 4462,
      "ÏĤ": 4463,
      "Ġmart": 4464,
      "hiepiscop": 4465,
      "rev": 4466,
      "ĠDoc": 4467,
      "Ġcomput": 4468,
      "Ġpagina": 4469,
      "zim": 4470,
      "Ġignis": 4471,
      "Ġvocibus": 4472,
      "ĠSa": 4473,
      "Ġfil": 4474,
      "Ġasp": 4475,
      "Ġproducts": 4476,
      "Ġvidentur": 4477,
      "ly": 4478,
      "ĠDictum": 4479,
      "Ġfabulas": 4480,
      "Ġteneb": 4481,
      "ĠSte": 4482,
      "Ġerip": 4483,
      "Ġaliorum": 4484,
      "Ġ199": 4485,
      "cere": 4486,
      "abunt": 4487,
      "ĠVim": 4488,
      "ĠSequ": 4489,
      "admodum": 4490,
      "stronom": 4491,
      "Ġ0": 4492,
      "Ġirac": 4493,
      "ophi": 4494,
      "\"..": 4495,
      "Ġinterdic": 4496,
      "Ġmirab": 4497,
      "Ġvex": 4498,
      "idio": 4499,
      "Ġopere": 4500,
      "Ġtollit": 4501,
      "Ġprovincia": 4502,
      "hab": 4503,
      "oque": 4504,
      "Ġbeati": 4505,
      "ria": 4506,
      "Ġvuln": 4507,
      "Ġpedes": 4508,
      "bant": 4509,
      "Ġscriptum": 4510,
      "Ġinvestig": 4511,
      "Ġloquitur": 4512,
      "Ġlegimus": 4513,
      "mis": 4514,
      "Ġvideri": 4515,
      "Ġvirtutis": 4516,
      "Ġcastra": 4517,
      "Ġmetu": 4518,
      "atori": 4519,
      "Ġaliquod": 4520,
      "itias": 4521,
      "eram": 4522,
      "Ġlit": 4523,
      "Ġiur": 4524,
      "Ġdissim": 4525,
      "issum": 4526,
      "Ġdixi": 4527,
      "ĠAfr": 4528,
      "Ġpatrem": 4529,
      "Ġutique": 4530,
      "ij": 4531,
      "Ġmaiorum": 4532,
      "ou": 4533,
      "Ġipsos": 4534,
      "Ġoperam": 4535,
      "Ġinterrog": 4536,
      "batur": 4537,
      "Ïħ": 4538,
      "Ġvoluit": 4539,
      "ĠUsu": 4540,
      "ĠHos": 4541,
      "Ġgubern": 4542,
      "Ġmedic": 4543,
      "Ġarte": 4544,
      "Ġtrah": 4545,
      "Ġtang": 4546,
      "abantur": 4547,
      "ationalis": 4548,
      "Ġparatus": 4549,
      "rom": 4550,
      "ĠPetrus": 4551,
      "Ġpericulis": 4552,
      "Ġnumerum": 4553,
      "Ġcongreg": 4554,
      "Ġpeccata": 4555,
      "ĠIul": 4556,
      "unda": 4557,
      "Ġpisc": 4558,
      "Ġire": 4559,
      "Ġcathol": 4560,
      "ĠTincidunt": 4561,
      "Ġemend": 4562,
      "Ġvolo": 4563,
      "Ġcapi": 4564,
      "Ġredit": 4565,
      "Ġconsist": 4566,
      "Ġdefini": 4567,
      "Ġplat": 4568,
      "Ġversus": 4569,
      "ĠTellus": 4570,
      "ĠSea": 4571,
      "Ġterris": 4572,
      "otes": 4573,
      "Ġfuturum": 4574,
      "Ġpersona": 4575,
      "Ġsignificat": 4576,
      "Ġuid": 4577,
      "Ġcapite": 4578,
      "Ġmuli": 4579,
      "Ġpartic": 4580,
      "Ġsecum": 4581,
      "iali": 4582,
      "yri": 4583,
      "otus": 4584,
      "tini": 4585,
      "Ġpaucis": 4586,
      "IX": 4587,
      "arentur": 4588,
      "Ġcorpor": 4589,
      "Ġprocur": 4590,
      "Ġquum": 4591,
      "rat": 4592,
      "Ġaccess": 4593,
      "ialis": 4594,
      "ĠSeptem": 4595,
      "ek": 4596,
      "Ġhabes": 4597,
      "Ġceteros": 4598,
      "Ġduod": 4599,
      "Ġvetus": 4600,
      "ĠHanc": 4601,
      "Ġconced": 4602,
      "icit": 4603,
      "Ġdebent": 4604,
      "uch": 4605,
      "oti": 4606,
      "aginta": 4607,
      "Ġconfess": 4608,
      "Ġrecept": 4609,
      "Ġsyn": 4610,
      "Ġocto": 4611,
      "ala": 4612,
      "ĠQuomodo": 4613,
      "onym": 4614,
      "Ġcoron": 4615,
      "Ġcolloc": 4616,
      "ĠBene": 4617,
      "ĠHer": 4618,
      "ĠTheod": 4619,
      "Ġfacto": 4620,
      "ermis": 4621,
      "Ġvidisse": 4622,
      "abus": 4623,
      "Ġinduc": 4624,
      "Ġhomine": 4625,
      "igo": 4626,
      "Ġquarum": 4627,
      "Ġplane": 4628,
      "Ġpenitus": 4629,
      "Ġiustum": 4630,
      "ĠPage": 4631,
      "ĠRex": 4632,
      "Ġgloriam": 4633,
      "Ġcolleg": 4634,
      "Ġcelerit": 4635,
      "Ġsolis": 4636,
      "undem": 4637,
      "erer": 4638,
      "ĠPrae": 4639,
      "amenta": 4640,
      "Ġaquae": 4641,
      "Ġappareat": 4642,
      "Ġcibo": 4643,
      "Ġobt": 4644,
      "Ġoffendit": 4645,
      "Ġmur": 4646,
      "Ġindoc": 4647,
      "Ġdecret": 4648,
      "ĠMassa": 4649,
      "Ġaccipere": 4650,
      "Ġmomenti": 4651,
      "ĠNibh": 4652,
      "Ġprincipio": 4653,
      "urei": 4654,
      "Ġtime": 4655,
      "ĠProc": 4656,
      "30": 4657,
      "Ġprinceps": 4658,
      "Ġcomplectitur": 4659,
      "Ġantequam": 4660,
      "Ġinsc": 4661,
      "Ġfastid": 4662,
      "ĠGe": 4663,
      "aro": 4664,
      "ĠIanu": 4665,
      "Ġfacti": 4666,
      "Ġexpos": 4667,
      "Ġmembra": 4668,
      "eophras": 4669,
      "uerat": 4670,
      "Ġmundum": 4671,
      "iderat": 4672,
      "Ġlucem": 4673,
      "eatur": 4674,
      "Ġsuppl": 4675,
      "Ġcec": 4676,
      "apti": 4677,
      "arm": 4678,
      "Ġora": 4679,
      "anitas": 4680,
      "Ġullum": 4681,
      "ensa": 4682,
      "Ġclav": 4683,
      "Ġassentior": 4684,
      "Ġweb": 4685,
      "Ġabhor": 4686,
      "ĠBlandit": 4687,
      "Ġhorum": 4688,
      "ĠApple": 4689,
      "ĠHu": 4690,
      "Ġquattuor": 4691,
      "oper": 4692,
      "ĠAnton": 4693,
      "Ġspecie": 4694,
      "Ġsusce": 4695,
      "Ġoption": 4696,
      "Ġfacer": 4697,
      "andus": 4698,
      "Ġlegis": 4699,
      "Ġoblig": 4700,
      "ultus": 4701,
      "Ġexpect": 4702,
      "ĠPhilipp": 4703,
      "ĠIun": 4704,
      "Ġuero": 4705,
      "Ġtechnolog": 4706,
      "Ġrepet": 4707,
      "ade": 4708,
      "eruntur": 4709,
      "Ġferro": 4710,
      "eles": 4711,
      "lice": 4712,
      "emur": 4713,
      "ĠAegy": 4714,
      "Ġsacra": 4715,
      "amque": 4716,
      "atic": 4717,
      "Ġimit": 4718,
      "Ġcentum": 4719,
      "ont": 4720,
      "OS": 4721,
      "Ġger": 4722,
      "Ġexplicari": 4723,
      "Ġperfici": 4724,
      "irum": 4725,
      "Ġvestig": 4726,
      "Ġcapti": 4727,
      "sque": 4728,
      "ĠCaesar": 4729,
      "Ġinimicus": 4730,
      "pidis": 4731,
      "Ġoporteat": 4732,
      "Ġdetrac": 4733,
      "venit": 4734,
      "Ġtenet": 4735,
      "Ġerroribus": 4736,
      "Ġprocess": 4737,
      "Ġpend": 4738,
      "ĠGreg": 4739,
      "avisse": 4740,
      "Ġecclesiast": 4741,
      "ĠAugustinus": 4742,
      "Ġveter": 4743,
      "ose": 4744,
      "Ġfing": 4745,
      "Ġdepos": 4746,
      "ptentri": 4747,
      "Ġperfecto": 4748,
      "Ġfilios": 4749,
      "econom": 4750,
      "Ġexspect": 4751,
      "Ġtecum": 4752,
      "ĠHac": 4753,
      "Ġatom": 4754,
      "Ġorbis": 4755,
      "Ġmense": 4756,
      "Ġexemp": 4757,
      "ĠMagis": 4758,
      "Ġq": 4759,
      "Ġdetra": 4760,
      "Ġdefinitionem": 4761,
      "ĠHom": 4762,
      "Ġforo": 4763,
      "ĠMartyr": 4764,
      "ĠConstant": 4765,
      "assum": 4766,
      "ĠHa": 4767,
      "empe": 4768,
      "ĠIlla": 4769,
      "Ġaliquem": 4770,
      "inium": 4771,
      "ĠPrimo": 4772,
      "ĠFab": 4773,
      "ĠFam": 4774,
      "Ġdissentiunt": 4775,
      "Ġactum": 4776,
      "Ġtoti": 4777,
      "ä¸": 4778,
      "Ġalti": 4779,
      "Ġacti": 4780,
      "Ġcrud": 4781,
      "Ġtertium": 4782,
      "Ġrationes": 4783,
      "Ġdecet": 4784,
      "ĠGall": 4785,
      "Ġiisque": 4786,
      "ĠCond": 4787,
      "abilem": 4788,
      "Ġfabrica": 4789,
      "Ġnorm": 4790,
      "Ġcuncta": 4791,
      "Ġlex": 4792,
      "Ġrege": 4793,
      "Ġalum": 4794,
      "Ġmaiestatis": 4795,
      "ariet": 4796,
      "'.": 4797,
      "Ġeffectum": 4798,
      "ĠAuctor": 4799,
      "Ġminor": 4800,
      "pterea": 4801,
      "Ġproel": 4802,
      "ularum": 4803,
      "Ġmodis": 4804,
      "aevola": 4805,
      "ĠArcu": 4806,
      "Ġdicant": 4807,
      "Ġaeterno": 4808,
      "ĠBenedic": 4809,
      "uria": 4810,
      "Ġconstituto": 4811,
      "ĠQuando": 4812,
      "Ġsummum": 4813,
      "Ġrepudi": 4814,
      "met": 4815,
      "ĠIgitur": 4816,
      "Ġbis": 4817,
      "Ġmutat": 4818,
      "Ġleges": 4819,
      "utem": 4820,
      "Ġsimplex": 4821,
      "Ġdemocr": 4822,
      "ĠDenique": 4823,
      "Ġapt": 4824,
      "ensium": 4825,
      "Ġsecur": 4826,
      "Ġpatre": 4827,
      "yll": 4828,
      "ĠEvangel": 4829,
      "Ġvires": 4830,
      "unde": 4831,
      "Ġintern": 4832,
      "Ġinvid": 4833,
      "rentur": 4834,
      "Ġdoming": 4835,
      "Ġloquor": 4836,
      "Ġcerta": 4837,
      "ĠHenr": 4838,
      "abiles": 4839,
      "ensio": 4840,
      "Ġaccommodare": 4841,
      "urreret": 4842,
      "Ġpacem": 4843,
      "atore": 4844,
      "Ġnuper": 4845,
      "Ġlibri": 4846,
      "ĠCuius": 4847,
      "nia": 4848,
      "Ġdoctrina": 4849,
      "ĠFrancicum": 4850,
      "uimus": 4851,
      "Ġsingularis": 4852,
      "ĠXXX": 4853,
      "aptiz": 4854,
      "olit": 4855,
      "Ġdoctus": 4856,
      "Ġiota": 4857,
      "Ġhuc": 4858,
      "ensus": 4859,
      "Ġejusdem": 4860,
      "Ġsimpliciter": 4861,
      "ĠThom": 4862,
      "Ġpraebet": 4863,
      "Ġcus": 4864,
      "ĠLiber": 4865,
      "Ġecclesiae": 4866,
      "Ġpraeterit": 4867,
      "Ġsect": 4868,
      "Ġpolit": 4869,
      "Ġrestitu": 4870,
      "Ġvivendum": 4871,
      "ai": 4872,
      "Ġaccip": 4873,
      "Ġador": 4874,
      "Ġliberum": 4875,
      "Ġ198": 4876,
      "ariorum": 4877,
      "Ġfierent": 4878,
      "Ġmic": 4879,
      "Ġmagistr": 4880,
      "Ġspeciem": 4881,
      "eria": 4882,
      "Ġci": 4883,
      "phon": 4884,
      "utam": 4885,
      "Ġreprim": 4886,
      "Ġsancto": 4887,
      "Ġornatus": 4888,
      "Ġmisit": 4889,
      "eroides": 4890,
      "ĠNisl": 4891,
      "ork": 4892,
      "ĠHispan": 4893,
      "amento": 4894,
      "Ġhomini": 4895,
      "issis": 4896,
      "Ġconclusionem": 4897,
      "Ġsanctum": 4898,
      "ĠTempus": 4899,
      "Ġ25": 4900,
      "ĠArg": 4901,
      "ĠPraec": 4902,
      "tifex": 4903,
      "Ġproprium": 4904,
      "Ġexpetenda": 4905,
      "Ġsuscipere": 4906,
      "18": 4907,
      "ĠConsequat": 4908,
      "pes": 4909,
      "Ġfacultatem": 4910,
      "Ġdict": 4911,
      "Ġtertia": 4912,
      "Ġquoti": 4913,
      "OR": 4914,
      "Ġsalv": 4915,
      "ĠQuoniam": 4916,
      "Ġparva": 4917,
      "Ġprobatus": 4918,
      "Ġbenefic": 4919,
      "neum": 4920,
      "ĠTurpis": 4921,
      "esa": 4922,
      "ĠRisus": 4923,
      "Ġvolum": 4924,
      "aturque": 4925,
      "Ġexempla": 4926,
      "Ġincorrupt": 4927,
      "Ġmandamus": 4928,
      "ĠPis": 4929,
      "Ġnominati": 4930,
      "Ġabb": 4931,
      "Ita": 4932,
      "Ġfaciem": 4933,
      "ĠEb": 4934,
      "Ġapparet": 4935,
      "Ġprior": 4936,
      "Ġtali": 4937,
      "icumque": 4938,
      "ĠIudae": 4939,
      "Ġbeatus": 4940,
      "Ġverter": 4941,
      "Ġadmir": 4942,
      "rimis": 4943,
      "iciis": 4944,
      "Ġluci": 4945,
      "Ġsenserit": 4946,
      "Ġquadam": 4947,
      "Ġcler": 4948,
      "ĠFilius": 4949,
      "Ġvultus": 4950,
      "Ġfrequ": 4951,
      "ĠCursus": 4952,
      "Ġfiunt": 4953,
      "Ġuol": 4954,
      "Ġhora": 4955,
      "ĠMic": 4956,
      "illi": 4957,
      "Ġiuc": 4958,
      "Ġhonestatis": 4959,
      "Ġpublicae": 4960,
      "Ġquanto": 4961,
      "aribus": 4962,
      "Ġspatium": 4963,
      "ank": 4964,
      "Ġsale": 4965,
      "ĠHuius": 4966,
      "ĠAbbas": 4967,
      "ĠOri": 4968,
      "etas": 4969,
      "Ġmunicip": 4970,
      "ardi": 4971,
      "Ġplen": 4972,
      "ĠAmeric": 4973,
      "Ġeruditi": 4974,
      "Ġsapientem": 4975,
      "ĠSab": 4976,
      "andri": 4977,
      "Ġnominis": 4978,
      "ĠBar": 4979,
      "Ġmyst": 4980,
      "Ġquaerendum": 4981,
      "Ġcivitatem": 4982,
      "Ġmazim": 4983,
      "inarum": 4984,
      "Ġsubstantia": 4985,
      "Ġinvicem": 4986,
      "Ġgentes": 4987,
      "Ġcommunis": 4988,
      "Ġimb": 4989,
      "Ġplaga": 4990,
      "asti": 4991,
      "ace": 4992,
      "Ġintellegam": 4993,
      "esimo": 4994,
      "verunt": 4995,
      "Ġconu": 4996,
      "Ġpoterat": 4997,
      "Ġadolescens": 4998,
      "ĠCathol": 4999,
      "Ġgest": 5000,
      "Ġpress": 5001,
      "vel": 5002,
      "uy": 5003,
      "gen": 5004,
      "Ġconsulatu": 5005,
      "Ġhy": 5006,
      "ede": 5007,
      "Ġoptime": 5008,
      "iculum": 5009,
      "Ġmentem": 5010,
      "Ġexercitu": 5011,
      "plici": 5012,
      "Ġ30": 5013,
      "Ġministr": 5014,
      "Ġcetero": 5015,
      "ĠPret": 5016,
      "Ġomnesque": 5017,
      "actum": 5018,
      "Ġgloriatur": 5019,
      "Ġdatur": 5020,
      "Ġcirciter": 5021,
      "12": 5022,
      "Ġhumana": 5023,
      "Ġauct": 5024,
      "Ġsitum": 5025,
      "Ġcoepit": 5026,
      "ugg": 5027,
      "Ġve": 5028,
      "Ġpara": 5029,
      "quip": 5030,
      "Ġreliqui": 5031,
      "Ġrevoc": 5032,
      "Ġecclesiam": 5033,
      "Ġridens": 5034,
      "Ġpercipitur": 5035,
      "ww": 5036,
      "Ġvoluntatem": 5037,
      "Ġfabric": 5038,
      "Ġexpetendis": 5039,
      "Ġtestimonium": 5040,
      "EN": 5041,
      "Ġatr": 5042,
      "Ġnatu": 5043,
      "Ġorbem": 5044,
      "Ġadf": 5045,
      "Ġchoro": 5046,
      "ĠFaucibus": 5047,
      "Ġverbo": 5048,
      "Ġaquam": 5049,
      "Ġartis": 5050,
      "Ġinterest": 5051,
      "ĠOn": 5052,
      "Ġrot": 5053,
      "Ġpecus": 5054,
      "itionibus": 5055,
      "ĠMal": 5056,
      "Ġinveni": 5057,
      "Ġscriptorem": 5058,
      "Ġviro": 5059,
      "ulta": 5060,
      "ĠiPhone": 5061,
      "archum": 5062,
      "ĠFranci": 5063,
      "entias": 5064,
      "ĠTempor": 5065,
      "imae": 5066,
      "Ġmateriae": 5067,
      "Ġdiab": 5068,
      "quo": 5069,
      "Ġov": 5070,
      "Ġlatine": 5071,
      "Ìĵ": 5072,
      "ionum": 5073,
      "Ġcast": 5074,
      "Ġnimium": 5075,
      "Ġrecens": 5076,
      "Ġcontentiones": 5077,
      "idere": 5078,
      "ĠIoannes": 5079,
      "Ġmeliore": 5080,
      "Ġpleb": 5081,
      "Ġmix": 5082,
      "Ġcomprehend": 5083,
      "Ġpraecipue": 5084,
      "Ġlas": 5085,
      "Ġadversarium": 5086,
      "Ġfo": 5087,
      "Ġcaeli": 5088,
      "issimam": 5089,
      "ravit": 5090,
      "Ġexcus": 5091,
      "Ġpossum": 5092,
      "ĠTrans": 5093,
      "ipot": 5094,
      "Ġiracundia": 5095,
      "ĠViverra": 5096,
      "Ġec": 5097,
      "atissimi": 5098,
      "Ġmag": 5099,
      "ĠFeugiat": 5100,
      "ĠÃ": 5101,
      "Ġantea": 5102,
      "Ġquidquid": 5103,
      "XXX": 5104,
      "Ġscripserit": 5105,
      "olorum": 5106,
      "Ġrever": 5107,
      "aque": 5108,
      "Ġequit": 5109,
      "Ġpercipit": 5110,
      "ĠMort": 5111,
      "Ġfic": 5112,
      "ĠPag": 5113,
      "Ġlaboramus": 5114,
      "Ġabsc": 5115,
      "Vestibulum": 5116,
      "Ġ:.": 5117,
      "Ġcertam": 5118,
      "cit": 5119,
      "ĠÂ°": 5120,
      "ogn": 5121,
      "Ġattrib": 5122,
      "itorum": 5123,
      "ursum": 5124,
      "ĠRuss": 5125,
      "Ġnecessaria": 5126,
      "Ġdefinitiones": 5127,
      "Ġdeduc": 5128,
      "Ġmores": 5129,
      "LI": 5130,
      "Ġsensu": 5131,
      "Ġdocendi": 5132,
      "Ġocta": 5133,
      "Ġdistrib": 5134,
      "Ġbenign": 5135,
      "Ġvoluntas": 5136,
      "uripidis": 5137,
      "Ġproprius": 5138,
      "Ġdeo": 5139,
      "Ġconvert": 5140,
      "cir": 5141,
      "Ġsingula": 5142,
      "Ġfortun": 5143,
      "Ġbulum": 5144,
      "Ġconcili": 5145,
      "Ġaudiam": 5146,
      "Ġpersecuti": 5147,
      "Ġinhib": 5148,
      "Ġplena": 5149,
      "Ġtantas": 5150,
      "Ġvoluntate": 5151,
      "Ġmentitum": 5152,
      "ĠÂ§": 5153,
      "Ġignota": 5154,
      "Ġorg": 5155,
      "Ġsuavitate": 5156,
      "Ġeloquentiam": 5157,
      "Ġpertinacia": 5158,
      "othec": 5159,
      "eophrastus": 5160,
      "ĠBon": 5161,
      "Ġmonstr": 5162,
      "Ġjuxta": 5163,
      "ĠUrb": 5164,
      "Ġpertinax": 5165,
      "Ġindoctum": 5166,
      "raque": 5167,
      "Ġoppidum": 5168,
      "Ġpostulant": 5169,
      "Ġsuffici": 5170,
      "lio": 5171,
      "Ġconsol": 5172,
      "Ġgradu": 5173,
      "Ġsis": 5174,
      "Ġaffert": 5175,
      "Ġcivitate": 5176,
      "ptu": 5177,
      "Ġnud": 5178,
      "Ġduplic": 5179,
      "Ġpub": 5180,
      "Ġperman": 5181,
      "Ġassue": 5182,
      "ruisset": 5183,
      "Ġsubj": 5184,
      "Ġhonorem": 5185,
      "Ġinteresset": 5186,
      "Ġoperis": 5187,
      "orio": 5188,
      "Ġpecuniam": 5189,
      "Ġflag": 5190,
      "ebo": 5191,
      "Ġnat": 5192,
      "ĠIesu": 5193,
      "Ġintegre": 5194,
      "Ġbaptiz": 5195,
      "ĠMem": 5196,
      "ON": 5197,
      "Ġtertio": 5198,
      "reant": 5199,
      "Ġfortuna": 5200,
      "opam": 5201,
      "Ġcorrumpit": 5202,
      "ĠIbi": 5203,
      "ĠDam": 5204,
      "Ġecce": 5205,
      "aedrum": 5206,
      "Ġuer": 5207,
      "idia": 5208,
      "ĠTortor": 5209,
      "Ġintellegat": 5210,
      "Ġpersequeris": 5211,
      "cio": 5212,
      "Ġsino": 5213,
      "Ġvicis": 5214,
      "Ġinterf": 5215,
      "Ġefficiantur": 5216,
      "Ġnegotium": 5217,
      "ki": 5218,
      "Ġbarb": 5219,
      "Ġancillae": 5220,
      "ĠStet": 5221,
      "ĠRed": 5222,
      "ĠHist": 5223,
      "Ġveritus": 5224,
      "ĠPurus": 5225,
      "ruo": 5226,
      "ĠUS": 5227,
      "arus": 5228,
      "Ġsita": 5229,
      "Ġefficiendi": 5230,
      "Ġannorum": 5231,
      "ĠOcto": 5232,
      "14": 5233,
      "Ut": 5234,
      "Ġ)": 5235,
      "anas": 5236,
      "Ġservi": 5237,
      "Ġofficio": 5238,
      "veni": 5239,
      "Ġvigil": 5240,
      "form": 5241,
      "Ġdetraxit": 5242,
      "nesarchum": 5243,
      "ĠRob": 5244,
      "ĠprÃ¦s": 5245,
      "Ġproductum": 5246,
      "Ġrum": 5247,
      "Ġappetere": 5248,
      "Ġpoenit": 5249,
      "ĠCet": 5250,
      "undus": 5251,
      "Ġintellegebat": 5252,
      "Ġconsc": 5253,
      "Ġtorque": 5254,
      "Ġsignif": 5255,
      "Ġdeterruisset": 5256,
      "Ġvisit": 5257,
      "ĠCapit": 5258,
      "Ġhonore": 5259,
      "ĠMaria": 5260,
      "ĠVII": 5261,
      "ĠcÅĵ": 5262,
      "ĠTamen": 5263,
      "Ġhabens": 5264,
      "Ġtribun": 5265,
      "Ġdeseruisse": 5266,
      "Ġcommuni": 5267,
      "ele": 5268,
      "Ġiug": 5269,
      "Ġmoderatius": 5270,
      "idonium": 5271,
      "Ġomittam": 5272,
      "Ġturba": 5273,
      "Ġposuit": 5274,
      "Ġdisputationi": 5275,
      "Ġlabitur": 5276,
      "Ġsanctorum": 5277,
      "ficium": 5278,
      "Ġvocem": 5279,
      "Ġopportun": 5280,
      "estate": 5281,
      "uctu": 5282,
      "uisti": 5283,
      "Ġscribentur": 5284,
      "Ġdelicata": 5285,
      "Ġreprehendunt": 5286,
      "Ġreformid": 5287,
      "Ġsplendide": 5288,
      "Ġape": 5289,
      "ues": 5290,
      "Ġprout": 5291,
      "Ġanimad": 5292,
      "Ġiudicabit": 5293,
      "Ġdisputando": 5294,
      "Ġconcess": 5295,
      "ĠPrÃ¦": 5296,
      "abiliter": 5297,
      "Ġconsili": 5298,
      "Ġ\".": 5299,
      "Ġinterpretaris": 5300,
      "ations": 5301,
      "Ġdiximus": 5302,
      "Ġmors": 5303,
      "urs": 5304,
      "16": 5305,
      "Ġprodesset": 5306,
      "Ġreferrentur": 5307,
      "ĠSer": 5308,
      "Ġinstructior": 5309,
      "undo": 5310,
      "ĠItaliae": 5311,
      "Ġeripuit": 5312,
      "ilitas": 5313,
      "Ġconcludaturque": 5314,
      "Ġveritatem": 5315,
      "Ġdictas": 5316,
      "Ġcanon": 5317,
      "irian": 5318,
      "ĠAlb": 5319,
      "Ġsolo": 5320,
      "Ġ+": 5321,
      "Ġtibique": 5322,
      "Ġsalutis": 5323,
      "Ġmediocrem": 5324,
      "Ġeuripidis": 5325,
      "Ġvoluptaria": 5326,
      "Ġpetentium": 5327,
      "of": 5328,
      "idos": 5329,
      "Ġneglegentur": 5330,
      "Ġperst": 5331,
      "Ġquemadmodum": 5332,
      "Ġsuscipiantur": 5333,
      "Ġcalc": 5334,
      "ila": 5335,
      "Ġ197": 5336,
      "Ġputent": 5337,
      "Ġoeconom": 5338,
      "alt": 5339,
      "Ġflor": 5340,
      "Ġmonach": 5341,
      "Ġcaelo": 5342,
      "Ġcomprehensam": 5343,
      "Ġtermin": 5344,
      "Ġisti": 5345,
      "Ġmediocritatem": 5346,
      "Ġelaboraret": 5347,
      "estibus": 5348,
      "Ġcomment": 5349,
      "Ġconceptam": 5350,
      "Ġurbanitas": 5351,
      "Ġster": 5352,
      "Ġoppos": 5353,
      "Ġaffirm": 5354,
      "Ġtractatos": 5355,
      "Ġdefiniebas": 5356,
      "ĠHunc": 5357,
      "Ġdecore": 5358,
      "Ġfaciat": 5359,
      "Ġaperiri": 5360,
      "Ġliberavisse": 5361,
      "Ġexercitus": 5362,
      "Ġexcell": 5363,
      "hem": 5364,
      "Ġmnesarchum": 5365,
      "Ġevertitur": 5366,
      "Ġsupplic": 5367,
      "oseph": 5368,
      "ĠIllud": 5369,
      "Ġinsolens": 5370,
      "âĢ¦": 5371,
      "Ġomittantur": 5372,
      "ĠVolutpat": 5373,
      "Ġtheophrastus": 5374,
      "Ġnamque": 5375,
      "Ġprompta": 5376,
      "Ġdissentiet": 5377,
      "Ġaliquot": 5378,
      "ze": 5379,
      "Ġnominavi": 5380,
      "tineo": 5381,
      "Ġutrumque": 5382,
      "ĠCard": 5383,
      "Ġdelicatissimi": 5384,
      "Ġviribus": 5385,
      "Ġpatrioque": 5386,
      "Ġmeae": 5387,
      "ĠApoll": 5388,
      "Ġtorquatos": 5389,
      "natus": 5390,
      "Ġconclusionemque": 5391,
      "Ġnoluisse": 5392,
      "Ġlonga": 5393,
      "Ġmaluisset": 5394,
      "Ġhistoria": 5395,
      "Ġfert": 5396,
      "Ġinani": 5397,
      "Ġartic": 5398,
      "Ġsole": 5399,
      "Ġseips": 5400,
      "Ġhtt": 5401,
      "Ġdissentias": 5402,
      "Ġobc": 5403,
      "Ġfraud": 5404,
      "imates": 5405,
      "Ġsalutandi": 5406,
      "),.": 5407,
      "ominus": 5408,
      "Ġatomorum": 5409,
      "Ġpel": 5410,
      "Ġsalutatus": 5411,
      "ĠUrna": 5412,
      "Ġinermis": 5413,
      "Ġvereor": 5414,
      "urn": 5415,
      "Ġphaedrum": 5416,
      "cn": 5417,
      "Ġassueverit": 5418,
      "ĠEcclesiam": 5419,
      "Ġutamur": 5420,
      "Ġgraecis": 5421,
      "Ġascend": 5422,
      "Ġpacis": 5423,
      "Ġdiligenter": 5424,
      "Ġpeccato": 5425,
      "Ġceteris": 5426,
      "Ġgratias": 5427,
      "Ġagam": 5428,
      "Ġforensibus": 5429,
      "iderunt": 5430,
      "Ġfrequent": 5431,
      "Ġvox": 5432,
      "Ġperegrin": 5433,
      "Ġconiug": 5434,
      "Ġabhorreant": 5435,
      "Ġconcord": 5436,
      "ock": 5437,
      "Ġinciderint": 5438,
      "Ġistud": 5439,
      "Ġadept": 5440,
      "Ġfrag": 5441,
      "Ġrepudiare": 5442,
      "Ġdeum": 5443,
      "Ġqualisque": 5444,
      "Ġdescend": 5445,
      "Ġlus": 5446,
      "emque": 5447,
      "ĠPop": 5448,
      "Ġcotidieque": 5449,
      "Ġposidonium": 5450,
      "Ġflu": 5451,
      "Ġrespon": 5452,
      "Ġrecteque": 5453,
      "ĠRegn": 5454,
      "Ġgraeco": 5455,
      "Ġcaelum": 5456,
      "Ġdifficult": 5457,
      "Ġdemocritum": 5458,
      "icii": 5459,
      "Ġvituperata": 5460,
      "Ġponderum": 5461,
      "her": 5462,
      "ector": 5463,
      "Ġdetracto": 5464,
      "Ġreformidans": 5465,
      "Ġvivendo": 5466,
      "onii": 5467,
      "ĠApr": 5468,
      "Ġcorn": 5469,
      "Ġsigniferumque": 5470,
      "Ġaccur": 5471,
      "ĠRa": 5472,
      "ĠPlat": 5473,
      "Ġlenis": 5474,
      "Ġintenti": 5475,
      "ado": 5476,
      "Ġvituperatoribus": 5477,
      "imas": 5478,
      "Ġculp": 5479,
      "Ġquicquam": 5480,
      "bri": 5481,
      "Ġconstituam": 5482,
      "Ġfabellas": 5483,
      "Ġpan": 5484,
      "Ġnox": 5485,
      "Ġlitteras": 5486,
      "Ġscaevola": 5487,
      "Ġlucilius": 5488,
      "ĠNot": 5489,
      "ĠQuorum": 5490,
      "Ġinitio": 5491,
      "Ġtuas": 5492,
      "Ġpron": 5493,
      "Ġocurreret": 5494,
      "Ġelectram": 5495,
      "ĠLectus": 5496,
      "Ġconvenit": 5497,
      "Ġimperio": 5498,
      "Ġcunctis": 5499,
      "Ġdid": 5500,
      "onitur": 5501,
      "ĠSex": 5502,
      "ĠPatri": 5503,
      "Ġta": 5504,
      "Ġdestin": 5505,
      "Ġimpet": 5506,
      "Ġalta": 5507,
      "ioni": 5508,
      "Ġlumen": 5509,
      "Ġsapientia": 5510,
      "inalis": 5511,
      "ka": 5512,
      "Ġplatonem": 5513,
      "Ġregi": 5514,
      "enia": 5515,
      "erim": 5516,
      "Ġviderer": 5517,
      "Ġrig": 5518,
      "Ġexcit": 5519,
      "ferre": 5520,
      "Ġym": 5521,
      "Ġcopiosae": 5522,
      "ĠIndicem": 5523,
      "Ġantiopam": 5524,
      "Ġaccusata": 5525,
      "Ġincorrupte": 5526,
      "Ġsoleat": 5527,
      "Ġepicurei": 5528,
      "Ġvaletudo": 5529,
      "Ġrepugn": 5530,
      "Ġlegendos": 5531,
      "Ġapeirian": 5532,
      "osis": 5533,
      "Ġful": 5534,
      "ulare": 5535,
      "Ġiuvaret": 5536,
      "osum": 5537,
      "liane": 5538,
      "Ġerga": 5539,
      "Ġrecusabo": 5540,
      "Ġhumo": 5541,
      "ĠMod": 5542,
      "istis": 5543,
      "etae": 5544,
      "Ġmunera": 5545,
      "Ġverterem": 5546,
      "Ġvenio": 5547,
      "Ġgreg": 5548,
      "ĠPrima": 5549,
      "Ġso": 5550,
      "Ġspiritum": 5551,
      "Ġfastidii": 5552,
      "Ġpecunia": 5553,
      "ĠMunicip": 5554,
      "Ġprimi": 5555,
      "Ġfalli": 5556,
      "esi": 5557,
      "50": 5558,
      "ĠAristot": 5559,
      "Ġpartiendo": 5560,
      "Ġincon": 5561,
      "Ġgraece": 5562,
      "za": 5563,
      "olam": 5564,
      "Ġeligere": 5565,
      "ebru": 5566,
      "Ġbaptis": 5567,
      "ĠMer": 5568,
      "Ġpersius": 5569,
      "ĠPyr": 5570,
      "ĠAcadem": 5571,
      "ĠEp": 5572,
      "Ġcredit": 5573,
      "ĠIov": 5574,
      "osus": 5575,
      "Ġpas": 5576,
      "mina": 5577,
      "ossa": 5578,
      "Ġepicuri": 5579,
      "ãĢ": 5580,
      "Ġtuos": 5581,
      "Ġ24": 5582,
      "avimus": 5583,
      "Ġrecta": 5584,
      "Ġviginti": 5585,
      "Ġsatisfac": 5586,
      "Ġponit": 5587,
      "ellam": 5588,
      "Ġfulg": 5589,
      "ĠOper": 5590,
      "Ġspes": 5591,
      "Ġsax": 5592,
      "Ġira": 5593,
      "Ġmenandri": 5594,
      "Ġdictis": 5595,
      "Ġmilites": 5596,
      "Ġirr": 5597,
      "ĠFrancis": 5598,
      "Ġexce": 5599,
      "Ġsaperet": 5600,
      "Ġnef": 5601,
      "Ïĥ": 5602,
      "ars": 5603,
      "Ġputo": 5604,
      "icia": 5605,
      "Ġipsorum": 5606,
      "Ġmille": 5607,
      "Ġuoc": 5608,
      "Ġuxorem": 5609,
      "Ġoperibus": 5610,
      "Ġnemore": 5611,
      "Ġproprie": 5612,
      "inn": 5613,
      "Ġmagnus": 5614,
      "Ġalbucius": 5615,
      "Ġpala": 5616,
      "ilitate": 5617,
      "ĠIlli": 5618,
      "Ġquare": 5619,
      "Ġratis": 5620,
      "Ġacced": 5621,
      "ĠXII": 5622,
      "Ġtacimates": 5623,
      "Ġflamm": 5624,
      "ĠTest": 5625,
      "Ġcruci": 5626,
      "Ġangel": 5627,
      "Ġdominum": 5628,
      "Ġhostes": 5629,
      "Ġperi": 5630,
      "ĠRel": 5631,
      "ĠTro": 5632,
      "Ġpace": 5633,
      "Ġcommemor": 5634,
      "Î·": 5635,
      "ĠAch": 5636,
      "Ġsuus": 5637,
      "Ġmerito": 5638,
      "Ġoblique": 5639,
      "ocus": 5640,
      "Ġvulpes": 5641,
      "Ġrusticus": 5642,
      "Ġacer": 5643,
      "ensu": 5644,
      "ĠCant": 5645,
      "Ġglob": 5646,
      "Ġtene": 5647,
      "ĠBel": 5648,
      "Ġpneum": 5649,
      "Ġpropositum": 5650,
      "Ġiudicio": 5651,
      "Ġeverti": 5652,
      "ĠAss": 5653,
      "Ġdiscrim": 5654,
      "audi": 5655,
      "Ġsensum": 5656,
      "Ġceler": 5657,
      "Ġquaeso": 5658,
      "Ġestis": 5659,
      "Ġdorm": 5660,
      "Ġimportun": 5661,
      "ĠPatris": 5662,
      "Ġpossent": 5663,
      "ĠBas": 5664,
      "Ð°": 5665,
      "Ġfacete": 5666,
      "ĠQuamquam": 5667,
      "Ġregno": 5668,
      "Ġcomitatu": 5669,
      "Ġreprimique": 5670,
      "Ġmotum": 5671,
      "Ġanimus": 5672,
      "Ġdicimus": 5673,
      "itavit": 5674,
      "Ġgenitus": 5675,
      "ema": 5676,
      "ĠProd": 5677,
      "Ġspons": 5678,
      "Ġexped": 5679,
      "Ġmecum": 5680,
      "ĠMari": 5681,
      "Ġincipi": 5682,
      "Ġfines": 5683,
      "Ġrationis": 5684,
      "Ġtyr": 5685,
      "ĠUltrices": 5686,
      "Ġbo": 5687,
      "rip": 5688,
      "uitur": 5689,
      "ke": 5690,
      "Ġmotu": 5691,
      "ĠNull": 5692,
      "uismod": 5693,
      "Ġtimeam": 5694,
      "Ġvocent": 5695,
      "ĠIoh": 5696,
      "ĠHe": 5697,
      "Ġgentium": 5698,
      "ivi": 5699,
      "Ex": 5700,
      "Ġsermone": 5701,
      "Ġtrig": 5702,
      "Ġrefero": 5703,
      "ĠLatine": 5704,
      "Ġnex": 5705,
      "Ġdescrib": 5706,
      "Ġtritani": 5707,
      "averat": 5708,
      "ĠTam": 5709,
      "Ġsig": 5710,
      "Ġmemoriam": 5711,
      "Ġiudico": 5712,
      "br": 5713,
      "orus": 5714,
      "Ġulcis": 5715,
      "Ġmari": 5716,
      "ĠItal": 5717,
      "Ġmalo": 5718,
      "Ġfamilia": 5719,
      "Ġquodsi": 5720,
      "ebam": 5721,
      "Ġobcaecati": 5722,
      "Ġundique": 5723,
      "gu": 5724,
      "Ġsancta": 5725,
      "ativa": 5726,
      "Ġparv": 5727,
      "ĠIanuarii": 5728,
      "ulerunt": 5729,
      "ht": 5730,
      "Ġnonumes": 5731,
      "ĠElementum": 5732,
      "Ġsugg": 5733,
      "Ġcaet": 5734,
      "Ġanimos": 5735,
      "Ġegreg": 5736,
      "Ġdomi": 5737,
      "Ġcito": 5738,
      "alli": 5739,
      "ileg": 5740,
      "Ġfilia": 5741,
      "Ġverear": 5742,
      "Ġsummus": 5743,
      "enci": 5744,
      "Ġdicis": 5745,
      "Ġcasus": 5746,
      "ende": 5747,
      "Ġnaturalis": 5748,
      "13": 5749,
      "Ġdoct": 5750,
      "Ġlinea": 5751,
      "ĠVulp": 5752,
      "Ġvestris": 5753,
      "Ġacceper": 5754,
      "Ġintellectu": 5755,
      "Ġpontific": 5756,
      "Ġneo": 5757,
      "Ġgraeci": 5758,
      "Ġinterc": 5759,
      "ĠNeg": 5760,
      "Ġidone": 5761,
      "Ġvalidus": 5762,
      "Ġorbe": 5763,
      "Ġtabern": 5764,
      "Ġscripsit": 5765,
      "ĠFacilisis": 5766,
      "itit": 5767,
      "Ġprofic": 5768,
      "AN": 5769,
      "Ġtriumph": 5770,
      "ĠPhilos": 5771,
      "Ġsuffrag": 5772,
      "uncta": 5773,
      "Ġmend": 5774,
      "Italiane": 5775,
      "irma": 5776,
      "Ġalbum": 5777,
      "ebunt": 5778,
      "Ġhostium": 5779,
      "Ġconn": 5780,
      "Ġcarnis": 5781,
      "alog": 5782,
      "elle": 5783,
      "Ġsonet": 5784,
      "Donec": 5785,
      "ote": 5786,
      "Ð¸": 5787,
      "pa": 5788,
      "Ġcase": 5789,
      "Ġbrevi": 5790,
      "vir": 5791,
      "Ġinclin": 5792,
      "ĠVIII": 5793,
      "eras": 5794,
      "Ġlarg": 5795,
      "Ġimpos": 5796,
      "Ġpre": 5797,
      "ĠAqu": 5798,
      "yg": 5799,
      "imen": 5800,
      "Ġclaud": 5801,
      "Ġhabetur": 5802,
      "Ġnavig": 5803,
      "De": 5804,
      "Ġadmon": 5805,
      "ĠGeorg": 5806,
      "Ġmucius": 5807,
      "Ġordo": 5808,
      "Ġmanifest": 5809,
      "Ġintegr": 5810,
      "Ġpericulo": 5811,
      "Ġsort": 5812,
      "tionum": 5813,
      "Ġsap": 5814,
      "Ġnostros": 5815,
      "ĠIndex": 5816,
      "AR": 5817,
      "Ġexprim": 5818,
      "ĠÃĨ": 5819,
      "Ġlin": 5820,
      "essi": 5821,
      "Ġadduc": 5822,
      "uat": 5823,
      "cr": 5824,
      "Ġsumo": 5825,
      "Ġfact": 5826,
      "Ġplurimum": 5827,
      "uerint": 5828,
      "Ġens": 5829,
      "aces": 5830,
      "Ġmenti": 5831,
      "Ġhospit": 5832,
      "Ġumquam": 5833,
      "Ġobv": 5834,
      "ĠAliquet": 5835,
      "ĠRomam": 5836,
      "Ġmaximum": 5837,
      "Ġration": 5838,
      "Ġvoco": 5839,
      "itores": 5840,
      "Ġsenatus": 5841,
      "Ġordinis": 5842,
      "Ġexpress": 5843,
      "Ġrud": 5844,
      "Ġzelus": 5845,
      "me": 5846,
      "Ġisto": 5847,
      "Ġatqui": 5848,
      "ades": 5849,
      "ĠEuismod": 5850,
      "ĠIgn": 5851,
      "acter": 5852,
      "Ġsat": 5853,
      "Ġmonst": 5854,
      "Ġspem": 5855,
      "Ġquamquam": 5856,
      "ĠAugusti": 5857,
      "Ġspe": 5858,
      "ĠAustr": 5859,
      "Ġrequi": 5860,
      "idam": 5861,
      "andas": 5862,
      "Ġfigura": 5863,
      "ĠAliquip": 5864,
      "Ġpert": 5865,
      "icio": 5866,
      "Ġnescio": 5867,
      "Ġcognov": 5868,
      "Ġpartim": 5869,
      "ĠMerc": 5870,
      "Ġmaris": 5871,
      "Ġinnoc": 5872,
      "17": 5873,
      "ĠBer": 5874,
      "ĠIr": 5875,
      "Ġmetuo": 5876,
      "Ġdio": 5877,
      "au": 5878,
      "ĠGoog": 5879,
      "ĠBern": 5880,
      "orius": 5881,
      "Ġbella": 5882,
      "Ġrespondit": 5883,
      "Ġexplor": 5884,
      "Ġsoc": 5885,
      "Ġquadrum": 5886,
      "ĠSanctus": 5887,
      "Ġpi": 5888,
      "Ġscr": 5889,
      "Ġcontem": 5890,
      "Ġaer": 5891,
      "Ġpericulum": 5892,
      "ĠFel": 5893,
      "IS": 5894,
      "Ġintus": 5895,
      "Ġoratione": 5896,
      "Ġcordis": 5897,
      "Ġconver": 5898,
      "Ġpossid": 5899,
      "22": 5900,
      "Ġmanet": 5901,
      "Ġvideatur": 5902,
      "Ġsolem": 5903,
      "ĠDicit": 5904,
      "Ġhomero": 5905,
      "anto": 5906,
      "Ġincipit": 5907,
      "ĠPretium": 5908,
      "Ġdomest": 5909,
      "Ġsab": 5910,
      "berg": 5911,
      "Ġagnosc": 5912,
      "Ġsubito": 5913,
      "luo": 5914,
      "Ġluce": 5915,
      "Ġmagister": 5916,
      "Ġpresbyter": 5917,
      "pro": 5918,
      "Ð¾": 5919,
      "Ġvulgo": 5920,
      "ĠSil": 5921,
      "Ġpraeterea": 5922,
      "ĠTar": 5923,
      "til": 5924,
      "anni": 5925,
      "Ġcontraria": 5926,
      "Ġliqu": 5927,
      "Ġquinqu": 5928,
      "Ġtorqueo": 5929,
      "Ġgrat": 5930,
      "Ġeft": 5931,
      "Ġverto": 5932,
      "Ġerrem": 5933,
      "Ġvocatur": 5934,
      "Ġeidem": 5935,
      "Ġnil": 5936,
      "habeo": 5937,
      "Ġnutus": 5938,
      "Ġcolum": 5939,
      "osi": 5940,
      "Ġpertineo": 5941,
      "Ġprofecto": 5942,
      "äº": 5943,
      "ĠContra": 5944,
      "ĠRo": 5945,
      "estra": 5946,
      "ES": 5947,
      "ĠNostr": 5948,
      "Ġresurr": 5949,
      "rec": 5950,
      "Ġpasc": 5951,
      "Ġsaluto": 5952,
      "Ġrefert": 5953,
      "entiis": 5954,
      "Ġinsp": 5955,
      "Ġpagus": 5956,
      "ler": 5957,
      "Ġveluti": 5958,
      "tifici": 5959,
      "Ġfus": 5960,
      "rex": 5961,
      "Ġoptimus": 5962,
      "Ġvariet": 5963,
      "Ġlucidus": 5964,
      "ilvus": 5965,
      "Ġquanta": 5966,
      "Ġreque": 5967,
      "Ġreperi": 5968,
      "VIII": 5969,
      "ÏĢ": 5970,
      "Ġprimam": 5971,
      "Ġamicitia": 5972,
      "Ġaccipit": 5973,
      "Ġrevel": 5974,
      "Ġvirtutes": 5975,
      "ĠEpiscopus": 5976,
      "ĠHieronym": 5977,
      "acum": 5978,
      "Ġstudium": 5979,
      "aei": 5980,
      "ĠBl": 5981,
      "Ġvindico": 5982,
      "Ġobruo": 5983,
      "orsum": 5984,
      "Pro": 5985,
      "ĠCorn": 5986,
      "Ġfiliis": 5987,
      "Ġulciscor": 5988,
      "ĠEros": 5989,
      "Ġdirig": 5990,
      "Ġmoribus": 5991,
      "Ġsagaciter": 5992,
      "nit": 5993,
      "Ġymo": 5994,
      "erere": 5995,
      "Ġphilosophi": 5996,
      "Ġusitas": 5997,
      "60": 5998,
      "Ġprael": 5999,
      "Ġvelle": 6000,
      "Ġpectore": 6001,
      "Ġurbs": 6002,
      "Ġintrod": 6003,
      "ĠJusto": 6004,
      "Ġabund": 6005,
      "Ġsubsc": 6006,
      "ĠMC": 6007,
      "Ġrefoveo": 6008,
      "Ġviros": 6009,
      "Ġgemino": 6010,
      "ole": 6011,
      "Ġscisco": 6012,
      "amin": 6013,
      "ĠObs": 6014,
      "Ġangus": 6015,
      "Ġsudo": 6016,
      "Ġpretios": 6017,
      "Ġconsecr": 6018,
      "eritis": 6019,
      "Ġtypicus": 6020,
      "Ġmane": 6021,
      "Ġsuad": 6022,
      "ĠAnn": 6023,
      "ĠMiss": 6024,
      "ĠComp": 6025,
      "Ġextremum": 6026,
      "Ġdemum": 6027,
      "aly": 6028,
      "Ġvocab": 6029,
      "iarum": 6030,
      "Ġvestrum": 6031,
      "Ġsimiles": 6032,
      "gra": 6033,
      "ĠHor": 6034,
      "Ġpraemitto": 6035,
      "illo": 6036,
      "Ġcivitas": 6037,
      "Ġliceat": 6038,
      "hort": 6039,
      "ĠMihi": 6040,
      "Ġmilitum": 6041,
      "Ġinstrumentum": 6042,
      "diu": 6043,
      "ĠFebru": 6044,
      "Ġfacilius": 6045,
      "onae": 6046,
      "ĠBal": 6047,
      "Ġquicquid": 6048,
      "Ġroto": 6049,
      "Ġargum": 6050,
      "Ġobsequ": 6051,
      "Ġperv": 6052,
      "Ġpercus": 6053,
      "Ġincassum": 6054,
      "erimus": 6055,
      "Ġimprob": 6056,
      "Ġiura": 6057,
      "Ġjumentum": 6058,
      "Ġingens": 6059,
      "ĠTex": 6060,
      "idae": 6061,
      "Ġquaerere": 6062,
      "Ġconsilia": 6063,
      "Ġnonnull": 6064,
      "Ġletalis": 6065,
      "unic": 6066,
      "Ġjugis": 6067,
      "graph": 6068,
      "Ġpern": 6069,
      "Ġfunc": 6070,
      "Ġoperatur": 6071,
      "Ġinclus": 6072,
      "Ġdoloris": 6073,
      "Ġfrustra": 6074,
      "Ġsolent": 6075,
      "Ġquadrag": 6076,
      "ĠProv": 6077,
      "Ġvocant": 6078,
      "acem": 6079,
      ",\"": 6080,
      "Ġplan": 6081,
      "Ġdiei": 6082,
      "roid": 6083,
      "rep": 6084,
      "Ġquidne": 6085,
      "Ġtego": 6086,
      "Ġmagnitudinem": 6087,
      "Ġmolior": 6088,
      "Ġorient": 6089,
      "Ġurg": 6090,
      "Ġhec": 6091,
      "Ġvenire": 6092,
      "Ġtanti": 6093,
      "Ġmateriam": 6094,
      "athed": 6095,
      "Ġnovo": 6096,
      "ĠCel": 6097,
      "riptio": 6098,
      "Ġactio": 6099,
      "Ġtemplum": 6100,
      "ĠHum": 6101,
      "piss": 6102,
      "Ġarch": 6103,
      "Ġeandem": 6104,
      "Ġdit": 6105,
      "Ġconcu": 6106,
      "Ġveritas": 6107,
      "ated": 6108,
      "Ġpremo": 6109,
      "uth": 6110,
      "Ġbrute": 6111,
      "Ġrestit": 6112,
      "Ġpersto": 6113,
      "ĠDu": 6114,
      "ss": 6115,
      "Ġup": 6116,
      "Ma": 6117,
      "Ġpom": 6118,
      "ultum": 6119,
      "acti": 6120,
      "ĠJac": 6121,
      "Ġoccuro": 6122,
      "Ġmagnific": 6123,
      "ilitatem": 6124,
      "Ġusers": 6125,
      "Ġcontempl": 6126,
      "Ġtris": 6127,
      "Ġinsan": 6128,
      "ĠJesu": 6129,
      "ĠDixit": 6130,
      "Ġmacto": 6131,
      "mata": 6132,
      "man": 6133,
      "andos": 6134,
      "Î»": 6135,
      "Ġpollic": 6136,
      "ĠMor": 6137,
      "Ġsuperfici": 6138,
      "Ġeundem": 6139,
      "Ġvidet": 6140,
      "site": 6141,
      "Ġpraecepta": 6142,
      "Ġiussit": 6143,
      "Ġced": 6144,
      "ĠVoc": 6145,
      "ĠQuidam": 6146,
      "ĠPropter": 6147,
      "ĠSto": 6148,
      "Ġpatriae": 6149,
      "ĠMattis": 6150,
      "Ġistis": 6151,
      "ures": 6152,
      "epti": 6153,
      "Ġconiung": 6154,
      "Ġinterdico": 6155,
      "Ġpedibus": 6156,
      "Ġå": 6157,
      "Ġproper": 6158,
      "ĠPharetra": 6159,
      "Ġdicti": 6160,
      "Ġhaberet": 6161,
      "ĠVulputate": 6162,
      "Ġomnipot": 6163,
      "Ġlegibus": 6164,
      "vere": 6165,
      "Ġepiscopi": 6166,
      "ĠPho": 6167,
      "Ġsustent": 6168,
      "ĠMil": 6169,
      "ĠAdd": 6170,
      "Ġauro": 6171,
      "ĠCing": 6172,
      "ĠAlii": 6173,
      "Ġtemporum": 6174,
      "ĠAlter": 6175,
      "Ġimo": 6176,
      "Ġub": 6177,
      "load": 6178,
      "ych": 6179,
      "Ġsuperius": 6180,
      "Ġcausis": 6181,
      "tex": 6182,
      "',": 6183,
      "alitas": 6184,
      "circo": 6185,
      "Ġimaginem": 6186,
      "ĠMalesuada": 6187,
      "Ġfortis": 6188,
      "Ġdixerunt": 6189,
      "Ġcooper": 6190,
      "ĠTristique": 6191,
      "ĠRegis": 6192,
      "Ġnecessitate": 6193,
      "Ġperse": 6194,
      "Ġvaria": 6195,
      "11": 6196,
      "Ġpraesto": 6197,
      "Ġnovi": 6198,
      "ĠVt": 6199,
      "Ġcontentus": 6200,
      "Ġsuffic": 6201,
      "Ġrip": 6202,
      "Ġvisum": 6203,
      "adis": 6204,
      "Ðµ": 6205,
      "Ġra": 6206,
      "Ġpoena": 6207,
      "con": 6208,
      "Ġzril": 6209,
      "VII": 6210,
      "Ġinhibeo": 6211,
      "ĠMMX": 6212,
      "AT": 6213,
      "Ġsoli": 6214,
      "fert": 6215,
      "Ġdebemus": 6216,
      "liothec": 6217,
      "ĠSod": 6218,
      "Ġperp": 6219,
      "ĠLong": 6220,
      "Ġremov": 6221,
      "Ġsimile": 6222,
      "Ġdeos": 6223,
      "Ġaetatis": 6224,
      "eamus": 6225,
      "Ġinop": 6226,
      "psit": 6227,
      "Ġiaceo": 6228,
      "Ġdestr": 6229,
      "Ïī": 6230,
      "ingere": 6231,
      "Ġsermo": 6232,
      "Ġnecessarium": 6233,
      "ï¼": 6234,
      "Ġludos": 6235,
      "Ġaere": 6236,
      "ago": 6237,
      "utio": 6238,
      "nde": 6239,
      "Ġhabeant": 6240,
      "Ġfacies": 6241,
      "sed": 6242,
      "Ġcapt": 6243,
      "Ġtalia": 6244,
      "ĠFlor": 6245,
      "Ġfov": 6246,
      "ĠTim": 6247,
      "endunt": 6248,
      "ĠRomana": 6249,
      "ĠParis": 6250,
      "Ġcresc": 6251,
      "Ġpertinent": 6252,
      "ĠAlia": 6253,
      "ns": 6254,
      "amp": 6255,
      "Ġinstr": 6256,
      "Ġoppeto": 6257,
      "Ġaliqui": 6258,
      "Ġesca": 6259,
      "mos": 6260,
      "ĠProf": 6261,
      "Ġnupti": 6262,
      "rexit": 6263,
      "Ġastronom": 6264,
      "ĠUllamcorper": 6265,
      "onam": 6266,
      "Ġpate": 6267,
      "Ġvehementer": 6268,
      "ĠMunicipia": 6269,
      "Ġcibum": 6270,
      "Ġdona": 6271,
      "Ġcausas": 6272,
      "Ġpartium": 6273,
      "anta": 6274,
      "ĠEodem": 6275,
      "Ad": 6276,
      "Ġformae": 6277,
      "Ġinquis": 6278,
      "Ġhorr": 6279,
      "Ġdicto": 6280,
      "Ġterras": 6281,
      "Ġdivinae": 6282,
      "Ġoleum": 6283,
      "Ġduce": 6284,
      "Ġexercitum": 6285,
      "Ġil": 6286,
      "ĠDef": 6287,
      "Ġexemplo": 6288,
      "Ġimportunus": 6289,
      "Ġgrad": 6290,
      "Ġnu": 6291,
      "Ġgradum": 6292,
      "upta": 6293,
      "Ġcalam": 6294,
      "Ġludum": 6295,
      "Ġreman": 6296,
      "Ġartes": 6297,
      "amina": 6298,
      "ĠMatth": 6299,
      "ÃŁ": 6300,
      "Ġpraepar": 6301,
      "orn": 6302,
      "eque": 6303,
      "Ġconcupisc": 6304,
      "Ġpatriam": 6305,
      "quia": 6306,
      "Ġnovam": 6307,
      "wnload": 6308,
      "Ġdatum": 6309,
      "Ġdebeat": 6310,
      "ĠProb": 6311,
      "Ġfutura": 6312,
      "ĠTibi": 6313,
      "ĠOrn": 6314,
      "yrum": 6315,
      "orumque": 6316,
      "anne": 6317,
      "ĠGoogle": 6318,
      "Ġdecus": 6319,
      "ĠAptent": 6320,
      "ologia": 6321,
      "ĠGravida": 6322,
      "Ġutrius": 6323,
      "Ġhabitus": 6324,
      "ĠAur": 6325,
      "ĠRomanorum": 6326,
      "Ġheb": 6327,
      "Ġalicuius": 6328,
      "Ġtre": 6329,
      "Ġsuperb": 6330,
      "ĠprÃ¦dic": 6331,
      "Ġstruct": 6332,
      "ĠHuic": 6333,
      "ĠSteph": 6334,
      "Ġsacris": 6335,
      "ĠAndroid": 6336,
      "Ġfratribus": 6337,
      "ance": 6338,
      "burg": 6339,
      "Ġscel": 6340,
      "21": 6341,
      "Ġpeccati": 6342,
      "Ġpurto": 6343,
      "Ġpossis": 6344,
      "Ġiustus": 6345,
      "ĠPsal": 6346,
      "ject": 6347,
      "ĠSax": 6348,
      "Ġaetate": 6349,
      "icibus": 6350,
      "ĠDui": 6351,
      "Ġorbit": 6352,
      "Ġpropinqu": 6353,
      "ĠCre": 6354,
      "incipis": 6355,
      "Ġlon": 6356,
      "Ġimmitto": 6357,
      "Con": 6358,
      "issi": 6359,
      "Ġcuram": 6360,
      "Ġros": 6361,
      "ĠSpiritu": 6362,
      "Ġpondus": 6363,
      "ĠFort": 6364,
      "Ġrenov": 6365,
      "Ġaj": 6366,
      "ĠTrin": 6367,
      "Ġcompon": 6368,
      "issimae": 6369,
      "Ġpropterea": 6370,
      "ĠAbdo": 6371,
      "Ġdefunc": 6372,
      "Ġinstrumenta": 6373,
      "40": 6374,
      "Ġultimum": 6375,
      "Ġinquantum": 6376,
      "Ġclem": 6377,
      "Ġlibros": 6378,
      "Ġlinguae": 6379,
      "edo": 6380,
      "Ġegr": 6381,
      "Ġlibera": 6382,
      "Ġheredit": 6383,
      "Ġigne": 6384,
      "ĠPostea": 6385,
      "Ġsarc": 6386,
      "ĠFer": 6387,
      "Ġvirtutum": 6388,
      "por": 6389,
      "Ġmirum": 6390,
      "Ġimagines": 6391,
      "Ġtulit": 6392,
      "ĠTertio": 6393,
      "Ġmaiorem": 6394,
      "cius": 6395,
      "Ġvag": 6396,
      "25": 6397,
      "ĠSagittis": 6398,
      "ĠPulvinar": 6399,
      "Ġimperator": 6400,
      "here": 6401,
      "Ġmedicam": 6402,
      "IT": 6403,
      "Ġimputo": 6404,
      "Ġintro": 6405,
      "ĠRomano": 6406,
      "Ġsedes": 6407,
      "Ġelectron": 6408,
      "ĠAprilis": 6409,
      "Ġnulli": 6410,
      "mat": 6411,
      "elmus": 6412,
      "Ġtet": 6413,
      "min": 6414,
      "Ġglorios": 6415,
      "Ġaliae": 6416,
      "Ġsponte": 6417,
      "Ġreligionis": 6418,
      "Ġopes": 6419,
      "Ġpostr": 6420,
      "ĠExc": 6421,
      "ĠPostquam": 6422,
      "itibus": 6423,
      "Ġambul": 6424,
      "Ġconspectu": 6425,
      "Ġhumanae": 6426,
      "ĠConc": 6427,
      "Ġindiv": 6428,
      "Ġreges": 6429,
      "tamen": 6430,
      "antiae": 6431,
      "Ġarea": 6432,
      "uers": 6433,
      "entos": 6434,
      "Ġdebes": 6435,
      "Ġperfecta": 6436,
      "Ġtalem": 6437,
      "Ġnecnon": 6438,
      "Ġaeris": 6439,
      "Ġabd": 6440,
      "idel": 6441,
      "Ġinterim": 6442,
      "ĠPic": 6443,
      "Ġpoll": 6444,
      "Ġmagnitudine": 6445,
      "ĠAbico": 6446,
      "Ġgratiae": 6447,
      "Ġinterretialis": 6448,
      "ille": 6449,
      "Ġpe": 6450,
      "annem": 6451,
      "ĠUlpi": 6452,
      "Ġaffectus": 6453,
      "Ġutraque": 6454,
      "Ġresid": 6455,
      "Ġnempe": 6456,
      "ware": 6457,
      "Ġexcel": 6458,
      "Ġhaero": 6459,
      "ĠOs": 6460,
      "Ġunitatibus": 6461,
      "isso": 6462,
      "Ġvidemus": 6463,
      "Ġcarnem": 6464,
      "idibus": 6465,
      "Ġutriusque": 6466,
      "ws": 6467,
      "asi": 6468,
      "Ġpotestas": 6469,
      "Ġcertum": 6470,
      "Ġmedit": 6471,
      "Ġfat": 6472,
      "ĠOpti": 6473,
      "Ġquoad": 6474,
      "auit": 6475,
      "Ġdefens": 6476,
      "Ġfen": 6477,
      "Ġprovoc": 6478,
      "imenta": 6479,
      "Ġconse": 6480,
      "Ġdiversa": 6481,
      "Ġtempt": 6482,
      "Ġprofession": 6483,
      "igr": 6484,
      "ĠSyn": 6485,
      "Ġimago": 6486,
      "Ġduodecim": 6487,
      "Ġlocutus": 6488,
      "ĠRoma": 6489,
      "Ġdocet": 6490,
      "ĠKal": 6491,
      "aniae": 6492,
      "ĠSh": 6493,
      "Ġstatus": 6494,
      "Ġpueri": 6495,
      "ĠTo": 6496,
      "Ġip": 6497,
      "irent": 6498,
      "Ġurbes": 6499,
      "Ġincer": 6500,
      "Ġcongru": 6501,
      "Ġduabus": 6502,
      "Ġpris": 6503,
      "ecus": 6504,
      "ĠSign": 6505,
      "Ġhistor": 6506,
      "ko": 6507,
      "ĠQuar": 6508,
      "Ġcerto": 6509,
      "ĠFranciae": 6510,
      "Ġrecipi": 6511,
      "Ġregionibus": 6512,
      "ueris": 6513,
      "dom": 6514,
      "Ġultima": 6515,
      "ĠLond": 6516,
      "Ġstatum": 6517,
      "ĠAnt": 6518,
      "Ġpraesens": 6519,
      "Ġrecord": 6520,
      "Ġinterv": 6521,
      "Ġamo": 6522,
      "Ġsurg": 6523,
      "Ġsanguinem": 6524,
      "edem": 6525,
      "Ġimposs": 6526,
      "ĠUlpianus": 6527,
      "Ġamorem": 6528,
      "Ġinstall": 6529,
      "let": 6530,
      "ĠEpist": 6531,
      "Ġcontinet": 6532,
      "Ġfals": 6533,
      "Ġdolus": 6534,
      "aron": 6535,
      "ĠMos": 6536,
      "aeus": 6537,
      "Ġcommut": 6538,
      "Ġtales": 6539,
      "ĠCont": 6540,
      "Ġreddere": 6541,
      "overs": 6542,
      "Ġbrevis": 6543,
      "Ġdigit": 6544,
      "entiarum": 6545,
      "quae": 6546,
      "Ġnotam": 6547,
      "Ġgilvus": 6548,
      "Ġcaro": 6549,
      "eiun": 6550,
      "ittitur": 6551,
      "vas": 6552,
      "Ġponere": 6553,
      "ĠPotest": 6554,
      "ĠEo": 6555,
      "erata": 6556,
      "ĠItalia": 6557,
      "Ġmatris": 6558,
      "Ġcry": 6559,
      "Ġstir": 6560,
      "Ġquandoque": 6561,
      "ĠNicola": 6562,
      "ĠMulti": 6563,
      "ĠForm": 6564,
      "Ġcarne": 6565,
      "ĠTorqu": 6566,
      "Ġassign": 6567,
      "Ġsubm": 6568,
      "Ġtitulo": 6569,
      "aculo": 6570,
      "Ġcomes": 6571,
      "Ġsequuntur": 6572,
      "Ġconsumm": 6573,
      "ĠApud": 6574,
      "Ġsacerdos": 6575,
      "Ġveris": 6576,
      "Ġdignum": 6577,
      "ĠBonum": 6578,
      "ĠQuÃ¦": 6579,
      "ĠCamp": 6580,
      "anim": 6581,
      "Ġsaeculi": 6582,
      "ĠAf": 6583,
      "esis": 6584,
      "Ġro": 6585,
      "Ġamoris": 6586,
      "reen": 6587,
      "Ġdubio": 6588,
      "ĠHon": 6589,
      "Ġpauci": 6590,
      "Ġdecern": 6591,
      "ĠTab": 6592,
      "itte": 6593,
      "Ġmatur": 6594,
      "Ġfratrem": 6595,
      "Ġhoras": 6596,
      "Ġcives": 6597,
      "Ġfluv": 6598,
      "ĠQue": 6599,
      "ĠAmb": 6600,
      "uriam": 6601,
      "Ġpretio": 6602,
      "ĠAsteroides": 6603,
      "Ġdebere": 6604,
      "Ġdioeces": 6605,
      "ode": 6606,
      "idera": 6607,
      "ĠCongreg": 6608,
      "erusalem": 6609,
      "nos": 6610,
      "Ġfrui": 6611,
      "Ġignem": 6612,
      "Ġincred": 6613,
      "Ġillas": 6614,
      "Ġarchiepiscop": 6615,
      "):": 6616,
      "eros": 6617,
      "ilibet": 6618,
      "áĨ": 6619,
      "Ġsord": 6620,
      "ĠHÃ¦c": 6621,
      "init": 6622,
      "Ġdictus": 6623,
      "ical": 6624,
      "Ġdiut": 6625,
      "abimus": 6626,
      "Ġvocat": 6627,
      "ulares": 6628,
      "port": 6629,
      "Ġimperii": 6630,
      "ĠVita": 6631,
      "ĠUltricies": 6632,
      "Ġuber": 6633,
      "Ġnovus": 6634,
      "ĠAbrah": 6635,
      "ibern": 6636,
      "Ġtrem": 6637,
      "Ġinitium": 6638,
      "Ġreci": 6639,
      "Ġfecerunt": 6640,
      "Ġpervenit": 6641,
      "Ġcupi": 6642,
      "ĠUnum": 6643,
      "Ġpartis": 6644,
      "ĠAngel": 6645,
      "ĠGalli": 6646,
      "ah": 6647,
      "Ġduae": 6648,
      "Ġcarn": 6649,
      "Ġsystematis": 6650,
      "Ġexemplar": 6651,
      "Ġstup": 6652,
      "bantur": 6653,
      "ficere": 6654,
      "Ġessentia": 6655,
      "Ġvoluntatis": 6656,
      "Ġlos": 6657,
      "Ġexputo": 6658,
      "Ġiact": 6659,
      "Ġaurum": 6660,
      "Ġponitur": 6661,
      "ĠIota": 6662,
      "Ġhujusmodi": 6663,
      "Ġalibi": 6664,
      "Ġampli": 6665,
      "Ali": 6666,
      "Ġcustodi": 6667,
      "tioni": 6668,
      "Ġphys": 6669,
      "Ġcontemn": 6670,
      "eremus": 6671,
      "Ġnet": 6672,
      "ĠâĢ¢": 6673,
      "Ġmenses": 6674,
      "acc": 6675,
      "Ġcarmina": 6676,
      "ĠDatum": 6677,
      "Ġservus": 6678,
      "ĠVerbum": 6679,
      "arias": 6680,
      "Ġimmort": 6681,
      "ĠCaec": 6682,
      "Ġforn": 6683,
      "Ġtub": 6684,
      "ĠVidetur": 6685,
      "item": 6686,
      "atorium": 6687,
      "Ġvellet": 6688,
      "Ġlitterarum": 6689,
      "Ġagitur": 6690,
      "Ġseg": 6691,
      "Ġutil": 6692,
      "psum": 6693,
      "vert": 6694,
      "Ġapplicationem": 6695,
      "Ġdistingu": 6696,
      "Ġostent": 6697,
      "ĠRomanis": 6698,
      "Ġfata": 6699,
      "Ġquatenus": 6700,
      "egit": 6701,
      "ĠEuropa": 6702,
      "uen": 6703,
      "cha": 6704,
      "ocin": 6705,
      "mas": 6706,
      "ĠEtenim": 6707,
      "Ġinj": 6708,
      "urrit": 6709,
      "ĠBibendum": 6710,
      "uros": 6711,
      "tinet": 6712,
      "Ġlen": 6713,
      "Ġintelligere": 6714,
      "Ġpup": 6715,
      "tric": 6716,
      "Ġhil": 6717,
      "lica": 6718,
      "timus": 6719,
      "eperunt": 6720,
      "ĠPel": 6721,
      "allum": 6722,
      "imos": 6723,
      "turb": 6724,
      "ĠMis": 6725,
      "Ġfugi": 6726,
      "Ġconfus": 6727,
      "ks": 6728,
      "cium": 6729,
      "ĠMariae": 6730,
      "Ġamici": 6731,
      "ĠFoeder": 6732,
      "Ġhaeret": 6733,
      "Ġactiones": 6734,
      "ĠFermentum": 6735,
      "Ġincludit": 6736,
      "Ġlevis": 6737,
      "ĠUna": 6738,
      "Ġsym": 6739,
      "ĠIntern": 6740,
      "Ġcapitis": 6741,
      "ĠMedi": 6742,
      "Ġpublice": 6743,
      "Ġpraestare": 6744,
      "Ġgel": 6745,
      "Ġiustitia": 6746,
      "Ġmundus": 6747,
      "ĠApostolus": 6748,
      "ason": 6749,
      "Ġperg": 6750,
      "IN": 6751,
      "ullius": 6752,
      "ĠSollic": 6753,
      "ĠNonne": 6754,
      "ĠEpiscopi": 6755,
      "Ġcup": 6756,
      "ibili": 6757,
      "ĠEadem": 6758,
      "Ġhabitu": 6759,
      "Ġorigin": 6760,
      "Ġutitur": 6761,
      "Ġistius": 6762,
      "ĠLudov": 6763,
      "ĠOctobris": 6764,
      "|.": 6765,
      "ĠSapien": 6766,
      "ectiones": 6767,
      "Ġdeinceps": 6768,
      "Ġcale": 6769,
      "odiern": 6770,
      "Ġregna": 6771,
      "Part": 6772,
      "Ġvarias": 6773,
      "ãĤĻ": 6774,
      "ĠPas": 6775,
      "Ġsemp": 6776,
      "Ġaltero": 6777,
      "Ġcaecus": 6778,
      "ĠHerc": 6779,
      "Ġverborum": 6780,
      "Ġspatio": 6781,
      "ĠIacob": 6782,
      "Ġsapientiae": 6783,
      "ĠPrincipalis": 6784,
      "Ġdonum": 6785,
      "Ġexperientia": 6786,
      "avis": 6787,
      "Ġveritate": 6788,
      "Ġioc": 6789,
      "ĠCausa": 6790,
      "ĠFelis": 6791,
      "ripsit": 6792,
      "ĠFor": 6793,
      "ĠPlacerat": 6794,
      "illam": 6795,
      "estia": 6796,
      "ĠAmericae": 6797,
      "Ġagens": 6798,
      "ĠAbluo": 6799,
      "ĠFoederat": 6800,
      "Ġtenere": 6801,
      "Ġpromov": 6802,
      "Ġintellectum": 6803,
      "icere": 6804,
      "atii": 6805,
      "Ġcamp": 6806,
      "Ġinvenitur": 6807,
      "ĠLobortis": 6808,
      "Ġfalsa": 6809,
      "ularibus": 6810,
      "Ġdeorum": 6811,
      "Ġlatus": 6812,
      "Ġwebsite": 6813,
      "elius": 6814,
      "Ġmaius": 6815,
      "udum": 6816,
      "risto": 6817,
      "ĠAbigo": 6818,
      "Ġedic": 6819,
      "ptentrion": 6820,
      "Ġturp": 6821,
      "Ġpsal": 6822,
      "Ġpeculi": 6823,
      "Ġcreare": 6824,
      "vol": 6825,
      "Ġdigna": 6826,
      "Ġqualitas": 6827,
      "Ġnata": 6828,
      "Ġperspic": 6829,
      "ĠCerte": 6830,
      "inop": 6831,
      "Ġ194": 6832,
      "Ġmutare": 6833,
      "Ġcerv": 6834,
      "Ġamicis": 6835,
      "Ġinnum": 6836,
      "Ġincr": 6837,
      "ĠLatin": 6838,
      "ĠPauli": 6839,
      "Ġunquam": 6840,
      "vet": 6841,
      "Ġtard": 6842,
      "Ġfum": 6843,
      "Ġessenti": 6844,
      "ĠSeptembris": 6845,
      "23": 6846,
      "Ġproductio": 6847,
      "Ġlegitur": 6848,
      "70": 6849,
      "Ġelev": 6850,
      "Ġlumine": 6851,
      "ĠFilium": 6852,
      "Ġdiap": 6853,
      "edia": 6854,
      "Ġpun": 6855,
      "Ġnostrorum": 6856,
      "Ġdevo": 6857,
      "ĠCast": 6858,
      "Ġcorrig": 6859,
      "Ġpersonae": 6860,
      "ĠMarc": 6861,
      "Ġcontingit": 6862,
      "Ġempt": 6863,
      "Ġbi": 6864,
      "Ġcredere": 6865,
      "ĠAndre": 6866,
      "Ġconci": 6867,
      "Ġ23": 6868,
      "Ġlun": 6869,
      "Ġvoces": 6870,
      "ostolorum": 6871,
      "Ġii": 6872,
      "ĠOrnare": 6873,
      "Ġieiun": 6874,
      "erae": 6875,
      "Ġfix": 6876,
      "ĠGener": 6877,
      "Ġfacie": 6878,
      "Ġlibertatem": 6879,
      "Ġcognoscere": 6880,
      "--": 6881,
      "ĠDon": 6882,
      "ative": 6883,
      "nas": 6884,
      "Ġajans": 6885,
      "Ġuen": 6886,
      "Ġantec": 6887,
      "Ġlibrum": 6888,
      "Ġsinc": 6889,
      "Parturient": 6890,
      "hat": 6891,
      "Ġtotus": 6892,
      "ey": 6893,
      "ĠSancto": 6894,
      "Ġvestigia": 6895,
      "Ġauxilio": 6896,
      "Ġconviv": 6897,
      "ĠPen": 6898,
      "ĠSatur": 6899,
      "Ġprivileg": 6900,
      "utae": 6901,
      "issimos": 6902,
      "Ġplum": 6903,
      "Ġfamiliae": 6904,
      "Ġperag": 6905,
      "ĠAtt": 6906,
      "Ġinsuper": 6907,
      "alitatem": 6908,
      "ĠMulta": 6909,
      "Ġdul": 6910,
      "odum": 6911,
      "Ġgravi": 6912,
      "Ġtheolog": 6913,
      "erium": 6914,
      "idas": 6915,
      "Ġbeatum": 6916,
      "Ġdest": 6917,
      "endens": 6918,
      "urb": 6919,
      "ĠMCM": 6920,
      "fa": 6921,
      "ĠGa": 6922,
      "Ġty": 6923,
      "ĠCongue": 6924,
      "Ġtranse": 6925,
      "ÌĬ": 6926,
      "Ġpraeced": 6927,
      "Î¼": 6928,
      "Ġinfl": 6929,
      "ĠNostra": 6930,
      "Ġaures": 6931,
      "Ġobedi": 6932,
      "ĠCinguli": 6933,
      "Ġpassim": 6934,
      "Ġutilitatem": 6935,
      "ary": 6936,
      "atica": 6937,
      "Ġfalsum": 6938,
      "Ġsapiens": 6939,
      "Ġulter": 6940,
      "Ġcontinuo": 6941,
      "Ġillumin": 6942,
      "Ġcontrovers": 6943,
      "Ġministerium": 6944,
      "Ġputas": 6945,
      "ĠQuantum": 6946,
      "Ġcontum": 6947,
      "ectam": 6948,
      "ĠIu": 6949,
      "ĠLitter": 6950,
      "Ġrespectu": 6951,
      "ket": 6952,
      "issem": 6953,
      "Ø§": 6954,
      "Ġdeclin": 6955,
      "aequ": 6956,
      "Ġmora": 6957,
      "Ġcircuit": 6958,
      "Ġram": 6959,
      "Ġiun": 6960,
      "Ġrepraesent": 6961,
      "ĠRomanus": 6962,
      "ĠImperdiet": 6963,
      "Ġimpress": 6964,
      "Ġscientiam": 6965,
      "Ġludere": 6966,
      "ĠMD": 6967,
      "amine": 6968,
      "ĠPorttitor": 6969,
      "Ġvan": 6970,
      "opt": 6971,
      "Ġtenebris": 6972,
      "ĠGer": 6973,
      "Ġdispens": 6974,
      "ĠIesus": 6975,
      "Ġlibid": 6976,
      "Ġquarta": 6977,
      "Non": 6978,
      "Ġpatres": 6979,
      "ĠAppell": 6980,
      "ĠLaoreet": 6981,
      "Ġdifferentia": 6982,
      "Ġquoddam": 6983,
      "mon": 6984,
      "Ġdifficile": 6985,
      "Ġfati": 6986,
      "ĠSar": 6987,
      "ĠMartii": 6988,
      "ĠSimiliter": 6989,
      "olibet": 6990,
      "acis": 6991,
      "abuntur": 6992,
      "Ġpraepos": 6993,
      "Ġmonte": 6994,
      "rent": 6995,
      "ĠRhoncus": 6996,
      "Ġserp": 6997,
      "ĠAbb": 6998,
      "Ġexim": 6999,
      "eci": 7000,
      "Ġpraesum": 7001,
      "crib": 7002,
      "Ġconstituit": 7003,
      "Ġapprob": 7004,
      "ating": 7005,
      "sp": 7006,
      "Ġfinit": 7007,
      "ĠHodie": 7008,
      "ĠAcsi": 7009,
      "amb": 7010,
      "Ġforet": 7011,
      "utionem": 7012,
      "ĠOnline": 7013,
      "ĠPatre": 7014,
      "Ġposita": 7015,
      "usta": 7016,
      "Ġperitus": 7017,
      "Ġappellatur": 7018,
      "Ġeligo": 7019,
      "Ġproprio": 7020,
      "uls": 7021,
      "ÍĤ": 7022,
      "edes": 7023,
      "80": 7024,
      "ĠVarius": 7025,
      "Ġalteri": 7026,
      "Ġabstin": 7027,
      "ymph": 7028,
      "Ġcorr": 7029,
      "ĠQuamvis": 7030,
      "ĠAx": 7031,
      "Ġ196": 7032,
      "Ġitinere": 7033,
      "Ġoccident": 7034,
      "ĠEcclesiÃ¦": 7035,
      "enos": 7036,
      "à¤": 7037,
      "Ġsimilitudinem": 7038,
      "ĠCivit": 7039,
      "eratus": 7040,
      "umni": 7041,
      "ĠCicer": 7042,
      "Ġhiem": 7043,
      "Ġinsula": 7044,
      "Ġpaene": 7045,
      "Ġmultas": 7046,
      "Ġperfectum": 7047,
      "ordin": 7048,
      "Ġstudiis": 7049,
      "Ġdicatur": 7050,
      "Ġauctoritatem": 7051,
      "Ġvidi": 7052,
      "Ġlongius": 7053,
      "Ġhosti": 7054,
      "Ġmatrem": 7055,
      "Ġtribu": 7056,
      "Ġhyp": 7057,
      "Ġpositum": 7058,
      "Ġtriginta": 7059,
      "Ġpign": 7060,
      "Ġcuique": 7061,
      "Ġcastris": 7062,
      "Ġistam": 7063,
      "pisco": 7064,
      "estium": 7065,
      "ĠDecembris": 7066,
      "Ġindulg": 7067,
      "Ġfaceret": 7068,
      "entiÃ¦": 7069,
      "Ġaccidens": 7070,
      "Ġvices": 7071,
      "Ġconsequi": 7072,
      "Ġrequis": 7073,
      "Ġconson": 7074,
      "Ġuic": 7075,
      "ĠSanctorum": 7076,
      "AS": 7077,
      "Ġflumen": 7078,
      "Ġ2012": 7079,
      "Ġflex": 7080,
      "Ġgrand": 7081,
      "Ġuni": 7082,
      "Ġmeos": 7083,
      "Ġpeccatorum": 7084,
      "Ġduxit": 7085,
      "ĠPatrem": 7086,
      "Ġpotentiam": 7087,
      "ogit": 7088,
      "Ġprovis": 7089,
      "Ġproblem": 7090,
      "ĠFilii": 7091,
      "ĠAegypti": 7092,
      "ĠMicha": 7093,
      "Ġpulchr": 7094,
      "Ġmanere": 7095,
      "Ġservit": 7096,
      "Ġcy": 7097,
      "Ġlinguam": 7098,
      "Ġquaeritur": 7099,
      "Ġverbi": 7100,
      "urabitur": 7101,
      "Ġfructum": 7102,
      "Ġsacerdo": 7103,
      "Ġquosdam": 7104,
      "Ġartem": 7105,
      "ĠCirca": 7106,
      "Ġcanc": 7107,
      "eda": 7108,
      "ĠJam": 7109,
      "ĠPosuere": 7110,
      "Ġuniversa": 7111,
      "Ġadulter": 7112,
      "entissime": 7113,
      "ĠMox": 7114,
      "empt": 7115,
      "Ġpatitur": 7116,
      "icÃ¦": 7117,
      "alla": 7118,
      "Ġvinum": 7119,
      "ĠCaesaris": 7120,
      "Ġepiscopo": 7121,
      "Ġingenio": 7122,
      "Ġ22": 7123,
      "Ġullo": 7124,
      "ĠLy": 7125,
      "Ġbal": 7126,
      "Ġdownload": 7127,
      "otos": 7128,
      "Ġplacuit": 7129,
      "Ġingenium": 7130,
      "Ġdisciplina": 7131,
      "Ġseque": 7132,
      "aco": 7133,
      "Ġdistineo": 7134,
      "Ġcogitationes": 7135,
      "app": 7136,
      "Ġaddere": 7137,
      "Ġreliquit": 7138,
      "ĠSyr": 7139,
      "ĠNovi": 7140,
      "Ġmanifestum": 7141,
      "ĠCass": 7142,
      "Ġium": 7143,
      "ĠVenenatis": 7144,
      "achi": 7145,
      "ĠMaii": 7146,
      "Ġlatere": 7147,
      "Ġlucis": 7148,
      "ĠNil": 7149,
      "Ġvitium": 7150,
      "amenti": 7151,
      "Ġhumani": 7152,
      "ĠMen": 7153,
      "Ġfru": 7154,
      "Ġterrestr": 7155,
      "Ġcell": 7156,
      "ardo": 7157,
      "onius": 7158,
      "Ġmanduc": 7159,
      "Ġ100": 7160,
      "Ġcivitates": 7161,
      "Ġremiss": 7162,
      "acus": 7163,
      "igit": 7164,
      "ĠAliter": 7165,
      "ĠDE": 7166,
      "klam": 7167,
      "Ġnotum": 7168,
      "Ġvides": 7169,
      "erique": 7170,
      "ĠAll": 7171,
      "Ġinm": 7172,
      "Ġgerm": 7173,
      "arÄ±": 7174,
      "ingit": 7175,
      "Ġliberos": 7176,
      "ages": 7177,
      "Ġvolupta": 7178,
      "ineat": 7179,
      "Ġlongum": 7180,
      "Ġsaecula": 7181,
      "Ġvias": 7182,
      "ester": 7183,
      "Ġpax": 7184,
      "ĠConvallis": 7185,
      "idens": 7186,
      "Ġtimore": 7187,
      "Ġfrum": 7188,
      "Ġhodiern": 7189,
      "Ġmeridi": 7190,
      "Ġapparatus": 7191,
      "ĠGallia": 7192,
      "Ġscribit": 7193,
      "Ġferv": 7194,
      "Ġosc": 7195,
      "Ġpetit": 7196,
      "Ġaccidit": 7197,
      "Ġincho": 7198,
      "Ġsingulos": 7199,
      "Ġbeneficia": 7200,
      "Ġprecibus": 7201,
      "abam": 7202,
      "apro": 7203,
      "Ġfaciens": 7204,
      "Ġsepulc": 7205,
      "Ġpectus": 7206,
      "idie": 7207,
      "ĠRatio": 7208,
      "Ġcoetus": 7209,
      "ĠMach": 7210,
      "xx": 7211,
      "Ġcin": 7212,
      "ĠUs": 7213,
      "Ġdefici": 7214,
      "Ġmarg": 7215,
      "Ġsanguinis": 7216,
      "Ġforis": 7217,
      "erii": 7218,
      "rarum": 7219,
      "tura": 7220,
      "Ġfieret": 7221,
      "Ġquarto": 7222,
      "Ġnutr": 7223,
      "ĠIap": 7224,
      "Ġcomis": 7225,
      "ectae": 7226,
      "Ġauxili": 7227,
      "ĠVi": 7228,
      "Ġaltum": 7229,
      "Ġaeternum": 7230,
      "Ġcursu": 7231,
      "ĠDemocr": 7232,
      "Ġmisc": 7233,
      "ĠPorta": 7234,
      ",,": 7235,
      "ency": 7236,
      "runt": 7237,
      "Ġpotentiae": 7238,
      "ĠBaptis": 7239,
      "Ġmatrimonium": 7240,
      "Ġiubet": 7241,
      "ĠAdam": 7242,
      "ja": 7243,
      "Ġprosper": 7244,
      "cas": 7245,
      "kara": 7246,
      "ĠRober": 7247,
      "illis": 7248,
      "iva": 7249,
      "ĠCarth": 7250,
      "Ġmeritis": 7251,
      "ubi": 7252,
      "Ġ50": 7253,
      "enditur": 7254,
      "Ġliquid": 7255,
      "Ġprovidere": 7256,
      "Ġeventus": 7257,
      "Ġmartyr": 7258,
      "Ġquaec": 7259,
      "Ġingredi": 7260,
      "Ġcrudel": 7261,
      "Ġnostras": 7262,
      "Ġprincipia": 7263,
      "illus": 7264,
      "Ġregio": 7265,
      "ĠProt": 7266,
      "Ġqualitatem": 7267,
      "Ġ195": 7268,
      "Ġrecogn": 7269,
      "Ġmillia": 7270,
      "venire": 7271,
      "ĠBa": 7272,
      "ĠSociet": 7273,
      "Ġobj": 7274,
      "Ġsuprem": 7275,
      "fe": 7276,
      "Ġactionem": 7277,
      "Ġpariet": 7278,
      "Ġauri": 7279,
      "ĠCn": 7280,
      "ĠAv": 7281,
      "piscopis": 7282,
      "ĠMoys": 7283,
      "Ġimmin": 7284,
      "Ġfelix": 7285,
      "Ġlup": 7286,
      "Ġdirecte": 7287,
      "Ġlacrim": 7288,
      "Ġassid": 7289,
      "lim": 7290,
      "Ġpatern": 7291,
      "Ġhostem": 7292,
      "Ġsiue": 7293,
      "Ġsceler": 7294,
      "Ġsumptus": 7295,
      "Ġsummam": 7296,
      "Ġtabula": 7297,
      "ĠAtqui": 7298,
      "Ġilluc": 7299,
      "ĠsÃ¦": 7300,
      "eus": 7301,
      "Ġoffert": 7302,
      "estatem": 7303,
      "Ġdaem": 7304,
      "Ġtorm": 7305,
      "Ġtransfer": 7306,
      "alam": 7307,
      "Ġvestim": 7308,
      "Ġferi": 7309,
      "dae": 7310,
      "quaquam": 7311,
      "etam": 7312,
      "Ġoptima": 7313,
      "ĠMetus": 7314,
      "Ġfib": 7315,
      "Ġiunc": 7316,
      "ĠPetro": 7317,
      "zi": 7318,
      "Ġhumilis": 7319,
      "Ġincrementum": 7320,
      "ÑĢ": 7321,
      "erque": 7322,
      "Ġofferre": 7323,
      "ĠProvincia": 7324,
      "ĠCivitatum": 7325,
      "arit": 7326,
      "ciam": 7327,
      "Ġgentis": 7328,
      "Ġregum": 7329,
      "Ġmonasterio": 7330,
      "Ġincom": 7331,
      "Ġaufer": 7332,
      "ĠNa": 7333,
      "amma": 7334,
      "inius": 7335,
      "ational": 7336,
      "hen": 7337,
      "aculis": 7338,
      "Ġdubium": 7339,
      "Ġintu": 7340,
      "ents": 7341,
      "Ġscand": 7342,
      "Ġars": 7343,
      "atque": 7344,
      "itudines": 7345,
      "Ġ21": 7346,
      "mae": 7347,
      "Ġperturb": 7348,
      "ĠTa": 7349,
      "Ġduplex": 7350,
      "Ġlatr": 7351,
      "Ġvirgo": 7352,
      "ĠOst": 7353,
      "ĠPagina": 7354,
      "Ġacies": 7355,
      "ĠSinis": 7356,
      "Ġvale": 7357,
      "ĠIulii": 7358,
      "Ġhae": 7359,
      "trah": 7360,
      "Ġmajor": 7361,
      "Ġ28": 7362,
      "ĠSacerd": 7363,
      "Ġcalefac": 7364,
      "90": 7365,
      "tenus": 7366,
      "ĠColleg": 7367,
      "Ġhabitum": 7368,
      "Ġ26": 7369,
      "Ġvideb": 7370,
      "actis": 7371,
      "Ġfiliam": 7372,
      "apropter": 7373,
      "Ġgenti": 7374,
      "Ġhym": 7375,
      "ĠSo": 7376,
      "Ġhostis": 7377,
      "Ġplene": 7378,
      "ĠPetrum": 7379,
      "Ġsursum": 7380,
      "Ġconsensu": 7381,
      "ittunt": 7382,
      "Ġpastor": 7383,
      "Ġcommerci": 7384,
      "Ġcapita": 7385,
      "Ġferrum": 7386,
      "Ġetiamsi": 7387,
      "Ġnaturaliter": 7388,
      "ĠMolestie": 7389,
      "EM": 7390,
      "ierunt": 7391,
      "Ġdari": 7392,
      "ĠAfrica": 7393,
      "Ġfratris": 7394,
      "Ġimport": 7395,
      "ĠFortun": 7396,
      "Ġvirtutibus": 7397,
      "ĠAnim": 7398,
      "ange": 7399,
      "phem": 7400,
      "ÑĤ": 7401,
      "Ġinvenit": 7402,
      "tiae": 7403,
      "fus": 7404,
      "Ġpropriis": 7405,
      "Ġadesse": 7406,
      "Ġsacramentum": 7407,
      "ĠScip": 7408,
      "ĠLoc": 7409,
      "ĠLuci": 7410,
      "Ġsuperst": 7411,
      "Ġhumili": 7412,
      "upat": 7413,
      "hum": 7414,
      "Ġpeccatis": 7415,
      "'s": 7416,
      "Ġproph": 7417,
      "Ġlibenter": 7418,
      "Ġterre": 7419,
      "Îº": 7420,
      "ĠsuÃ¦": 7421,
      "erebat": 7422,
      "Ġsitu": 7423,
      "Ġpartum": 7424,
      "ibilia": 7425,
      "Ġreliquis": 7426,
      "Ġconventio": 7427,
      "ĠSan": 7428,
      "Ġconiun": 7429,
      "ĠTit": 7430,
      "rium": 7431,
      "ĠAet": 7432,
      "ĠRomanum": 7433,
      "ĠScilicet": 7434,
      "ĠNovembris": 7435,
      "Â°": 7436,
      "Ġdefui": 7437,
      "ficit": 7438,
      "ĠMaced": 7439,
      "Ġfuerant": 7440,
      "Ġprobat": 7441,
      "Ġinstituta": 7442,
      "Ġcapto": 7443,
      "ĠEbor": 7444,
      "Ġvidebatur": 7445,
      "Ġpraeses": 7446,
      "ivamus": 7447,
      "Ġmisericordia": 7448,
      "Ġsocietatis": 7449,
      "Ġquaestiones": 7450,
      "Ġterminus": 7451,
      "Ġlumina": 7452,
      "Ġecc": 7453,
      "ĠMut": 7454,
      "Ġhttp": 7455,
      "Ġax": 7456,
      "Ġpotens": 7457,
      "Ġ27": 7458,
      "Ġpoterant": 7459,
      "Cum": 7460,
      "Ġveloc": 7461,
      "ĠPress": 7462,
      "Ġgratis": 7463,
      "Ġ193": 7464,
      "Ġanimis": 7465,
      "Ġsempiter": 7466,
      "ĠReli": 7467,
      "Ġdolo": 7468,
      "Ġdoctrinam": 7469,
      "ĠVit": 7470,
      "allo": 7471,
      "Ġcolloqu": 7472,
      "Ġapparatu": 7473,
      "Ġemin": 7474,
      "Ġmiles": 7475,
      "Ġdabit": 7476,
      "Ġgentibus": 7477,
      "ĠPaulo": 7478,
      "ĠSalv": 7479,
      "Ġpietatis": 7480,
      "Ġdierum": 7481,
      "Ġcitius": 7482,
      "à¶": 7483,
      "ĠConstantinop": 7484,
      "inii": 7485,
      "Ġpari": 7486,
      "Ġsedem": 7487,
      "Ġadha": 7488,
      "ĠProm": 7489,
      "ĠNob": 7490,
      "Ġfaciet": 7491,
      "put": 7492,
      "ochi": 7493,
      "Ġcondita": 7494,
      "Ġcontradic": 7495,
      "Ġdebitum": 7496,
      "Ġnobil": 7497,
      "Ġabscond": 7498,
      "ĠWill": 7499,
      "Nam": 7500,
      "Ġscribere": 7501,
      "ĠIsa": 7502,
      "ĠUti": 7503,
      "ules": 7504,
      "gress": 7505,
      "Ġtoler": 7506,
      "24": 7507,
      "cepit": 7508,
      "Ġjure": 7509,
      "ĠHann": 7510,
      "28": 7511,
      "Ġsocialis": 7512,
      "Ġphilosophus": 7513,
      "ĠXI": 7514,
      "Ġthesa": 7515,
      "Ġcontinu": 7516,
      "ĠDion": 7517,
      "Ġambig": 7518,
      "Ġparentes": 7519,
      "eterna": 7520,
      "ĠJacob": 7521,
      "eperit": 7522,
      "Ġlav": 7523,
      "ĠAntioch": 7524,
      "Ġincolum": 7525,
      ".).": 7526,
      "Ġsanctis": 7527,
      "CT": 7528,
      "ĠNamque": 7529,
      "ĠOrdin": 7530,
      "Ġpublicam": 7531,
      "ĠCondimentum": 7532,
      "ulata": 7533,
      "Ġcapere": 7534,
      "Ġvirorum": 7535,
      "Ġpraev": 7536,
      "Ġcentrum": 7537,
      "Ġfecerit": 7538,
      "ava": 7539,
      "ĠSici": 7540,
      "Ġoris": 7541,
      "ĠOce": 7542,
      "Ġdisper": 7543,
      "ead": 7544,
      "hel": 7545,
      "Ġduorum": 7546,
      "rys": 7547,
      "Ġobsid": 7548,
      "uriae": 7549,
      "Ġumbra": 7550,
      "Ġretro": 7551,
      "Ġcorda": 7552,
      "Ġvesper": 7553,
      "ĠMollis": 7554,
      "Ġpraecl": 7555,
      "Ġautom": 7556,
      "Ġintelligi": 7557,
      "Ġsanctific": 7558,
      "Ġnecessario": 7559,
      "Ġfacili": 7560,
      "Ġdomine": 7561,
      "anguis": 7562,
      "Ġduces": 7563,
      "Ġge": 7564,
      "ĠHendrerit": 7565,
      "undam": 7566,
      "Ġimmo": 7567,
      "Ġformas": 7568,
      "antas": 7569,
      "ĠAgn": 7570,
      "Ġmonasterium": 7571,
      "Ġquandam": 7572,
      "Ġverius": 7573,
      "ĠFringilla": 7574,
      "Ġnuc": 7575,
      "itti": 7576,
      "ĠFirm": 7577,
      "nox": 7578,
      "Ġpecuniae": 7579,
      "olas": 7580,
      "Ġadsc": 7581,
      "Ġvelis": 7582,
      "Ġsacerdotes": 7583,
      "Ġdextra": 7584,
      "ĠÃ¦qu": 7585,
      "Ġvota": 7586,
      "Ġdedic": 7587,
      "Ġinvis": 7588,
      "Ġcontrarium": 7589,
      "Ġactione": 7590,
      "Ġfrug": 7591,
      "Ġconstr": 7592,
      "ĠLatina": 7593,
      "Ġbenefici": 7594,
      "Ġcircumd": 7595,
      "ĠCeterum": 7596,
      "Ġvivit": 7597,
      "Ġingeni": 7598,
      "ts": 7599,
      "Ġpugna": 7600,
      "acium": 7601,
      "Ġfrang": 7602,
      "Ġquolibet": 7603,
      "Ġpalam": 7604,
      "Ġ40": 7605,
      "otem": 7606,
      "ece": 7607,
      "Ġferm": 7608,
      "Ġadven": 7609,
      "ĠDisc": 7610,
      "Ġetur": 7611,
      "Ġimpossibile": 7612,
      "Ġinius": 7613,
      "RA": 7614,
      "Ġfiliorum": 7615,
      "ĠNem": 7616,
      "Ġliberi": 7617,
      "Ġhar": 7618,
      "ĠMarcus": 7619,
      "Ġneglig": 7620,
      "Ġrepar": 7621,
      "Ġvap": 7622,
      "ĠRhod": 7623,
      "Ġcommoda": 7624,
      "ĠÅ¿": 7625,
      "uitatem": 7626,
      "Ġsuppos": 7627,
      "Ġsubti": 7628,
      "Ġsignis": 7629,
      "ĠNomin": 7630,
      "Ġducem": 7631,
      "Ġpertinere": 7632,
      "rav": 7633,
      "Ġsca": 7634,
      "Ġmorbo": 7635,
      "ĠPhilosoph": 7636,
      "Ġplast": 7637,
      "yris": 7638,
      "ĠLin": 7639,
      "Ġdens": 7640,
      "Ġagro": 7641,
      "Ġpurp": 7642,
      "ĠCO": 7643,
      "Si": 7644,
      "Cond": 7645,
      "Ġreklam": 7646,
      "Ġaltare": 7647,
      "Ġacquir": 7648,
      "Ġrelin": 7649,
      "ĠHy": 7650,
      "ĠSive": 7651,
      "Ġexer": 7652,
      "Ġfactis": 7653,
      "Ġproximum": 7654,
      "ĠFebruarii": 7655,
      "Ġdefer": 7656,
      "rym": 7657,
      "Ġrevert": 7658,
      "Ġsubstantiam": 7659,
      "ĠClaud": 7660,
      "ĠTri": 7661,
      "idiis": 7662,
      "ĠSollicitudin": 7663,
      "Ġpropriam": 7664,
      "ĠhÃ¦": 7665,
      "hic": 7666,
      "Ġprimae": 7667,
      "Ġdisser": 7668,
      "ĠVig": 7669,
      "Ġinfam": 7670,
      "Ġpotissimum": 7671,
      "Ġcae": 7672,
      "Ġamicos": 7673,
      "Ġtrist": 7674,
      "Ġrecuper": 7675,
      "ĠUniversitatis": 7676,
      "Ġvast": 7677,
      "Ġpoenam": 7678,
      "ger": 7679,
      "Ġregiones": 7680,
      "aturus": 7681,
      "Ġprocedit": 7682,
      "Ġagric": 7683,
      "des": 7684,
      "Ġaffer": 7685,
      "ĠCasino": 7686,
      "ĠJesus": 7687,
      "Ph": 7688,
      "Ġsuscept": 7689,
      "ĠSodales": 7690,
      "Ġcognitionem": 7691,
      "Ġlongo": 7692,
      "Ġtun": 7693,
      "Ġpromiss": 7694,
      "Ġquaerit": 7695,
      "iab": 7696,
      "Ġdeg": 7697,
      "CCC": 7698,
      "ĠNostri": 7699,
      "Ġpassus": 7700,
      "work": 7701,
      "Ġscientiae": 7702,
      "ĠIaculis": 7703,
      "Ġsolaris": 7704,
      "Ġvictoria": 7705,
      "Ġsimilia": 7706,
      "cepti": 7707,
      "ĠLing": 7708,
      "Ð½": 7709,
      "Ġsalute": 7710,
      "Ġpreces": 7711,
      "alo": 7712,
      "Ġresponsum": 7713,
      "Ġeisdem": 7714,
      "Ġcanis": 7715,
      "Ġ2016": 7716,
      "ĠRomanae": 7717,
      "Ġperpetuo": 7718,
      "Ġdixisset": 7719,
      "ĠâĤ¬.": 7720,
      "Ġpersonam": 7721,
      "Ġproximo": 7722,
      "Ġnovis": 7723,
      "ej": 7724,
      "ĠPres": 7725,
      "ally": 7726,
      "inorum": 7727,
      "Ġeris": 7728,
      "ĠIX": 7729,
      "udit": 7730,
      "Ġnimirum": 7731,
      "ecc": 7732,
      "Ġrequiritur": 7733,
      "Ġjub": 7734,
      "fix": 7735,
      "Ġupd": 7736,
      "ĠTac": 7737,
      "Ġaquas": 7738,
      "Ġmulieres": 7739,
      "Ġhostibus": 7740,
      "Ġhymenaeos": 7741,
      "Ġspol": 7742,
      "ĠPapa": 7743,
      "odis": 7744,
      "Ġlocu": 7745,
      "Ġsel": 7746,
      "Ġreb": 7747,
      "Ġexclud": 7748,
      "Ġtela": 7749,
      "Ġcalor": 7750,
      "ĠSing": 7751,
      "ĠGraeci": 7752,
      "Ġabsolutam": 7753,
      "aturae": 7754,
      "Ġsam": 7755,
      "Ġnovae": 7756,
      "Ġdecor": 7757,
      "Ġconfit": 7758,
      "phi": 7759,
      "Ġcomper": 7760,
      "ister": 7761,
      "Ġoculi": 7762,
      "ĠRad": 7763,
      "ĠFrater": 7764,
      "Ġzz": 7765,
      "Ġsuspic": 7766,
      "Ġhactenus": 7767,
      "Ġimmut": 7768,
      "Ġsubstantiae": 7769,
      "Ġpropon": 7770,
      "Ġcrimen": 7771,
      "Ìģ,": 7772,
      "Ġnaturali": 7773,
      "Ġtemere": 7774,
      "Ġtranqu": 7775,
      "Ġadn": 7776,
      "Ġnuncup": 7777,
      "ĠAppellatio": 7778,
      "oso": 7779,
      "Ġclari": 7780,
      "Ġpacto": 7781,
      "ous": 7782,
      "Ġdiac": 7783,
      "Ġutuntur": 7784,
      "ĠBelg": 7785,
      "urp": 7786,
      "Ġcerti": 7787,
      "ularem": 7788,
      "Ġlaps": 7789,
      "cunque": 7790,
      "IC": 7791,
      "Ġdesper": 7792,
      "lick": 7793,
      "Praesent": 7794,
      "fecta": 7795,
      "ĠHomin": 7796,
      "Ġartific": 7797,
      "Ġpuls": 7798,
      "cipe": 7799,
      "Ġdolupta": 7800,
      "Ġnerv": 7801,
      "Ġcaes": 7802,
      "Ġfigur": 7803,
      "Ġquoc": 7804,
      "Ġqualiter": 7805,
      "eca": 7806,
      "Ġvideretur": 7807,
      "Ġnas": 7808,
      "Ġveteres": 7809,
      "ĠFi": 7810,
      "Ġesto": 7811,
      "ĠAlexander": 7812,
      "Ġforum": 7813,
      "ĠAdm": 7814,
      "Ġoperatio": 7815,
      "Ġdignitate": 7816,
      "ĠSanctum": 7817,
      "Ġrom": 7818,
      "Ġfasc": 7819,
      "Ġmusica": 7820,
      "Ġgloriae": 7821,
      "Ġnuntium": 7822,
      "Ġsomn": 7823,
      "Ġmemoriae": 7824,
      "eld": 7825,
      "ĠPut": 7826,
      "Ġdevel": 7827,
      "eru": 7828,
      "ĠCicero": 7829,
      "Ġcognitio": 7830,
      "ĠAus": 7831,
      "Ġcreatura": 7832,
      "Ġeffus": 7833,
      "Ġlittera": 7834,
      "unci": 7835,
      "ĠFuit": 7836,
      "ÌĦ,": 7837,
      "Condimentum": 7838,
      "Ñģ": 7839,
      "encia": 7840,
      "ĠXIII": 7841,
      "Ġnic": 7842,
      "Nulla": 7843,
      "Ġtuorum": 7844,
      "ĠLaur": 7845,
      "ĠBab": 7846,
      "ĠLut": 7847,
      "Ġhave": 7848,
      "Ġsinistr": 7849,
      "Ġpoti": 7850,
      "ĠXL": 7851,
      "Ġimplic": 7852,
      "Ġplurima": 7853,
      "Ġconsistit": 7854,
      "Ġgut": 7855,
      "tag": 7856,
      "erius": 7857,
      "Ġpauca": 7858,
      "Ġcathed": 7859,
      "ĠFoederatarum": 7860,
      "Ġstric": 7861,
      "elam": 7862,
      "Est": 7863,
      "Ġproposito": 7864,
      "Ġvisa": 7865,
      "quisque": 7866,
      "Ġaliena": 7867,
      "Ġconspic": 7868,
      "Ġ*.": 7869,
      "Ġcomed": 7870,
      "Ġinfinitum": 7871,
      "ĠAntehabeo": 7872,
      "Ġdignitatem": 7873,
      "Ġcorporum": 7874,
      "Ġcompetit": 7875,
      "ĠMir": 7876,
      "ĠLuctus": 7877,
      "Ġiacet": 7878,
      "escunt": 7879,
      "Ġsimili": 7880,
      "Ġlocorum": 7881,
      "fectum": 7882,
      "Ġrapt": 7883,
      "Ġelementa": 7884,
      "Ġscreen": 7885,
      "Ġquotidie": 7886,
      "Ġreddit": 7887,
      "ĠSimul": 7888,
      "Ġpostulo": 7889,
      "ĠModo": 7890,
      "Ġalicui": 7891,
      "Ġhabita": 7892,
      "ĠImm": 7893,
      "Ġui": 7894,
      "Ġstudia": 7895,
      "Ġcaed": 7896,
      "Ġexemplis": 7897,
      "Ġmultorum": 7898,
      "els": 7899,
      "Ġlog": 7900,
      "Ġpapa": 7901,
      "ĠIng": 7902,
      "Ġsob": 7903,
      "Ġtemplo": 7904,
      "Ġlicentia": 7905,
      "Ġlar": 7906,
      "antius": 7907,
      "Ġdiscret": 7908,
      "Ġaetas": 7909,
      "ĠSocr": 7910,
      "erio": 7911,
      "Ġmissus": 7912,
      "Ġpav": 7913,
      "Ġparia": 7914,
      "Ġcasibus": 7915,
      "Ġmultitudo": 7916,
      "Ġincend": 7917,
      "Ġterg": 7918,
      "Ġcultus": 7919,
      "Mat": 7920,
      "Ġpulchra": 7921,
      "ĠGermania": 7922,
      "Ġsollem": 7923,
      "Ġalto": 7924,
      "ĠObserv": 7925,
      "Ġtrepid": 7926,
      "Ġfidelium": 7927,
      "erna": 7928,
      "tino": 7929,
      "Ġagros": 7930,
      "ĠIunii": 7931,
      "Ġpronunti": 7932,
      "Ġnegotiis": 7933,
      "Ġdecimo": 7934,
      "Ġ|": 7935,
      "Ġpraesenti": 7936,
      "Ġaeterna": 7937,
      "ĠRos": 7938,
      "Ġcivium": 7939,
      "pisse": 7940,
      "ĠNor": 7941,
      "omus": 7942,
      "Ġantiquis": 7943,
      "Ġquartum": 7944,
      "ĠCod": 7945,
      "Ġregionem": 7946,
      "Ġconsenti": 7947,
      "Ġdissensio": 7948,
      "ĠArchiepiscop": 7949,
      "Ġperpetuum": 7950,
      "ĠUtrum": 7951,
      "Ġfons": 7952,
      "Ġcommoveo": 7953,
      "Ġps": 7954,
      "ji": 7955,
      "Ġpoteris": 7956,
      "Ġputa": 7957,
      "Ġscio": 7958,
      "Ġti": 7959,
      "Ġarbitrium": 7960,
      "Ġsermonem": 7961,
      "ĠIoseph": 7962,
      "Ġbesti": 7963,
      "ĠOrdinis": 7964,
      "Ġprou": 7965,
      "Ġtyrann": 7966,
      "Ġfratrum": 7967,
      "ĠArab": 7968,
      "ĠNati": 7969,
      "sequi": 7970,
      "ĠGrati": 7971,
      "Ġinvoc": 7972,
      "ĠMediol": 7973,
      "Ġtribul": 7974,
      "itura": 7975,
      "ĠajansÄ±": 7976,
      "Ġpuella": 7977,
      "ĠTol": 7978,
      "Ġ29": 7979,
      "Ġcarc": 7980,
      "ĠFranciscus": 7981,
      "ham": 7982,
      "ĠImperator": 7983,
      "ĠPlus": 7984,
      "Ġlegum": 7985,
      "Ġrepl": 7986,
      "Ġemere": 7987,
      "Ġindustriae": 7988,
      "Ġope": 7989,
      "Ġsanctae": 7990,
      "Ġgenuit": 7991,
      "Ġinstar": 7992,
      "Ġset": 7993,
      "Ġdescendit": 7994,
      "Ġmoderat": 7995,
      "inea": 7996,
      "Ġtruc": 7997,
      "ĠFacilisi": 7998,
      "Ġend": 7999,
      "Ġingenii": 8000,
      "Ġpunctum": 8001,
      "Ġdiligit": 8002,
      "oniis": 8003,
      "Ġlegatus": 8004,
      "Ġscop": 8005,
      "ĠHelvet": 8006,
      "iamus": 8007,
      "Ġtenuit": 8008,
      "Ġadepto": 8009,
      "Ġlangu": 8010,
      "Ġquadraginta": 8011,
      "ics": 8012,
      "Ġprofectus": 8013,
      "Ġecclesie": 8014,
      "Ġiung": 8015,
      "æľ": 8016,
      "uctibus": 8017,
      "Ġprincipis": 8018,
      "Ġextrema": 8019,
      "abilia": 8020,
      "Ġhumano": 8021,
      "Ġcredo": 8022,
      "inu": 8023,
      "Ġapostolus": 8024,
      "Ġducit": 8025,
      "Ġevangel": 8026,
      "emos": 8027,
      "alya": 8028,
      "Ġsupradic": 8029,
      "agus": 8030,
      "Ġindivid": 8031,
      "ĠExempl": 8032,
      "Ġmuneris": 8033,
      "Ġhyd": 8034,
      "Ġinquir": 8035,
      "iensis": 8036,
      "ptis": 8037,
      "igur": 8038,
      "Ġexempli": 8039,
      "ebrae": 8040,
      "Ġfui": 8041,
      "Ġattinet": 8042,
      "Ġremed": 8043,
      "Ġspecific": 8044,
      "ĠVinc": 8045,
      "itii": 8046,
      "ĠVirginis": 8047,
      "nd": 8048,
      "Ġmisericordiam": 8049,
      "Ġsta": 8050,
      "we": 8051,
      "Ġsagit": 8052,
      "editur": 8053,
      "edens": 8054,
      "Ġrepos": 8055,
      "ĠLi": 8056,
      "Ġsuperf": 8057,
      "ĠEleifend": 8058,
      "Ġbonam": 8059,
      "Ġfideles": 8060,
      "Ġspectat": 8061,
      "Ġobscur": 8062,
      "Ġaquis": 8063,
      "acto": 8064,
      "ĠHabit": 8065,
      "Ġtotidem": 8066,
      "Ġju": 8067,
      "Ġaccedere": 8068,
      "Ġiras": 8069,
      "Ġfestin": 8070,
      "Ġsemit": 8071,
      "Ġabl": 8072,
      "ĠInfer": 8073,
      "iturus": 8074,
      "Ġlu": 8075,
      "ĠGregorius": 8076,
      "ĠAsc": 8077,
      "Ġmeliorem": 8078,
      "Ġillae": 8079,
      "Ġsocietas": 8080,
      "ĠTrad": 8081,
      "Ġevid": 8082,
      "Ġlub": 8083,
      "Ġmachina": 8084,
      "Ġistum": 8085,
      "ĠPrimus": 8086,
      "Ġoccult": 8087,
      "AL": 8088,
      "Ġidcirco": 8089,
      "Ġlaude": 8090,
      "Ġtal": 8091,
      "Ġprovinciae": 8092,
      "Ġfiet": 8093,
      "Ġvenerunt": 8094,
      "ĠCÃ¦": 8095,
      "ĠRog": 8096,
      "Ġpene": 8097,
      "Ġnoctem": 8098,
      "ĠTandem": 8099,
      "Ġprogramm": 8100,
      "Ġdomos": 8101,
      "Ġvestram": 8102,
      "larÄ±": 8103,
      "gy": 8104,
      "ibilem": 8105,
      "Ġinfel": 8106,
      "Ġquaestionem": 8107,
      "Ġessentiam": 8108,
      "ĠSalom": 8109,
      "Ġsyll": 8110,
      "Ġdivinis": 8111,
      "uorum": 8112,
      "Ġinsidi": 8113,
      "tigit": 8114,
      "ĠPublic": 8115,
      "Ġpess": 8116,
      "uda": 8117,
      "aturum": 8118,
      "Ġsemet": 8119,
      "ĠCC": 8120,
      "Ġanimalia": 8121,
      "ĠBrev": 8122,
      "ĠProph": 8123,
      "ĠItaliam": 8124,
      "Ġheres": 8125,
      "Ġsede": 8126,
      "eunte": 8127,
      "Ġ]": 8128,
      "Ġalteram": 8129,
      "ultu": 8130,
      "Ġadulesc": 8131,
      "ED": 8132,
      "veris": 8133,
      "Ġvisus": 8134,
      "Ġconatus": 8135,
      "issus": 8136,
      "atenus": 8137,
      "Ġsiti": 8138,
      "Ġrefrig": 8139,
      "Ġcorrupt": 8140,
      "Ġsacrific": 8141,
      "itatus": 8142,
      "ĠâĢ¦": 8143,
      "Ġmontem": 8144,
      "itoribus": 8145,
      "ĠNomen": 8146,
      "tinum": 8147,
      "Ġacta": 8148,
      "Ġsalus": 8149,
      "Ġfronte": 8150,
      "ĠRomanos": 8151,
      "Ġart": 8152,
      "ĠNumquid": 8153,
      "Ġnequ": 8154,
      "ymp": 8155,
      "Ġcongr": 8156,
      "ĠQuad": 8157,
      "Ġconcedit": 8158,
      "Ġdexter": 8159,
      "anice": 8160,
      "Ġfertur": 8161,
      "Ġfratre": 8162,
      "ĠRic": 8163,
      "Ġmultae": 8164,
      "tol": 8165,
      "ĠPiso": 8166,
      "errim": 8167,
      "ĠGloria": 8168,
      "zon": 8169,
      "ĠEff": 8170,
      "ĠPompe": 8171,
      "alitatis": 8172,
      "ĠTurc": 8173,
      "Ġcrass": 8174,
      "pote": 8175,
      "elo": 8176,
      "ker": 8177,
      "ĠOpp": 8178,
      "Ġordines": 8179,
      "Ġmunicipium": 8180,
      "Ġsecus": 8181,
      "Ġascendit": 8182,
      "Ġoperum": 8183,
      "ĠSequitur": 8184,
      "ĠThomas": 8185,
      "enex": 8186,
      "lex": 8187,
      "Ġventi": 8188,
      "ĠBre": 8189,
      "Ġconsue": 8190,
      "Ġfiant": 8191,
      "Ġtestis": 8192,
      "Ġfesti": 8193,
      "Ġexpon": 8194,
      "Ġcantus": 8195,
      "onos": 8196,
      "Ġiuss": 8197,
      "ĠprÃ¦ter": 8198,
      "ĠCarthag": 8199,
      "Ġcoc": 8200,
      "ĠDio": 8201,
      "Ġsimus": 8202,
      "Ġreserv": 8203,
      "Ġonus": 8204,
      "epi": 8205,
      "Ġgraviter": 8206,
      "ĠConcili": 8207,
      "Ġreliqua": 8208,
      "Ġoccurrit": 8209,
      "Ġrepente": 8210,
      "Ġcreatus": 8211,
      "Ġvitia": 8212,
      "orii": 8213,
      "ucia": 8214,
      "Ġcoqu": 8215,
      "Ġintellego": 8216,
      "Ġcorporibus": 8217,
      "ĠvitÃ¦": 8218,
      "ĠClar": 8219,
      "ommunic": 8220,
      "issimas": 8221,
      "ĠHung": 8222,
      "ĠSuperioris": 8223,
      "Ġmovere": 8224,
      "ĠUniversity": 8225,
      "ĠChar": 8226,
      "Ġpanis": 8227,
      "Ġimpetr": 8228,
      "ĠTantum": 8229,
      "Ġaegr": 8230,
      "Ġfron": 8231,
      "Ġostium": 8232,
      "ĠPart": 8233,
      "usit": 8234,
      "ĠsÃ¦c": 8235,
      "ĠAff": 8236,
      "Ġoppugn": 8237,
      "Ġmultitudine": 8238,
      "Ġimagin": 8239,
      "Ġmandatum": 8240,
      "Ġgaudium": 8241,
      "atr": 8242,
      "Ġsubiectum": 8243,
      "egi": 8244,
      "Ġutile": 8245,
      "Ġjudicium": 8246,
      "ĠSpiritum": 8247,
      "Ġcuiusque": 8248,
      "26": 8249,
      "Ġlegi": 8250,
      "ĠHispania": 8251,
      "alarÄ±": 8252,
      "Ġsiquidem": 8253,
      "Ġpublico": 8254,
      "mam": 8255,
      "ĠImmo": 8256,
      "Ġelectus": 8257,
      "Ġpectora": 8258,
      "ĠActa": 8259,
      "sitan": 8260,
      "Ġmaxim": 8261,
      "essu": 8262,
      "Ġdog": 8263,
      "Ġhend": 8264,
      "ĠGraece": 8265,
      "Psal": 8266,
      "Ġinterm": 8267,
      "ĠSent": 8268,
      "Ġunt": 8269,
      "Ġdives": 8270,
      "ĠSacram": 8271,
      "Ġconl": 8272,
      "Ġreput": 8273,
      "Ġsublim": 8274,
      "Ġmetrop": 8275,
      "ĠCaesare": 8276,
      "arie": 8277,
      "ĠPC": 8278,
      "Ġcarb": 8279,
      "Ġnaves": 8280,
      "tifices": 8281,
      "Ġfaciendum": 8282,
      "ped": 8283,
      "ulatus": 8284,
      "tram": 8285,
      "ĠIoannis": 8286,
      "Ġpersever": 8287,
      "Ġterritor": 8288,
      "Ġmilitibus": 8289,
      "iosa": 8290,
      "Ġaem": 8291,
      "tidi": 8292,
      "ĠXVI": 8293,
      "Duis": 8294,
      "Ġsalub": 8295,
      "Ġorationem": 8296,
      "Ġmaledic": 8297,
      "Ġducis": 8298,
      "Ġmaximam": 8299,
      "Ġferunt": 8300,
      "Ġuterque": 8301,
      "Ġconsent": 8302,
      "Ġcarmen": 8303,
      "Ġpropag": 8304,
      "45": 8305,
      "Ġnoctis": 8306,
      "35": 8307,
      "anÃ¦": 8308,
      "Ġimperatoris": 8309,
      "Ġmandata": 8310,
      "Ġapparuit": 8311,
      "Ġunc": 8312,
      "Ġho": 8313,
      "Ġsenatu": 8314,
      "hac": 8315,
      "Ġnobilis": 8316,
      "oriis": 8317,
      "ĠAri": 8318,
      "Ġpopulos": 8319,
      "ĠCyp": 8320,
      "Ġnovem": 8321,
      "Ġpermitt": 8322,
      "ĠAudi": 8323,
      "Ġofficii": 8324,
      "Ġtertiam": 8325,
      "Ġservare": 8326,
      "Ġ2009": 8327,
      "Ġintroduc": 8328,
      "Ġuis": 8329,
      "Ġasser": 8330,
      "ĠSpec": 8331,
      "Ġconstitit": 8332,
      "ĠImperii": 8333,
      "Ġmodern": 8334,
      "ĠGermaniae": 8335,
      "Ġmeas": 8336,
      "Ġmichi": 8337,
      "Ġcogo": 8338,
      "Ġorationis": 8339,
      "Ġlaborem": 8340,
      "Ġdixerit": 8341,
      "Ġmonstrat": 8342,
      "Ġmittere": 8343,
      "ĠRelig": 8344,
      "viron": 8345,
      "Ġbeata": 8346,
      "Ġputat": 8347,
      "Ġiustitiae": 8348,
      "Ġalien": 8349,
      "Ġdivino": 8350,
      "ĠQuapropter": 8351,
      "Ġexitus": 8352,
      "Ġfrequenter": 8353,
      "Ġquicumque": 8354,
      "iturum": 8355,
      "Ġgesta": 8356,
      "Ġhaer": 8357,
      "ĠHibern": 8358,
      "Ġingressus": 8359,
      "Ġformid": 8360,
      "ĠVatic": 8361,
      "Ġschola": 8362,
      "Ġambo": 8363,
      "sic": 8364,
      "ĠAbraham": 8365,
      "Ġoccul": 8366,
      "eis": 8367,
      "Ġludis": 8368,
      "ĠQuippe": 8369,
      "Ġsanguis": 8370,
      "huc": 8371,
      "rio": 8372,
      "ĠEpicurus": 8373,
      "Ġpietate": 8374,
      "Ġcoelo": 8375,
      "Ġquinto": 8376,
      "ĠAristo": 8377,
      "Ġsidera": 8378,
      "Ġanimas": 8379,
      "ĠiOS": 8380,
      "Ġgens": 8381,
      "arat": 8382,
      "ï¼Į": 8383,
      "Ġbrac": 8384,
      "Ġpler": 8385,
      "Ġcommunem": 8386,
      "Ġlep": 8387,
      "Ġhumanis": 8388,
      "piam": 8389,
      "bertus": 8390,
      "Ġoppido": 8391,
      "Ġregula": 8392,
      "ĠJoannes": 8393,
      "ĠOcta": 8394,
      "Ġfabula": 8395,
      "odus": 8396,
      "ĠSaec": 8397,
      "Ġbeneficium": 8398,
      "Ġsufficit": 8399,
      "Ġapplications": 8400,
      "Ġnegotio": 8401,
      "Ġmolor": 8402,
      "29": 8403,
      "Ġquantitatem": 8404,
      "Ġcepit": 8405,
      "Ġris": 8406,
      "Ġutor": 8407,
      "Ġmachinis": 8408,
      "estu": 8409,
      "ik": 8410,
      "alitate": 8411,
      "ĠCarolus": 8412,
      "Ġprotinus": 8413,
      "Ġfeliciter": 8414,
      "Ġtimor": 8415,
      "terum": 8416,
      "Ġdicebat": 8417,
      "ĠTub": 8418,
      "ĠSatis": 8419,
      "Ġinuti": 8420,
      "Ġinventa": 8421,
      "Ġaperta": 8422,
      "Ġprobatur": 8423,
      "Ġvice": 8424,
      "ovit": 8425,
      "Ġscriptis": 8426,
      "Ġhaberi": 8427,
      "eng": 8428,
      "Ġvexillum": 8429,
      "Ġmensibus": 8430,
      "ities": 8431,
      "Ġinnov": 8432,
      "vironment": 8433,
      "yo": 8434,
      "Ġsud": 8435,
      "Ġtantam": 8436,
      "atures": 8437,
      "Ġpraesentia": 8438,
      "ald": 8439,
      "ĠVener": 8440,
      "iew": 8441,
      "Ġrite": 8442,
      "rit": 8443,
      "ĠRei": 8444,
      "inio": 8445,
      "iant": 8446,
      "Ġcondemn": 8447,
      "Ġtalibus": 8448,
      "Ġconcurr": 8449,
      "Ġhebdom": 8450,
      "yt": 8451,
      "Ġsentit": 8452,
      "ĠInn": 8453,
      "ĠDionys": 8454,
      "ĠSupp": 8455,
      "icias": 8456,
      "Ġlaudes": 8457,
      "pha": 8458,
      "emium": 8459,
      "ilit": 8460,
      "Ġcaritate": 8461,
      "Ġsati": 8462,
      "Ġsinis": 8463,
      "Ġdetr": 8464,
      "emper": 8465,
      "Ġdubi": 8466,
      "Ġamicus": 8467,
      "Ġvoluerit": 8468,
      "Ġcaritas": 8469,
      "eff": 8470,
      "hus": 8471,
      "Ġdemonst": 8472,
      "Ġsigno": 8473,
      "Ġvisc": 8474,
      "Ġaedif": 8475,
      "gna": 8476,
      "oma": 8477,
      "Aliquam": 8478,
      "anso": 8479,
      "Ġapta": 8480,
      "Ġmeth": 8481,
      "Ġprogressio": 8482,
      "ĠRub": 8483,
      "Ġsuspici": 8484,
      "Ġhonores": 8485,
      "uad": 8486,
      "Ġvilla": 8487,
      "Ġeram": 8488,
      "mate": 8489,
      "amentis": 8490,
      "Ġamat": 8491,
      "ĠConsectetuer": 8492,
      "mm": 8493,
      "Ġstim": 8494,
      "Ġamico": 8495,
      "Ġamicum": 8496,
      "adi": 8497,
      "Ġcrucis": 8498,
      ".:": 8499,
      "Ġpig": 8500,
      "Vivamus": 8501,
      "uribus": 8502,
      "ĠHar": 8503,
      "inÃ¦": 8504,
      "Ġquodammodo": 8505,
      "mentum": 8506,
      "vail": 8507,
      "ĠHerm": 8508,
      "Ġdicentes": 8509,
      "Ġmasc": 8510,
      "Ġdamna": 8511,
      "Ġstare": 8512,
      "Ġapprop": 8513,
      "Ġhabe": 8514,
      "27": 8515,
      "ĠDub": 8516,
      "Ġparticipes": 8517,
      "esper": 8518,
      "entae": 8519,
      "ĠHenricus": 8520,
      "iciam": 8521,
      "Ġdiutius": 8522,
      "ĠAlp": 8523,
      "ĠUnus": 8524,
      "Ġpia": 8525,
      "ĠMore": 8526,
      "Ġcertus": 8527,
      "Ġossa": 8528,
      "Ġepistola": 8529,
      "Ġcrypt": 8530,
      "Ġserie": 8531,
      "Ġsentire": 8532,
      "Ġlinguis": 8533,
      "olupt": 8534,
      "UL": 8535,
      "ĠMult": 8536,
      "ÅĤ": 8537,
      "ail": 8538,
      "ĠLicet": 8539,
      "ĠNun": 8540,
      "Ġvn": 8541,
      "Ġcolore": 8542,
      "Ġdesiderat": 8543,
      "Ġingenti": 8544,
      "Ġbrevitas": 8545,
      "ĠEph": 8546,
      "ĠInterea": 8547,
      "agi": 8548,
      "Ġcass": 8549,
      "ĠAene": 8550,
      "aliz": 8551,
      "Ġping": 8552,
      "ĠLacinia": 8553,
      "ĠClem": 8554,
      "Ġabbas": 8555,
      "Ġoperari": 8556,
      "Ġcustom": 8557,
      "elibet": 8558,
      "Ġby": 8559,
      "Ġgign": 8560,
      "Ġ35": 8561,
      "Ġinser": 8562,
      "ulariter": 8563,
      "escat": 8564,
      "Ġhumanum": 8565,
      "Ġpoc": 8566,
      "Cras": 8567,
      "Ġantiqua": 8568,
      "Ġalit": 8569,
      "culum": 8570,
      "utor": 8571,
      "Ġgrave": 8572,
      "ĠHannib": 8573,
      "ĠSS": 8574,
      "Ġexor": 8575,
      "ĠDesc": 8576,
      "ĠAugust": 8577,
      "ĠEquidem": 8578,
      "Ġludo": 8579,
      "Ġterminum": 8580,
      "Ġvultu": 8581,
      "Qui": 8582,
      "Ġflux": 8583,
      "ĠPan": 8584,
      "ĠHeb": 8585,
      "Ġregina": 8586,
      "Ġfatig": 8587,
      "ĠlÃ¦": 8588,
      "åħ": 8589,
      "Ġprudentia": 8590,
      "Ġtend": 8591,
      "Ġfestum": 8592,
      "Ġvictor": 8593,
      "ove": 8594,
      "Ġnar": 8595,
      "ĠSat": 8596,
      "ĠÏĦ": 8597,
      "iem": 8598,
      "Ġoner": 8599,
      "ĠCanon": 8600,
      "Ġpernici": 8601,
      "Ġvad": 8602,
      "irab": 8603,
      "Ġefficac": 8604,
      "Ġpraesidio": 8605,
      "Ġepiscopum": 8606,
      "Ġschol": 8607,
      "Ġultro": 8608,
      "Ġarbitrio": 8609,
      "Ġsabb": 8610,
      "Ġcultu": 8611,
      "Ġmultitudinem": 8612,
      "rime": 8613,
      "cam": 8614,
      "Ġlongus": 8615,
      "Ġpaucos": 8616,
      "uspendisse": 8617,
      "Ġfacinus": 8618,
      "mail": 8619,
      "ĠSenectus": 8620,
      "Ġdeprec": 8621,
      "Ġmobile": 8622,
      "ĠRegione": 8623,
      "Ġdoctrinae": 8624,
      "oqui": 8625,
      "Ġtradidit": 8626,
      "ĠMass": 8627,
      "Ġnihilo": 8628,
      "Ġcursum": 8629,
      "Ġoperationem": 8630,
      "olim": 8631,
      "igen": 8632,
      "Ġostendere": 8633,
      "Ġservitium": 8634,
      "ĠFilio": 8635,
      "Ġspecul": 8636,
      "Ġconsequens": 8637,
      "istere": 8638,
      "Ġpetere": 8639,
      "vailable": 8640,
      "cripta": 8641,
      "Ġartifici": 8642,
      "roc": 8643,
      "Ġrectum": 8644,
      "Ġcaritatis": 8645,
      "Ġdiscord": 8646,
      "Ġrecenti": 8647,
      "Ġmonasterii": 8648,
      "verat": 8649,
      "ĠEli": 8650,
      "Ġhabentes": 8651,
      "Ġdiuers": 8652,
      "ĠPars": 8653,
      "Ġducere": 8654,
      "ĠLun": 8655,
      "Ġmontibus": 8656,
      "iii": 8657,
      "Ġprofer": 8658,
      "fo": 8659,
      "Ġpermittit": 8660,
      "Ġ#": 8661,
      "Ġartibus": 8662,
      "Ġdecima": 8663,
      "Ġnovas": 8664,
      "Ġdivinam": 8665,
      "Ġseru": 8666,
      "Ġses": 8667,
      "ĠQuot": 8668,
      "Etiam": 8669,
      "emit": 8670,
      "Ġnominibus": 8671,
      "ĠHug": 8672,
      "Ġpatrum": 8673,
      "Ġefficit": 8674,
      "ĠHil": 8675,
      "ocurr": 8676,
      "Ġnecessitates": 8677,
      "Ġvendit": 8678,
      "Ġstult": 8679,
      "gressus": 8680,
      "Ġaddit": 8681,
      "Ġexclus": 8682,
      "EL": 8683,
      "ĠFames": 8684,
      "Ġcamur": 8685,
      "Ġauctoritas": 8686,
      "Ġout": 8687,
      "ĠÎ±": 8688,
      "Ġinstitutionem": 8689,
      "Ġconscientia": 8690,
      "bur": 8691,
      "ĠAma": 8692,
      "Ġaltilium": 8693,
      "Ġprincipalis": 8694,
      "estem": 8695,
      "ĠContin": 8696,
      "ĠVeh": 8697,
      "Ġmagnae": 8698,
      "imento": 8699,
      "undis": 8700,
      "gredi": 8701,
      "Ġsinu": 8702,
      "Ġdesid": 8703,
      "Ġelectr": 8704,
      "ĠPall": 8705,
      "Ġseries": 8706,
      "ateg": 8707,
      "ptionem": 8708,
      "Ġnotis": 8709,
      "entesimo": 8710,
      "intus": 8711,
      "Ġmoenia": 8712,
      "Ġmisera": 8713,
      "65": 8714,
      "ĠGallic": 8715,
      "edunt": 8716,
      "Ġoccasionem": 8717,
      "aturam": 8718,
      "Ġpraebere": 8719,
      "ĠIb": 8720,
      "cho": 8721,
      "Ġdenuo": 8722,
      "ĠRespondeo": 8723,
      "der": 8724,
      "Ġveniunt": 8725,
      "umen": 8726,
      "ĠSine": 8727,
      "Ang": 8728,
      "Ġsapientiam": 8729,
      "ĠÃ¦ter": 8730,
      "ĠPor": 8731,
      "çļ": 8732,
      "ective": 8733,
      "illos": 8734,
      "Ġconduc": 8735,
      "Ġnumeri": 8736,
      "Ġpublicum": 8737,
      "Ġpens": 8738,
      "Ġmorum": 8739,
      "Ġspecialiter": 8740,
      "Ġcommunia": 8741,
      "Ġbar": 8742,
      "Ġcreata": 8743,
      "Ġdabo": 8744,
      "ĠNoc": 8745,
      "Ġdiversas": 8746,
      "ĠLic": 8747,
      "ĠNig": 8748,
      "Ġventus": 8749,
      "ĠIuli": 8750,
      "Ġadim": 8751,
      "Ġ2011": 8752,
      "itare": 8753,
      "uitate": 8754,
      "Ġregionis": 8755,
      "ĠEcc": 8756,
      "ĠAe": 8757,
      "ĠSup": 8758,
      "Ġdispon": 8759,
      "ĠSecunda": 8760,
      "ater": 8761,
      "Ġmu": 8762,
      "Ġfabr": 8763,
      "Ġliberis": 8764,
      "Ġconfid": 8765,
      "lav": 8766,
      "Ġverisim": 8767,
      "omo": 8768,
      "ĠSig": 8769,
      "ĠAltera": 8770,
      "Ġvestrae": 8771,
      "olym": 8772,
      "Ġsocietatem": 8773,
      "Ġvelim": 8774,
      "Ġaffectum": 8775,
      "ĠElect": 8776,
      "Ġpersuas": 8777,
      "Ġmembris": 8778,
      "Ġnobiscum": 8779,
      "Ġnecessitas": 8780,
      "Ġsty": 8781,
      "Ġbrach": 8782,
      "Ġmovetur": 8783,
      "Ġlibrorum": 8784,
      "Ġcurrent": 8785,
      "Ġfung": 8786,
      "Ġsitus": 8787,
      "Ġservo": 8788,
      "utione": 8789,
      "AM": 8790,
      "Ġdeput": 8791,
      "Ġfonte": 8792,
      "Ġcontactus": 8793,
      "fact": 8794,
      "Ġsequenti": 8795,
      "Ġpoeta": 8796,
      "aps": 8797,
      "ĠAustra": 8798,
      "Ġscit": 8799,
      "99": 8800,
      "anica": 8801,
      "Ġapplication": 8802,
      "Ġpraemia": 8803,
      "ĠFa": 8804,
      "Ġortus": 8805,
      "ĠRutrum": 8806,
      "Ġquinquaginta": 8807,
      ".\"": 8808,
      "Ġfaciant": 8809,
      "Ġconform": 8810,
      "Ġgenerat": 8811,
      "Ġpondere": 8812,
      "Ġcalig": 8813,
      "etri": 8814,
      "Ġagg": 8815,
      "Ġnoctur": 8816,
      "ky": 8817,
      "Ġvident": 8818,
      "Ġtheat": 8819,
      "Ġceleriter": 8820,
      "ycl": 8821,
      "Ġalis": 8822,
      "Ġintelligitur": 8823,
      "Ġmontis": 8824,
      "Ġmatre": 8825,
      "Ġauc": 8826,
      "emin": 8827,
      "Ġtecta": 8828,
      "ĠprÃ¦c": 8829,
      "Ġnovit": 8830,
      "Ġportum": 8831,
      "ĠProp": 8832,
      "Ġgrata": 8833,
      "ĠVict": 8834,
      "Ġoccasione": 8835,
      "Ġultimo": 8836,
      "Ġnequaquam": 8837,
      "inister": 8838,
      "ĠAristoteles": 8839,
      "ford": 8840,
      "Ġdocuit": 8841,
      "Ch": 8842,
      "ĠPeri": 8843,
      "Ġerig": 8844,
      "Ġconventus": 8845,
      "Ġreus": 8846,
      "ĠHuc": 8847,
      "Ġredig": 8848,
      "Ġincarn": 8849,
      "Ġmiracula": 8850,
      "Ġmensura": 8851,
      "pond": 8852,
      "ectibus": 8853,
      "Ġclara": 8854,
      "Ġsemen": 8855,
      "Ġlug": 8856,
      "Ġreprehendo": 8857,
      "Ġenvironment": 8858,
      "Ġpoenas": 8859,
      "Ġmarit": 8860,
      "ĠAlt": 8861,
      "ĠPyrenae": 8862,
      "ĠAstronom": 8863,
      "Ġopinionem": 8864,
      "Ġparentibus": 8865,
      "Ġfacis": 8866,
      "ĠOrient": 8867,
      "Ġbreviter": 8868,
      "Ġzzril": 8869,
      "vitatis": 8870,
      "uel": 8871,
      "etem": 8872,
      "ĠDicitur": 8873,
      "ĠAnglic": 8874,
      "Ġexpedit": 8875,
      "Ġoppress": 8876,
      "idion": 8877,
      "iculis": 8878,
      "iculo": 8879,
      "Ġiudices": 8880,
      "ĠPraeter": 8881,
      "Ġavailable": 8882,
      "omb": 8883,
      "Ġvideantur": 8884,
      "ecerunt": 8885,
      "ĠTy": 8886,
      "Ġnosse": 8887,
      "aldus": 8888,
      "ĠJul": 8889,
      "ularia": 8890,
      "tarum": 8891,
      "Ġplebis": 8892,
      "Ġperfectio": 8893,
      "Ġseipsum": 8894,
      "Ġinferi": 8895,
      "Ġdistans": 8896,
      "ĠNetus": 8897,
      "Ġdepend": 8898,
      "elae": 8899,
      "Ġspeciali": 8900,
      "Ġexcommunic": 8901,
      "Ġimple": 8902,
      "Ġrespondere": 8903,
      "ĠáĦ": 8904,
      "iderit": 8905,
      "ĠPros": 8906,
      "ftware": 8907,
      "Ġveram": 8908,
      "Ġsemin": 8909,
      "Ġfecisse": 8910,
      "Ġaetatem": 8911,
      "Ġcultum": 8912,
      "Ar": 8913,
      "ĠPyth": 8914,
      "Ġperfecte": 8915,
      "Ġcoept": 8916,
      "xi": 8917,
      "Ġcing": 8918,
      ".-": 8919,
      "rÃ¦": 8920,
      "Ġvino": 8921,
      "Ġfactionis": 8922,
      "Ġrespici": 8923,
      "Ġlegati": 8924,
      "Ġhistr": 8925,
      "eder": 8926,
      "Ġoritur": 8927,
      "Ġquaecumque": 8928,
      "ÙĦ": 8929,
      "ĠOmnibus": 8930,
      "ĠVeneris": 8931,
      "Ġsuscepit": 8932,
      "ynam": 8933,
      "ĠBac": 8934,
      "ankara": 8935,
      "ĠEpiscopo": 8936,
      "uia": 8937,
      "Ġaccurate": 8938,
      "Ġintim": 8939,
      "Ġadhiberi": 8940,
      "Ġcoe": 8941,
      "Ġasanso": 8942,
      "onensis": 8943,
      "ĠHaud": 8944,
      "Ġspeciei": 8945,
      "Ġquale": 8946,
      "Ġexpugn": 8947,
      "Ġfugam": 8948,
      "Ġsummis": 8949,
      "Ġeiusque": 8950,
      "ĠWil": 8951,
      "Ġmemin": 8952,
      "Ġaeternam": 8953,
      "Ġhonori": 8954,
      "Ġsuc": 8955,
      "ulti": 8956,
      "uz": 8957,
      "Ġsenex": 8958,
      "ocha": 8959,
      "ennium": 8960,
      "ĠEc": 8961,
      "Ġinvol": 8962,
      "Ġmilli": 8963,
      "Ġphilosophiae": 8964,
      "Ġquadrig": 8965,
      "Ġsinus": 8966,
      "utos": 8967,
      "oquin": 8968,
      "Ġreligione": 8969,
      "ĠCub": 8970,
      "Ġadest": 8971,
      "Ð¾Ð": 8972,
      "ĠBurg": 8973,
      "ĠIovis": 8974,
      "Ġprosequ": 8975,
      "ivis": 8976,
      "Ġcontex": 8977,
      "Ġpridem": 8978,
      "Ġfero": 8979,
      "Ġdebita": 8980,
      "Ġcivitatibus": 8981,
      "Ġcoelum": 8982,
      "ipi": 8983,
      "Ġlibere": 8984,
      "Ġproxima": 8985,
      "Ġtechnology": 8986,
      "Ġsedis": 8987,
      "Ġperfectionem": 8988,
      "Ġfeci": 8989,
      "Ġiustitiam": 8990,
      "Î¿Ïħ": 8991,
      "Ġpanem": 8992,
      "Ġtristi": 8993,
      "Ġadversum": 8994,
      "ĠJus": 8995,
      "estes": 8996,
      "Ġiram": 8997,
      "Ġviat": 8998,
      "Ġmarm": 8999,
      "Ġproject": 9000,
      "Ġagunt": 9001,
      "ĠComment": 9002,
      "ĠNorm": 9003,
      "Aenean": 9004,
      "ĠHae": 9005,
      "Ġagmine": 9006,
      "ĠHieronymus": 9007,
      "Ġherb": 9008,
      "Ġrepertus": 9009,
      "ĠNol": 9010,
      "Ġregia": 9011,
      "Ġpaginam": 9012,
      "Ġreferre": 9013,
      "Ġ\\": 9014,
      "ĠMarti": 9015,
      "ĠLigula": 9016,
      "Ġtransf": 9017,
      "Ġnotas": 9018,
      "Ġagendum": 9019,
      "Ġperduc": 9020,
      "ĠHabitant": 9021,
      "onica": 9022,
      "Ġmortuum": 9023,
      "Ġdiscipulis": 9024,
      "ĠIN": 9025,
      "itoris": 9026,
      "amini": 9027,
      "Ġgaudio": 9028,
      "Ġpedit": 9029,
      "ilitatis": 9030,
      "Ġcontinetur": 9031,
      "Ġcomplex": 9032,
      "Ġadvoc": 9033,
      "Ġabsur": 9034,
      "Ġproposita": 9035,
      "etiam": 9036,
      "Ġhendre": 9037,
      "Ġinqui": 9038,
      ");": 9039,
      "Ġele": 9040,
      "Ġverus": 9041,
      "Dolor": 9042,
      "ĠVenus": 9043,
      "acul": 9044,
      "Ġrecipere": 9045,
      "ĠUsque": 9046,
      "Ġgladio": 9047,
      "ĠCent": 9048,
      "Ġpropin": 9049,
      "ĠCaecus": 9050,
      "ĠScriptura": 9051,
      "Ġdiscipuli": 9052,
      "Ġmiseri": 9053,
      "ocl": 9054,
      "Ġcord": 9055,
      "ĠHol": 9056,
      "Ġmachin": 9057,
      "Ġproceditur": 9058,
      "ĠBabyl": 9059,
      "Ġegit": 9060,
      "Ġfidelibus": 9061,
      "je": 9062,
      "ĠÎµ": 9063,
      "Pellentesque": 9064,
      "Ġobiit": 9065,
      "Ġprogressionem": 9066,
      "Ġaudit": 9067,
      "Ġinstru": 9068,
      "Ġproficisc": 9069,
      "Ġcontrario": 9070,
      "Ġnotae": 9071,
      "ĠMur": 9072,
      "Ġgaudia": 9073,
      "ĠAdhuc": 9074,
      "ET": 9075,
      "Ġcorpori": 9076,
      "Ġent": 9077,
      "ĠOport": 9078,
      "tax": 9079,
      "Ġinh": 9080,
      "Ġdupl": 9081,
      "Ġauctore": 9082,
      "ĠBuy": 9083,
      "Ġcreaturae": 9084,
      "çļĦ": 9085,
      "ĠNovum": 9086,
      "ĠAtheni": 9087,
      "Ġpotuerunt": 9088,
      "Ġaliquibus": 9089,
      "Ġcalid": 9090,
      "ĠHistoria": 9091,
      "Ġsicc": 9092,
      "Ġcognitione": 9093,
      "Ġfate": 9094,
      "Ġunitas": 9095,
      "ĠNova": 9096,
      "pimus": 9097,
      "Ġarca": 9098,
      "Ġtueri": 9099,
      "Curabitur": 9100,
      "Ġcurrit": 9101,
      "ĠStoici": 9102,
      "Ġinest": 9103,
      "Ġ\"..": 9104,
      "Ġtabulas": 9105,
      "ĠGraecis": 9106,
      "Ġsuarum": 9107,
      "Ġpervenire": 9108,
      "Ġauctores": 9109,
      "Ġunitatem": 9110,
      "ĠCyr": 9111,
      "Ġsecundus": 9112,
      "Ġetenim": 9113,
      "Ġdura": 9114,
      "Ġanimarum": 9115,
      "ĠPast": 9116,
      "Ġintegrum": 9117,
      "Ġhoris": 9118,
      "als": 9119,
      "Ġodium": 9120,
      "Ġarbitror": 9121,
      "Ġpertr": 9122,
      "ppiter": 9123,
      "Ġproelio": 9124,
      "Ġintend": 9125,
      "Ġdignus": 9126,
      "Ġpaenit": 9127,
      "Ġpueris": 9128,
      "ĠLigeris": 9129,
      "ĠAge": 9130,
      "Ġhabebit": 9131,
      "ĠPraecip": 9132,
      "Ġsexto": 9133,
      "ĠPostr": 9134,
      "Ġneminem": 9135,
      "hes": 9136,
      "êĿ": 9137,
      "ptione": 9138,
      "Ġsancte": 9139,
      "Ġdiat": 9140,
      "Ġ60": 9141,
      "ĠAir": 9142,
      "Ġpopulis": 9143,
      "Ġverec": 9144,
      "Ġpil": 9145,
      "Ġgu": 9146,
      "Jo": 9147,
      "pore": 9148,
      "åı": 9149,
      "ĠBell": 9150,
      "aculi": 9151,
      "Ġdixisse": 9152,
      "ĠDies": 9153,
      "Ġtantae": 9154,
      "Ġopem": 9155,
      "urarum": 9156,
      "Ġcomprob": 9157,
      "ings": 9158,
      "Ġminuta": 9159,
      "ĠMarci": 9160,
      "Ġpersonas": 9161,
      "Ġexitum": 9162,
      "Ġdiffert": 9163,
      "zn": 9164,
      "tate": 9165,
      "get": 9166,
      "Ġcurrus": 9167,
      "ĠArm": 9168,
      "uem": 9169,
      "Ġarcus": 9170,
      "ologiae": 9171,
      "Ġoriginem": 9172,
      "Ġlignum": 9173,
      "lici": 9174,
      "ĠOratio": 9175,
      "Ġomnim": 9176,
      "ĠBarb": 9177,
      "Ġperfecti": 9178,
      "Ġconsuetudine": 9179,
      "Ġpotuerit": 9180,
      "Ġtantummodo": 9181,
      "Ġstra": 9182,
      "Ġpossibile": 9183,
      "Ġunusquisque": 9184,
      "ĠSanctae": 9185,
      "Ġortum": 9186,
      "hn": 9187,
      "Ġperhib": 9188,
      "Ġpartus": 9189,
      "Ġmachinae": 9190,
      "Ġangusti": 9191,
      "Ġnegat": 9192,
      "Ġnesc": 9193,
      "ĠFre": 9194,
      "Ġprincipum": 9195,
      "Ġvasa": 9196,
      "ĠCardin": 9197,
      "ugur": 9198,
      "Ġconstituta": 9199,
      "enna": 9200,
      "Ġprincipem": 9201,
      "Mauris": 9202,
      "Quod": 9203,
      "Ġfuturo": 9204,
      "ĠVirtut": 9205,
      "ye": 9206,
      "italium": 9207,
      "Ġoblivis": 9208,
      "ĠImperium": 9209,
      "Ġconsilii": 9210,
      "ĠConi": 9211,
      "Ġbonos": 9212,
      "Ġdocum": 9213,
      "Ġpietas": 9214,
      "Ġannus": 9215,
      "Ġsimilitudo": 9216,
      "ren": 9217,
      "Ġcereb": 9218,
      "Ġvestro": 9219,
      "Ġnihilominus": 9220,
      "ĠPontifex": 9221,
      "Ġmeruit": 9222,
      "ĠDix": 9223,
      "udic": 9224,
      "95": 9225,
      "ĠGaud": 9226,
      "Ġagimus": 9227,
      "gi": 9228,
      "entii": 9229,
      "85": 9230,
      "Ġplenum": 9231,
      "ĠBrevitas": 9232,
      "ĠAlc": 9233,
      "Ġpublicis": 9234,
      "Ġiisdem": 9235,
      "Ġ190": 9236,
[...]
