{
  "version": "1.0",
  "truncation": null,
  "padding": null,
  "added_tokens": [
    {
      "id": 0,
      "content": "<pad>",
      "single_word": false,
      "lstrip": false,
      "rstrip": false,
      "normalized": false,
      "special": true
    },
    {
      "id": 1,
      "content": "<s>",
      "single_word": false,
      "lstrip": false,
      "rstrip": false,
      "normalized": false,
      "special": true
    },
    {
      "id": 2,
      "content": "</s>",
      "single_word": false,
      "lstrip": false,
      "rstrip": false,
      "normalized": false,
      "special": true
    },
    {
      "id": 3,
      "content": "<unk>",
      "single_word": false,
      "lstrip": false,
      "rstrip": false,
      "normalized": false,
      "special": true
    },
    {
      "id": 4,
      "content": "<mask>",
      "single_word": false,
      "lstrip": false,
      "rstrip": false,
      "normalized": false,
      "special": true
    }
  ],
  "normalizer": null,
  "pre_tokenizer": {
    "type": "ByteLevel",
    "add_prefix_space": false,
    "trim_offsets": true,
    "use_regex": true
  },
  "post_processor": {
    "type": "ByteLevel",
    "add_prefix_space": true,
    "trim_offsets": false,
    "use_regex": true
  },
  "decoder": null,
  "model": {
    "type": "BPE",
    "dropout": null,
    "unk_token": "<unk>",
    "continuing_subword_prefix": null,
    "end_of_word_suffix": null,
    "fuse_unk": false,
    "byte_fallback": false,
    "ignore_merges": false,
    "vocab": {
      "<pad>": 0,
      "<s>": 1,
      "</s>": 2,
      "<unk>": 3,
      "<mask>": 4,
      "!": 5,
      "\"": 6,
      "#": 7,
      "$": 8,
      "%": 9,
      "&": 10,
      "'": 11,
      "(": 12,
      ")": 13,
      "*": 14,
      "+": 15,
      ",": 16,
      "-": 17,
      ".": 18,
      "/": 19,
      "0": 20,
      "1": 21,
      "2": 22,
      "3": 23,
      "4": 24,
      "5": 25,
      "6": 26,
      "7": 27,
      "8": 28,
      "9": 29,
      ":": 30,
      ";": 31,
      "<": 32,
      "=": 33,
      ">": 34,
      "?": 35,
      "@": 36,
      "A": 37,
      "B": 38,
      "C": 39,
      "D": 40,
      "E": 41,
      "F": 42,
      "G": 43,
      "H": 44,
      "I": 45,
      "J": 46,
      "K": 47,
      "L": 48,
      "M": 49,
      "N": 50,
      "O": 51,
      "P": 52,
      "Q": 53,
      "R": 54,
      "S": 55,
      "T": 56,
      "U": 57,
      "V": 58,
      "W": 59,
      "X": 60,
      "Y": 61,
      "Z": 62,
      "[": 63,
      "\\": 64,
      "]": 65,
      "^": 66,
      "a": 67,
      "b": 68,
      "c": 69,
      "d": 70,
      "e": 71,
      "f": 72,
      "g": 73,
      "h": 74,
      "i": 75,
      "j": 76,
      "k": 77,
      "l": 78,
      "m": 79,
      "n": 80,
      "o": 81,
      "p": 82,
      "q": 83,
      "r": 84,
      "s": 85,
      "t": 86,
      "u": 87,
      "v": 88,
      "w": 89,
      "x": 90,
      "y": 91,
      "z": 92,
      "{": 93,
      "|": 94,
      "}": 95,
      "~": 96,
      "¡": 97,
      "¢": 98,
      "£": 99,
      "¤": 100,
      "¥": 101,
      "¦": 102,
      "§": 103,
      "¨": 104,
      "©": 105,
      "ª": 106,
      "«": 107,
      "¬": 108,
      "®": 109,
      "¯": 110,
      "°": 111,
      "±": 112,
      "²": 113,
      "³": 114,
      "´": 115,
      "µ": 116,
      "¶": 117,
      "·": 118,
      "¸": 119,
      "¹": 120,
      "º": 121,
      "»": 122,
      "¼": 123,
      "½": 124,
      "¾": 125,
      "¿": 126,
      "Â": 127,
      "Ã": 128,
      "Ä": 129,
      "Å": 130,
      "Æ": 131,
      "Ç": 132,
      "È": 133,
      "É": 134,
      "Ê": 135,
      "Ë": 136,
      "Ì": 137,
      "Í": 138,
      "Î": 139,
      "Ï": 140,
      "Ð": 141,
      "Ñ": 142,
      "Ò": 143,
      "Ó": 144,
      "Ô": 145,
      "Õ": 146,
      "Ö": 147,
      "×": 148,
      "Ø": 149,
      "Ù": 150,
      "Ú": 151,
      "Û": 152,
      "Ü": 153,
      "Ý": 154,
      "Þ": 155,
      "ß": 156,
      "à": 157,
      "á": 158,
      "â": 159,
      "ã": 160,
      "ä": 161,
      "å": 162,
      "æ": 163,
      "ç": 164,
      "è": 165,
      "é": 166,
      "ê": 167,
      "î": 168,
      "ï": 169,
      "ð": 170,
      "Ā": 171,
      "ă": 172,
      "Ą": 173,
      "ą": 174,
      "ć": 175,
      "Đ": 176,
      "Ė": 177,
      "ě": 178,
      "Ġ": 179,
      "Ģ": 180,
      "ģ": 181,
      "Ĥ": 182,
      "ĥ": 183,
      "Ħ": 184,
      "ħ": 185,
      "Ĩ": 186,
      "ĩ": 187,
      "Ī": 188,
      "ī": 189,
      "Ĭ": 190,
      "ĭ": 191,
      "Į": 192,
      "į": 193,
      "İ": 194,
      "ı": 195,
      "Ĳ": 196,
      "ĳ": 197,
      "Ĵ": 198,
      "ĵ": 199,
      "Ķ": 200,
      "ķ": 201,
      "ĸ": 202,
      "Ĺ": 203,
      "ĺ": 204,
      "Ļ": 205,
      "ļ": 206,
      "Ľ": 207,
      "ľ": 208,
      "Ŀ": 209,
      "ŀ": 210,
      "Ł": 211,
      "ł": 212,
      "Ń": 213,
      "Ġe": 214,
      "is": 215,
      "er": 216,
      "us": 217,
      "um": 218,
      "Ġa": 219,
      "it": 220,
      "qu": 221,
      "in": 222,
      "Ġs": 223,
      "en": 224,
      "at": 225,
      "or": 226,
      "Ġp": 227,
      "on": 228,
      "Ġc": 229,
      "Ġd": 230,
      "es": 231,
      "Ġn": 232,
      "am": 233,
      "em": 234,
      "Ġm": 235,
      "Ġqu": 236,
      "ur": 237,
      "Ġv": 238,
      "et": 239,
      "ic": 240,
      "Ġin": 241,
      "ti": 242,
      "an": 243,
      "Ġt": 244,
      "ul": 245,
      "ec": 246,
      "im": 247,
      "Ġf": 248,
      "un": 249,
      "ut": 250,
      "ol": 251,
      "ar": 252,
      "li": 253,
      "os": 254,
      "Ġet": 255,
      "el": 256,
      "id": 257,
      "ae": 258,
      "as": 259,
      "Ġr": 260,
      "Ġl": 261,
      "ent": 262,
      "que": 263,
      "Ġpr": 264,
      "om": 265,
      "Ġi": 266,
      "st": 267,
      "od": 268,
      "Ġh": 269,
      "ib": 270,
      "Ġcon": 271,
      "ac": 272,
      "ed": 273,
      "Ġest": 274,
      "al": 275,
      "unt": 276,
      "Ġad": 277,
      "ia": 278,
      "end": 279,
      "..": 280,
      "ĠA": 281,
      "ab": 282,
      "ibus": 283,
      "Ġex": 284,
      "oc": 285,
      "Ġut": 286,
      "Ġnon": 287,
      "ĠS": 288,
      "ra": 289,
      "il": 290,
      "per": 291,
      "ĠD": 292,
      "se": 293,
      "ati": 294,
      "ĠC": 295,
      "ĠP": 296,
      "ud": 297,
      "gn": 298,
      "pt": 299,
      "ect": 300,
      "ant": 301,
      "ere": 302,
      "ĠE": 303,
      "uc": 304,
      "ĠI": 305,
      "Ġde": 306,
      "Ġma": 307,
      "Ġper": 308,
      "Ġdi": 309,
      "Ġac": 310,
      "Ġsu": 311,
      "ĠN": 312,
      "ci": 313,
      "ell": 314,
      "tr": 315,
      "Ġre": 316,
      "Ġali": 317,
      "Ġu": 318,
      "ĠM": 319,
      "Ġo": 320,
      "olor": 321,
      "Ġb": 322,
      "ort": 323,
      "ir": 324,
      "ps": 325,
      "ot": 326,
      "Ġan": 327,
      "Ġvel": 328,
      "Qu": 329,
      "ius": 330,
      "Ġg": 331,
      "Ġpro": 332,
      "orum": 333,
      "enti": 334,
      "ull": 335,
      "Ġsed": 336,
      "Ġdolor": 337,
      "ter": 338,
      "atur": 339,
      "Ġaut": 340,
      "Ġsit": 341,
      "Ġer": 342,
      "and": 343,
      "ens": 344,
      "Ġqui": 345,
      "itur": 346,
      "io": 347,
      "Ġam": 348,
      "Ġquod": 349,
      "te": 350,
      "Ġid": 351,
      "Ġdic": 352,
      "ation": 353,
      "Ġvol": 354,
      "Ġips": 355,
      "est": 356,
      "itat": 357,
      "emp": 358,
      "ium": 359,
      "Ġel": 360,
      "ap": 361,
      "esti": 362,
      "iss": 363,
      "ĠV": 364,
      "ug": 365,
      "ĠQu": 366,
      "Ġpos": 367,
      "Ġen": 368,
      "Ġcum": 369,
      "ll": 370,
      "etur": 371,
      "Ġat": 372,
      "quam": 373,
      "ore": 374,
      "Ġfac": 375,
      "omn": 376,
      "Ġli": 377,
      "pis": 378,
      "Ġcons": 379,
      "Ġnec": 380,
      "fic": 381,
      "Ġcom": 382,
      "Ġomn": 383,
      "iv": 384,
      "ing": 385,
      "bi": 386,
      "unc": 387,
      "Ġenim": 388,
      "Ġtemp": 389,
      "upt": 390,
      "Ġeg": 391,
      "Ġor": 392,
      "Ġim": 393,
      "ri": 394,
      "Ġse": 395,
      "Ġquis": 396,
      "ta": 397,
      "omin": 398,
      "ero": 399,
      "Ġne": 400,
      "Ġill": 401,
      "Ġquam": 402,
      "Ġes": 403,
      "re": 404,
      "und": 405,
      "are": 406,
      "Ġamet": 407,
      "ili": 408,
      "Ġeu": 409,
      "ob": 410,
      "entum": 411,
      "orem": 412,
      "ris": 413,
      "erit": 414,
      "Ġnis": 415,
      "ĠT": 416,
      "Ġpl": 417,
      "Ġar": 418,
      "Ġpar": 419,
      "mod": 420,
      "ad": 421,
      "ĠL": 422,
      "ĠIn": 423,
      "to": 424,
      "Ġmol": 425,
      "Ġvit": 426,
      "iam": 427,
      "aec": 428,
      "Ġvolupt": 429,
      "eo": 430,
      "eb": 431,
      "tis": 432,
      "tum": 433,
      "ion": 434,
      "tus": 435,
      "imus": 436,
      "inc": 437,
      "Ġsol": 438,
      "ĠF": 439,
      "Ġquae": 440,
      "Ġhab": 441,
      "Ġipsum": 442,
      "Ġab": 443,
      "ĠH": 444,
      "Ġsi": 445,
      "Ġmagn": 446,
      "Ġsunt": 447,
      "Ġdu": 448,
      "ro": 449,
      "jus": 450,
      "ĠR": 451,
      "Ġaliqu": 452,
      "Ġnos": 453,
      "entes": 454,
      "Ġsem": 455,
      "uit": 456,
      "tiam": 457,
      "Ġsc": 458,
      "ess": 459,
      "lic": 460,
      "cip": 461,
      "Ġlib": 462,
      "ĠU": 463,
      "arum": 464,
      "ue": 465,
      "ulla": 466,
      "ce": 467,
      "atis": 468,
      "eg": 469,
      "Ġinter": 470,
      "ate": 471,
      "ula": 472,
      "sequ": 473,
      "ita": 474,
      "ici": 475,
      "Ġautem": 476,
      "Ġme": 477,
      "Ġcor": 478,
      "Ġquo": 479,
      "issim": 480,
      "Ġquia": 481,
      "ulum": 482,
      "Ġvitae": 483,
      "ag": 484,
      "Ġesse": 485,
      "ari": 486,
      "ales": 487,
      "ectus": 488,
      "erum": 489,
      "erat": 490,
      "ĠDe": 491,
      "bus": 492,
      "Ġpot": 493,
      "ass": 494,
      "op": 495,
      "ullam": 496,
      "Ġul": 497,
      "idunt": 498,
      "ffic": 499,
      "Ġelit": 500,
      "Ġlac": 501,
      "Ġacc": 502,
      "ine": 503,
      "pp": 504,
      "Ġeget": 505,
      "Ġconsequ": 506,
      "ĠSed": 507,
      "ĠEt": 508,
      "Ġnisi": 509,
      "Ġquid": 510,
      "uris": 511,
      "av": 512,
      "eris": 513,
      "ellus": 514,
      "ĠB": 515,
      "ilis": 516,
      "Ġun": 517,
      "lis": 518,
      "erunt": 519,
      "Ġcu": 520,
      "Ġven": 521,
      "Ġdis": 522,
      "ih": 523,
      "Ġconsect": 524,
      "Ġsp": 525,
      "ers": 526,
      "iat": 527,
      "Ġcur": 528,
      "Ġod": 529,
      "rum": 530,
      "Ġpra": 531,
      "tion": 532,
      "ĠO": 533,
      "Ġsus": 534,
      "ĠG": 535,
      "Ġport": 536,
      "pisc": 537,
      "Ġrep": 538,
      "Ġhoc": 539,
      "atus": 540,
      "iti": 541,
      "anc": 542,
      "Ġtempor": 543,
      "Ġetiam": 544,
      "Ġconsectetur": 545,
      "Ġerat": 546,
      "Ġla": 547,
      "Ġante": 548,
      "endum": 549,
      "atum": 550,
      "Ġfr": 551,
      "Ġea": 552,
      "uis": 553,
      "amus": 554,
      "di": 555,
      "tor": 556,
      "Ġco": 557,
      "Ġ&": 558,
      "tra": 559,
      "Ġultr": 560,
      "Ġadi": 561,
      "iter": 562,
      "api": 563,
      "Ġnulla": 564,
      "Ġvelit": 565,
      "Ġneque": 566,
      "go": 567,
      "Ġmin": 568,
      "Ġtr": 569,
      "Ġlab": 570,
      "Ġnunc": 571,
      "itud": 572,
      "estib": 573,
      "erm": 574,
      "estibulum": 575,
      "ior": 576,
      "Ġas": 577,
      "int": 578,
      "lig": 579,
      "de": 580,
      "Ġsub": 581,
      "Ġtu": 582,
      "Ġmolesti": 583,
      "ata": 584,
      "Ġarc": 585,
      "onec": 586,
      "ff": 587,
      "incidunt": 588,
      "Ġinc": 589,
      "ene": 590,
      "entesque": 591,
      "ill": 592,
      "Ġur": 593,
      "Ġtur": 594,
      "anti": 595,
      "ellentesque": 596,
      "ub": 597,
      "Ġsapi": 598,
      "Ġanim": 599,
      "Ġ(": 600,
      "Ġca": 601,
      "Ġtincidunt": 602,
      "Ġsic": 603,
      "etus": 604,
      "Ġposs": 605,
      "endis": 606,
      "Ġob": 607,
      "tio": 608,
      "Ġmagna": 609,
      "na": 610,
      "ulp": 611,
      "Ġal": 612,
      "Ġmod": 613,
      "eri": 614,
      "Ġsec": 615,
      "ulis": 616,
      "vid": 617,
      "Ġqua": 618,
      "Ġoc": 619,
      "ig": 620,
      "Ġgra": 621,
      "risti": 622,
      "atem": 623,
      "Ġodio": 624,
      "Ġjus": 625,
      "Ġop": 626,
      "Ġtam": 627,
      "ov": 628,
      "Ġmat": 629,
      "Ġimp": 630,
      "atione": 631,
      "ans": 632,
      "Ġ1": 633,
      "Ġexp": 634,
      "Ġdign": 635,
      ",.": 636,
      "itate": 637,
      "Ġeum": 638,
      "Ġnostr": 639,
      "ei": 640,
      "Ã¦": 641,
      "Ġdes": 642,
      "Ġsim": 643,
      "Ġprim": 644,
      "tit": 645,
      "Ġph": 646,
      "Ġconv": 647,
      "Ġvid": 648,
      "atio": 649,
      "obis": 650,
      "eat": 651,
      "ali": 652,
      "auc": 653,
      "Ġcommod": 654,
      "oris": 655,
      "land": 656,
      "Ġpur": 657,
      "Ġmul": 658,
      "Ġlibero": 659,
      "Ġplac": 660,
      "Ġcr": 661,
      "Ġviv": 662,
      "Ġte": 663,
      "ationem": 664,
      "Ġter": 665,
      "aret": 666,
      "Ġdiam": 667,
      "ugiat": 668,
      "Ġprop": 669,
      "Ġfacilis": 670,
      "ii": 671,
      "Ġullam": 672,
      "alis": 673,
      "Ġst": 674,
      "elis": 675,
      "ihil": 676,
      "cipit": 677,
      "Ġaliquam": 678,
      "antur": 679,
      "Ġimper": 680,
      "Ġver": 681,
      "Ġmax": 682,
      "tim": 683,
      "Ġprae": 684,
      "Ġres": 685,
      "Ġvir": 686,
      "itudin": 687,
      "Ġsemper": 688,
      "Ġluc": 689,
      "ĠCh": 690,
      "itas": 691,
      "isus": 692,
      "Ġturpis": 693,
      "vin": 694,
      "piscing": 695,
      "uere": 696,
      "ex": 697,
      "Ġsuper": 698,
      "ibh": 699,
      "Ġeius": 700,
      "Ġdictum": 701,
      "ĠUt": 702,
      "ĠDonec": 703,
      "Ġaug": 704,
      "sus": 705,
      "Ġbland": 706,
      "eni": 707,
      "dum": 708,
      "Ġint": 709,
      "Ġmi": 710,
      "Ġnibh": 711,
      "Ġorci": 712,
      "Ġtellus": 713,
      "Ġcorp": 714,
      "Ġquas": 715,
      "Ġadipiscing": 716,
      "tin": 717,
      "assa": 718,
      "entia": 719,
      "Ġj": 720,
      "cl": 721,
      "Ġlorem": 722,
      "ost": 723,
      "Ìģ": 724,
      "Ġauc": 725,
      "Ġlectus": 726,
      "untur": 727,
      "cus": 728,
      "Ġis": 729,
      "Ġeos": 730,
      "itus": 731,
      "fer": 732,
      "ices": 733,
      "ĠMa": 734,
      "estas": 735,
      "Ġcond": 736,
      "iis": 737,
      "Ġrisus": 738,
      "Ġatque": 739,
      "Ġmassa": 740,
      "iae": 741,
      "Ġmauris": 742,
      "Ġpurus": 743,
      "Ġnisl": 744,
      "Ġleo": 745,
      "Ġdui": 746,
      "cor": 747,
      "aucibus": 748,
      "ortor": 749,
      "Ġpat": 750,
      "Ġjusto": 751,
      "Ġarcu": 752,
      "ios": 753,
      "Ġlacus": 754,
      "pat": 755,
      "ĠDomin": 756,
      "itatis": 757,
      "Ġnihil": 758,
      "Ġcomm": 759,
      "Ġrec": 760,
      "ada": 761,
      "Ġpul": 762,
      "Ġdeb": 763,
      "Ġfaucibus": 764,
      "Ġita": 765,
      "Ġvero": 766,
      "Ġauctor": 767,
      "Ġaugue": 768,
      "arius": 769,
      "Ġtortor": 770,
      "Ġurna": 771,
      "Ġsuscipit": 772,
      "Ġdignissim": 773,
      "Ġloc": 774,
      "Ġlig": 775,
      "Ġdel": 776,
      "Ġpraes": 777,
      "eret": 778,
      "up": 779,
      "Ġfelis": 780,
      "itum": 781,
      "Ġmetus": 782,
      "Ġreg": 783,
      "Ġomnis": 784,
      "itatem": 785,
      "Ġhomin": 786,
      "ĠAli": 787,
      "Ġtempus": 788,
      "alesu": 789,
      "Ġeros": 790,
      "alesuada": 791,
      "Ġrerum": 792,
      "Ġpotest": 793,
      "Ġann": 794,
      "Ġsum": 795,
      "Ġus": 796,
      "Ġsapien": 797,
      "Ġquibus": 798,
      "Ġsecund": 799,
      "Ġcong": 800,
      "Ġfe": 801,
      "Ġegestas": 802,
      "ente": 803,
      "erc": 804,
      "Ġmalesuada": 805,
      "Ġquidem": 806,
      "Ġbon": 807,
      "Ġligula": 808,
      "Ġcommodo": 809,
      "ĠAn": 810,
      "Ġinv": 811,
      "uri": 812,
      "ui": 813,
      "ortis": 814,
      "Ġgen": 815,
      "Ġpret": 816,
      "endi": 817,
      "Ġleg": 818,
      "utpat": 819,
      "ĠNam": 820,
      "hon": 821,
      "ĠJ": 822,
      "Ġocc": 823,
      "Ġapp": 824,
      "Ġ\"": 825,
      "Ġmor": 826,
      "Ġconsequat": 827,
      "Ġcomp": 828,
      "cept": 829,
      "Ġscel": 830,
      "Ġnobis": 831,
      "Ġsint": 832,
      "Ġoffic": 833,
      "teg": 834,
      "ĠPh": 835,
      "orm": 836,
      "Ġvolutpat": 837,
      "Ġcl": 838,
      "Ġman": 839,
      "Ġap": 840,
      "abitur": 841,
      "ĠPro": 842,
      "ip": 843,
      "ĠCon": 844,
      "edit": 845,
      "ina": 846,
      "dam": 847,
      "eh": 848,
      "erisque": 849,
      "Ġposuere": 850,
      "Ġfin": 851,
      "ch": 852,
      "Ġsanc": 853,
      "san": 854,
      "Ġultrices": 855,
      "Ġiac": 856,
      "Ġbib": 857,
      "corper": 858,
      "Ġtamen": 859,
      "Ġelem": 860,
      "ras": 861,
      "Ġtot": 862,
      "Ġius": 863,
      "Ġorn": 864,
      "dic": 865,
      "erv": 866,
      "Ġvestibulum": 867,
      "Ġullamcorper": 868,
      "Ġag": 869,
      "ristique": 870,
      "Ġpec": 871,
      "Ġvulp": 872,
      "allis": 873,
      "Ġluctus": 874,
      "Et": 875,
      "illa": 876,
      "Ġdec": 877,
      "agit": 878,
      "utate": 879,
      "erra": 880,
      "Ġfeugiat": 881,
      "ando": 882,
      "isque": 883,
      "Ġpretium": 884,
      "Ġpellentesque": 885,
      "Ġtristique": 886,
      "Ġblandit": 887,
      "Ġscelerisque": 888,
      "enas": 889,
      "imentum": 890,
      "itis": 891,
      "ĠCur": 892,
      "Ġpart": 893,
      "Ġcursus": 894,
      "Ġvulputate": 895,
      "Ġvoluptatem": 896,
      "ĠPra": 897,
      "eter": 898,
      "Ġsollic": 899,
      "Ġnum": 900,
      "entur": 901,
      "titor": 902,
      "enean": 903,
      "Ġinf": 904,
      "umsan": 905,
      "inia": 906,
      "Ġelementum": 907,
      "fend": 908,
      "og": 909,
      "obortis": 910,
      "Ġrem": 911,
      "aretra": 912,
      "Ġvarius": 913,
      "Ġmollis": 914,
      "Ġferm": 915,
      "Ġgr": 916,
      "Ġaliquet": 917,
      "sum": 918,
      "vida": 919,
      "icula": 920,
      "Ġpost": 921,
      "antum": 922,
      "rerit": 923,
      "Ġinterdum": 924,
      "icies": 925,
      "Ġporttitor": 926,
      "Ġmon": 927,
      "Ġeuis": 928,
      "Ġsagit": 929,
      "endrerit": 930,
      "Ġeuismod": 931,
      "oreet": 932,
      "diet": 933,
      "ep": 934,
      "Ġlobortis": 935,
      "Ġviverra": 936,
      "Ġfacilisis": 937,
      "Ġconvallis": 938,
      "Ġporta": 939,
      "ime": 940,
      "Ġmattis": 941,
      "Ġcongue": 942,
      "Ġcar": 943,
      "Ġpharetra": 944,
      "Ġbibendum": 945,
      "vinar": 946,
      "itu": 947,
      "ure": 948,
      "Ġten": 949,
      "Ġveh": 950,
      "Ġ2": 951,
      "oll": 952,
      "Ġhendrerit": 953,
      "qui": 954,
      "inis": 955,
      "Ġfili": 956,
      "ores": 957,
      "Ġaccumsan": 958,
      "Ġlaoreet": 959,
      "Ġimperdiet": 960,
      "Ġfug": 961,
      "Ġnam": 962,
      "Ġgravida": 963,
      "ingilla": 964,
      "endisse": 965,
      "Ġvenen": 966,
      "Ġfermentum": 967,
      "Ġlacinia": 968,
      "Ġsagittis": 969,
      "Ġultricies": 970,
      "Ġplacerat": 971,
      "Ġpulvinar": 972,
      "ica": 973,
      "pendisse": 974,
      "apibus": 975,
      "Ġfringilla": 976,
      "ccl": 977,
      "Ġoper": 978,
      "ang": 979,
      "ione": 980,
      "teger": 981,
      "Ġfid": 982,
      "Ġcondimentum": 983,
      "honcus": 984,
      "Ġsollicitudin": 985,
      "ulo": 986,
      "entis": 987,
      "Ġmolestie": 988,
      "Ġiaculis": 989,
      "Ġdapibus": 990,
      "Ġornare": 991,
      "Ġvenenatis": 992,
      "Ġsicut": 993,
      "utrum": 994,
      "Ġsod": 995,
      "eifend": 996,
      "ert": 997,
      "ionem": 998,
      "ccles": 999,
      "Ġrhoncus": 1000,
      "icet": 1001,
      "ĠAliquam": 1002,
      "Ġdolorem": 1003,
      "Ġvoluptas": 1004,
      "Ġeleifend": 1005,
      "Ġsal": 1006,
      "ato": 1007,
      "Ġfl": 1008,
      "ux": 1009,
      "Ġcaus": 1010,
      "Ġejus": 1011,
      "Ġsecundum": 1012,
      "irc": 1013,
      "Ġsodales": 1014,
      "Ġrutrum": 1015,
      "Ġhis": 1016,
      "Ġnatur": 1017,
      "Ġeffic": 1018,
      "Ġpers": 1019,
      "Ġmed": 1020,
      "enda": 1021,
      "ĠVestibulum": 1022,
      "Ġfu": 1023,
      "ĠDei": 1024,
      "Ġess": 1025,
      "asellus": 1026,
      "Ġvehicula": 1027,
      "ora": 1028,
      "Ġeo": 1029,
      "iores": 1030,
      "usce": 1031,
      "Ġduc": 1032,
      "ix": 1033,
      "Ġins": 1034,
      "rim": 1035,
      "Ġaccus": 1036,
      "Ġergo": 1037,
      "ĠEx": 1038,
      "Ġei": 1039,
      "Ġconsequatur": 1040,
      "Ġsac": 1041,
      "Ġti": 1042,
      "Ġmal": 1043,
      "uli": 1044,
      "eli": 1045,
      "Ġcap": 1046,
      "Ġhum": 1047,
      "reh": 1048,
      "ph": 1049,
      "ebat": 1050,
      "ĠNulla": 1051,
      "Ġred": 1052,
      "entium": 1053,
      "ie": 1054,
      "Ġconf": 1055,
      "ĠNon": 1056,
      "ĠPellentesque": 1057,
      "udi": 1058,
      "Ġhic": 1059,
      "Ġquos": 1060,
      "ific": 1061,
      "ÌĦ": 1062,
      "ĠNunc": 1063,
      "uta": 1064,
      "andae": 1065,
      "ĠPraes": 1066,
      "Ġdolore": 1067,
      "entiam": 1068,
      "ript": 1069,
      "esc": 1070,
      "pe": 1071,
      "Ġconst": 1072,
      "Ġfam": 1073,
      "ĠViv": 1074,
      "entem": 1075,
      "Ġmodo": 1076,
      "gis": 1077,
      "ibi": 1078,
      "Ġhaec": 1079,
      "era": 1080,
      "gitur": 1081,
      "Ġpecc": 1082,
      "ĠSus": 1083,
      "ua": 1084,
      "ationis": 1085,
      "ĠAd": 1086,
      "Ġtempore": 1087,
      "ile": 1088,
      "Ġexerc": 1089,
      "Ġcirc": 1090,
      "avit": 1091,
      "Ġomnes": 1092,
      "antium": 1093,
      "ĠMor": 1094,
      "ret": 1095,
      "ulus": 1096,
      "ĠEtiam": 1097,
      "ĠAt": 1098,
      "ire": 1099,
      "atibus": 1100,
      "Ġnomin": 1101,
      "Ġpo": 1102,
      "pse": 1103,
      "ĠDuis": 1104,
      "Ġund": 1105,
      "Ġquem": 1106,
      "tem": 1107,
      "ani": 1108,
      "Ġquasi": 1109,
      "Ġtibi": 1110,
      "lli": 1111,
      "pon": 1112,
      "Ġaliquid": 1113,
      "Ġnecess": 1114,
      "ern": 1115,
      "ram": 1116,
      "Ġno": 1117,
      "aecenas": 1118,
      "In": 1119,
      "ihi": 1120,
      "ĠNullam": 1121,
      "ura": 1122,
      "ult": 1123,
      "ann": 1124,
      "ĠCurabitur": 1125,
      "ima": 1126,
      "ĠVivamus": 1127,
      "ĠAenean": 1128,
      "Ġdix": 1129,
      "ĠMauris": 1130,
      "entibus": 1131,
      "ĠMaecenas": 1132,
      "itia": 1133,
      "Ġsign": 1134,
      "Ġev": 1135,
      "udic": 1136,
      "Ġhu": 1137,
      "ini": 1138,
      "Ġomnia": 1139,
      "Sed": 1140,
      "ĠPraesent": 1141,
      "Ġipsa": 1142,
      "ĠCras": 1143,
      "Ġmagis": 1144,
      "ĠQuisque": 1145,
      "Ġillum": 1146,
      "ĠMorbi": 1147,
      "Ġsoc": 1148,
      "Ġdolores": 1149,
      "pid": 1150,
      "Ġsae": 1151,
      "ĠInteger": 1152,
      "aud": 1153,
      "ĠFusce": 1154,
      "Ġvoc": 1155,
      "ĠPhasellus": 1156,
      "incip": 1157,
      "Ġmihi": 1158,
      "endo": 1159,
      "ale": 1160,
      "emus": 1161,
      "ite": 1162,
      "Ġpraec": 1163,
      "Ġdist": 1164,
      "ĠQui": 1165,
      "Ġdoc": 1166,
      "ĠSuspendisse": 1167,
      "ĠProin": 1168,
      "Ġpop": 1169,
      "Ġinst": 1170,
      "Ġsibi": 1171,
      "fect": 1172,
      "Ġhac": 1173,
      "tius": 1174,
      "Ġfuit": 1175,
      "Ġpon": 1176,
      "Ġilli": 1177,
      "Ġlit": 1178,
      "Ġrepell": 1179,
      "Ġubi": 1180,
      "Ġgl": 1181,
      "dem": 1182,
      "irm": 1183,
      "ĠDeus": 1184,
      "rehend": 1185,
      "isset": 1186,
      "Ġmaxime": 1187,
      "aris": 1188,
      "gr": 1189,
      "ĠRom": 1190,
      "vis": 1191,
      "ates": 1192,
      "Ġminus": 1193,
      "Ġmis": 1194,
      "Ġmort": 1195,
      "Ġeam": 1196,
      "Ġlaud": 1197,
      "Ġipse": 1198,
      "tionem": 1199,
      "Ġalter": 1200,
      "Ġuel": 1201,
      "ator": 1202,
      "Ġeorum": 1203,
      "Ġdicit": 1204,
      "quit": 1205,
      "vers": 1206,
      "tu": 1207,
      "Ġasper": 1208,
      "uer": 1209,
      "Ġcontra": 1210,
      "Ġquoque": 1211,
      "Ġigitur": 1212,
      "Ġign": 1213,
      "emo": 1214,
      "ĠChris": 1215,
      "pter": 1216,
      "lia": 1217,
      "Ġfacere": 1218,
      "ist": 1219,
      "Ġfinibus": 1220,
      "ĠCum": 1221,
      "iet": 1222,
      "Ġspec": 1223,
      "ĠSi": 1224,
      "Ġform": 1225,
      "all": 1226,
      "Ġmolestiae": 1227,
      "Ġlabore": 1228,
      "oqu": 1229,
      "Ġsine": 1230,
      "Ġvis": 1231,
      "ino": 1232,
      "Ġdom": 1233,
      "ĠAr": 1234,
      "ĠPr": 1235,
      "Ġcommun": 1236,
      "uo": 1237,
      "Ġefficitur": 1238,
      "Ġmaximus": 1239,
      "piscop": 1240,
      "Ġprincip": 1241,
      "olupt": 1242,
      "Ġilla": 1243,
      "Ġind": 1244,
      "enta": 1245,
      "Ġapud": 1246,
      "Ġdomin": 1247,
      "Ġcont": 1248,
      "Ġdicitur": 1249,
      "itt": 1250,
      "quid": 1251,
      "si": 1252,
      "Ġhabet": 1253,
      "Ġproc": 1254,
      "estr": 1255,
      "Ġmem": 1256,
      "Ġcogn": 1257,
      "Ġtrans": 1258,
      "tione": 1259,
      "Ġnov": 1260,
      "Ġaper": 1261,
      "ĠX": 1262,
      "Ġculp": 1263,
      "atu": 1264,
      "Ġspir": 1265,
      "Ġord": 1266,
      "le": 1267,
      "Ġaud": 1268,
      "ong": 1269,
      "ĠLorem": 1270,
      "uper": 1271,
      "enit": 1272,
      "Ġ-": 1273,
      "dit": 1274,
      "rem": 1275,
      "Ġdef": 1276,
      "icum": 1277,
      "ĠAl": 1278,
      "Ġsci": 1279,
      "iatur": 1280,
      "Ġveniam": 1281,
      "icus": 1282,
      "Ġfort": 1283,
      "Ġfec": 1284,
      "Ġfi": 1285,
      "Ġunde": 1286,
      "alem": 1287,
      "Ġille": 1288,
      "Ġch": 1289,
      "Ġsen": 1290,
      "Ġomnibus": 1291,
      "rib": 1292,
      "Ġimm": 1293,
      "Ġsua": 1294,
      "ne": 1295,
      "Ġcupid": 1296,
      "Ġpa": 1297,
      "isse": 1298,
      "ĠChristi": 1299,
      "Ġserv": 1300,
      "Ġcorr": 1301,
      "Ġcorporis": 1302,
      "Ġconc": 1303,
      "tibus": 1304,
      "Ġverb": 1305,
      "ĠDolor": 1306,
      "aria": 1307,
      "Lorem": 1308,
      "ĠQuod": 1309,
      "Ġillo": 1310,
      "icis": 1311,
      "Ġmund": 1312,
      "Ġerr": 1313,
      "ionis": 1314,
      "Ġcas": 1315,
      "ym": 1316,
      "pl": 1317,
      "Ġillud": 1318,
      "ĠAc": 1319,
      "itatibus": 1320,
      "equ": 1321,
      "Ġlabor": 1322,
      "Ġexc": 1323,
      "he": 1324,
      "Ġsens": 1325,
      "tut": 1326,
      "ationes": 1327,
      "ito": 1328,
      "Ġratione": 1329,
      "Ġiam": 1330,
      "asc": 1331,
      "plic": 1332,
      "ĠAut": 1333,
      "ach": 1334,
      "@#": 1335,
      "Ġnostra": 1336,
      "Ġpropter": 1337,
      "Ġdie": 1338,
      "ana": 1339,
      "ias": 1340,
      "uisse": 1341,
      "Ġfer": 1342,
      "Ġprod": 1343,
      "Ġtantum": 1344,
      "Ġculpa": 1345,
      "entiae": 1346,
      "hib": 1347,
      "Ġprob": 1348,
      "ĠDeo": 1349,
      "Ġtra": 1350,
      "abo": 1351,
      "Ġsaepe": 1352,
      "Ġcred": 1353,
      "Ġk": 1354,
      "ĠEccles": 1355,
      "Ġintell": 1356,
      "upti": 1357,
      "Ġnot": 1358,
      "ice": 1359,
      "Ġofficia": 1360,
      "Ġnostrum": 1361,
      "anus": 1362,
      "ecto": 1363,
      "ept": 1364,
      "ma": 1365,
      "ĠPat": 1366,
      "Ġesset": 1367,
      "Ġcre": 1368,
      "ensis": 1369,
      "ellig": 1370,
      "Ġelig": 1371,
      "ĠEst": 1372,
      "ane": 1373,
      "ĠVolupt": 1374,
      "oribus": 1375,
      "osc": 1376,
      "one": 1377,
      "Ġuti": 1378,
      "nde": 1379,
      "endus": 1380,
      "Ġhon": 1381,
      "Ġ<": 1382,
      "Ġexercit": 1383,
      "Ġpor": 1384,
      "Ġassum": 1385,
      "nis": 1386,
      "Ġmoll": 1387,
      "Ġem": 1388,
      "art": 1389,
      "Ġreprehend": 1390,
      "Ġfrat": 1391,
      "ust": 1392,
      "Ġanimi": 1393,
      "Ġdeserunt": 1394,
      "Ġ3": 1395,
      "enter": 1396,
      "Ġput": 1397,
      "II": 1398,
      "antes": 1399,
      "iu": 1400,
      "Ġsimili": 1401,
      "Ġdum": 1402,
      "ign": 1403,
      "omo": 1404,
      "Ġlaborum": 1405,
      "Ġfaci": 1406,
      "itiis": 1407,
      "ico": 1408,
      "Ġscript": 1409,
      "esci": 1410,
      "inus": 1411,
      "Ġduo": 1412,
      "tium": 1413,
      "Ġaff": 1414,
      "Ġabs": 1415,
      "ĠAm": 1416,
      "ider": 1417,
      "Ġeff": 1418,
      "Ġpen": 1419,
      "De": 1420,
      "Ġciv": 1421,
      "andum": 1422,
      "Ġintellig": 1423,
      "endit": 1424,
      "Ġtum": 1425,
      "Ġexcept": 1426,
      "Ġregn": 1427,
      "pici": 1428,
      "uti": 1429,
      "Ġdistinc": 1430,
      "ostol": 1431,
      "aliter": 1432,
      "eque": 1433,
      "Ġlong": 1434,
      "git": 1435,
      "Ġusque": 1436,
      "Ġvoluptate": 1437,
      "Ġanno": 1438,
      "Ġbene": 1439,
      "ĠIta": 1440,
      "Ġdiu": 1441,
      "Ġsequ": 1442,
      "inem": 1443,
      "Ġprimis": 1444,
      "Ġsing": 1445,
      "Ġerit": 1446,
      "Ġtor": 1447,
      "Ġunum": 1448,
      "ilicet": 1449,
      "ĠAb": 1450,
      "uum": 1451,
      "Ġurb": 1452,
      "lius": 1453,
      "Ġinquit": 1454,
      "urr": 1455,
      "erb": 1456,
      "Ġsuis": 1457,
      "inde": 1458,
      "Ġsuo": 1459,
      "ĠCom": 1460,
      "Ġadipis": 1461,
      "eniti": 1462,
      "Ġsolum": 1463,
      "icae": 1464,
      "Ġeis": 1465,
      "str": 1466,
      "uv": 1467,
      "Ġmea": 1468,
      "omen": 1469,
      "ord": 1470,
      "Ġdisc": 1471,
      "ĠEr": 1472,
      "Ġhabit": 1473,
      ":.": 1474,
      "Ġego": 1475,
      "oniam": 1476,
      "rig": 1477,
      "Ġuid": 1478,
      "Ġprovid": 1479,
      "Ġcausa": 1480,
      "Ġaqu": 1481,
      "Ġnull": 1482,
      "rae": 1483,
      "Ġsup": 1484,
      "Ġiusto": 1485,
      "Ġuir": 1486,
      "Ġpet": 1487,
      "Ġoccaec": 1488,
      "onis": 1489,
      "ano": 1490,
      "Ġfor": 1491,
      "ĠPl": 1492,
      "Ġdicta": 1493,
      "bit": 1494,
      "Ġitaque": 1495,
      "Ġpariatur": 1496,
      "Ġbeat": 1497,
      "Ġplur": 1498,
      "res": 1499,
      "Ġtac": 1500,
      "umque": 1501,
      "odo": 1502,
      "Ġglor": 1503,
      "00": 1504,
      "Ġreprehenderit": 1505,
      "Ġcer": 1506,
      "pos": 1507,
      "Ġtant": 1508,
      "Ġobs": 1509,
      "ĠSc": 1510,
      "vit": 1511,
      "Ġto": 1512,
      "inum": 1513,
      "?.": 1514,
      "ĠAp": 1515,
      "isc": 1516,
      "Ġfugiat": 1517,
      "act": 1518,
      "Ġlat": 1519,
      "Ġscilicet": 1520,
      "pic": 1521,
      "Ġit": 1522,
      "Ġopp": 1523,
      "Ġharum": 1524,
      "edita": 1525,
      "Ġ'": 1526,
      "Ġost": 1527,
      "tes": 1528,
      "Ġipsam": 1529,
      "Ġalias": 1530,
      "Ġiste": 1531,
      "Ġaliqua": 1532,
      "iones": 1533,
      "Ġmet": 1534,
      "Ġdonec": 1535,
      "ĠId": 1536,
      "erea": 1537,
      "Ġmorbi": 1538,
      "ublic": 1539,
      "Ġquando": 1540,
      "ĠFr": 1541,
      "Ġrel": 1542,
      "Ġexplic": 1543,
      "ive": 1544,
      "ĠQuid": 1545,
      "Ġideo": 1546,
      "Ġmil": 1547,
      "Ġtemporibus": 1548,
      "Ġalia": 1549,
      "Ġfuga": 1550,
      "Ġhos": 1551,
      "erent": 1552,
      "Ġiure": 1553,
      "if": 1554,
      "ÌĢ": 1555,
      "Ġquibusdam": 1556,
      "Ġarch": 1557,
      "ectum": 1558,
      "ĠSp": 1559,
      "tionis": 1560,
      "enae": 1561,
      "Ġpu": 1562,
      "Ġmun": 1563,
      "Ġsoluta": 1564,
      "Ġcol": 1565,
      "inam": 1566,
      "Ġadm": 1567,
      "sa": 1568,
      "Ġeccles": 1569,
      "edi": 1570,
      "Ġimpedit": 1571,
      "ulos": 1572,
      "ilium": 1573,
      "ĠMar": 1574,
      "ento": 1575,
      "eniet": 1576,
      "Ġval": 1577,
      "edic": 1578,
      "Ġnesci": 1579,
      "Ġdet": 1580,
      "urient": 1581,
      "Ġfames": 1582,
      "Ġnumquam": 1583,
      "Ġvirtut": 1584,
      "Ġvic": 1585,
      "anis": 1586,
      "Ġeligendi": 1587,
      "Ġcel": 1588,
      "Ġvoluptatum": 1589,
      "Ġcui": 1590,
      "tific": 1591,
      "Ġepiscop": 1592,
      "Ġdivin": 1593,
      "adem": 1594,
      "Ġdem": 1595,
      "yr": 1596,
      "Ġcal": 1597,
      "ilia": 1598,
      "Ġsalut": 1599,
      "udiandae": 1600,
      "Ġdolorum": 1601,
      "idit": 1602,
      "Ġearum": 1603,
      "Ġnatus": 1604,
      "ĠOm": 1605,
      "empl": 1606,
      "Ġdeleniti": 1607,
      "ĠCl": 1608,
      "ena": 1609,
      "ĠDominus": 1610,
      "Ġsimul": 1611,
      "Ġnemo": 1612,
      "th": 1613,
      "Ġquin": 1614,
      "Ġaccusamus": 1615,
      "Ġsep": 1616,
      "Ġsuum": 1617,
      "oph": 1618,
      "ebant": 1619,
      "arium": 1620,
      "Ġvos": 1621,
      "andi": 1622,
      "Ġmut": 1623,
      "Ġmo": 1624,
      "Ġcontin": 1625,
      "Ġsimilique": 1626,
      "Ġprof": 1627,
      "ies": 1628,
      "Ġhomo": 1629,
      "anum": 1630,
      "ĠVel": 1631,
      "iosam": 1632,
      "ĠNec": 1633,
      "Ġir": 1634,
      "Ġpossimus": 1635,
      "Ġrecus": 1636,
      "Ġsent": 1637,
      "Ġliber": 1638,
      "ev": 1639,
      "Ġdistinctio": 1640,
      "Ġneg": 1641,
      "Ġcoll": 1642,
      "Ġcumque": 1643,
      "Ġang": 1644,
      "Ġpertin": 1645,
      "Ġsumm": 1646,
      "ori": 1647,
      "reg": 1648,
      "ustr": 1649,
      "num": 1650,
      "onem": 1651,
      "Ġsuam": 1652,
      "pit": 1653,
      "Ġapt": 1654,
      "Ġibi": 1655,
      "tam": 1656,
      "no": 1657,
      "Ġomnium": 1658,
      "Ġpraedic": 1659,
      "Ġoptio": 1660,
      "Ġcorrupti": 1661,
      "Ġuna": 1662,
      "Ġmus": 1663,
      "Ġprom": 1664,
      "Ġparturient": 1665,
      "Ġped": 1666,
      "Ġducimus": 1667,
      "Ġidem": 1668,
      "Ġtim": 1669,
      "ni": 1670,
      "pere": 1671,
      "Ġmot": 1672,
      "Ġser": 1673,
      "Ġofficiis": 1674,
      "Si": 1675,
      "ĠDeum": 1676,
      "Ġcupiditate": 1677,
      "Ġpraesentium": 1678,
      "abat": 1679,
      "Ġplaceat": 1680,
      "ante": 1681,
      "urae": 1682,
      "Ġtempora": 1683,
      "Ad": 1684,
      "Ġmolestias": 1685,
      "Ġ4": 1686,
      "Ġprimum": 1687,
      "Ġaliis": 1688,
      "Ġblanditiis": 1689,
      "Ġtotam": 1690,
      "Ġcontr": 1691,
      "ys": 1692,
      "Ġloco": 1693,
      "Ġloqu": 1694,
      "eretur": 1695,
      "Ġrespon": 1696,
      "Ġexpedita": 1697,
      "ard": 1698,
      "Ġuero": 1699,
      "Ġduis": 1700,
      "Ġret": 1701,
      "Ġmollitia": 1702,
      "ath": 1703,
      "Ġsui": 1704,
      "Ġrepellendus": 1705,
      "Ġdignissimos": 1706,
      ";.": 1707,
      "Ġque": 1708,
      "icam": 1709,
      "Ġrect": 1710,
      "ĠDomini": 1711,
      "Ġsupra": 1712,
      "Ġporro": 1713,
      "abit": 1714,
      "Ġexcepturi": 1715,
      "Ġprovident": 1716,
      "Ġing": 1717,
      "Quod": 1718,
      "Ġnecessitatibus": 1719,
      "Ġref": 1720,
      "Ġiudic": 1721,
      "Ġparte": 1722,
      "Ġadh": 1723,
      "ĠIm": 1724,
      "Ġw": 1725,
      "Ġass": 1726,
      "Ġait": 1727,
      "co": 1728,
      "Ġassumenda": 1729,
      "ĠPer": 1730,
      "ax": 1731,
      "Ġfugit": 1732,
      "Ġmagni": 1733,
      "Ġmult": 1734,
      "Ġdebitis": 1735,
      "Ġaequ": 1736,
      "Ġappell": 1737,
      "itio": 1738,
      "ĠK": 1739,
      "Ġvolunt": 1740,
      "Ġmir": 1741,
      "ĠCor": 1742,
      "inae": 1743,
      "Ġpublic": 1744,
      "ĠOr": 1745,
      "atia": 1746,
      "ĠW": 1747,
      "Ġrepudiandae": 1748,
      "antia": 1749,
      "Ġoport": 1750,
      "Ġnoc": 1751,
      "natur": 1752,
      "esse": 1753,
      "ĠAs": 1754,
      "Ġtua": 1755,
      "Ġillis": 1756,
      "quis": 1757,
      "Ġminima": 1758,
      "Ġnomen": 1759,
      "ĠIll": 1760,
      "atim": 1761,
      "Nam": 1762,
      "Ġsignific": 1763,
      "iciendis": 1764,
      "Ġerror": 1765,
      "Ġpass": 1766,
      "Ġarg": 1767,
      "ier": 1768,
      "Non": 1769,
      "Ġpropri": 1770,
      "Ġtunc": 1771,
      "ĠSic": 1772,
      "Ġpac": 1773,
      "Ġbell": 1774,
      "ivers": 1775,
      "Ġjam": 1776,
      "tur": 1777,
      "Ġgrati": 1778,
      "Ġquisque": 1779,
      "ferendis": 1780,
      "au": 1781,
      "Ġvestr": 1782,
      "ĠQuis": 1783,
      "Ġcorpus": 1784,
      "Ġmagnam": 1785,
      "oni": 1786,
      "ai": 1787,
      "Ġveritatis": 1788,
      "Ġquisquam": 1789,
      "Ġol": 1790,
      "imum": 1791,
      "Ġmiser": 1792,
      "Ġnomine": 1793,
      "Ġtorqu": 1794,
      "Ġmens": 1795,
      "Ġstud": 1796,
      "ecti": 1797,
      "Ġsatis": 1798,
      "Ġmaiores": 1799,
      "Ġsequi": 1800,
      "ĠCa": 1801,
      "Ġvoluptatibus": 1802,
      "Ġdelectus": 1803,
      "Ġoccaecati": 1804,
      "Ġ:": 1805,
      "Ġpossit": 1806,
      "ĠQuia": 1807,
      "Ġmodi": 1808,
      "Ġopus": 1809,
      "Ġhuius": 1810,
      "Ġdiff": 1811,
      "isi": 1812,
      "Ġmei": 1813,
      "ationibus": 1814,
      "enus": 1815,
      "piciatis": 1816,
      "urg": 1817,
      "Ġcommodi": 1818,
      "entore": 1819,
      "itudinem": 1820,
      "Ġcuius": 1821,
      "Ġquantum": 1822,
      "Ġed": 1823,
      "idem": 1824,
      "Ġhanc": 1825,
      "Ġdilig": 1826,
      "ĠGra": 1827,
      "Ġtenetur": 1828,
      "Ġfuerit": 1829,
      "ĠTh": 1830,
      "Ġvoluptates": 1831,
      "omodo": 1832,
      "itecto": 1833,
      "Ġnim": 1834,
      "estim": 1835,
      "Ġsive": 1836,
      "ver": 1837,
      "Ġgener": 1838,
      "Ġdiss": 1839,
      "Ġsimil": 1840,
      "Ġrecusandae": 1841,
      "alia": 1842,
      "Ġadipisci": 1843,
      "odem": 1844,
      "angu": 1845,
      "Ġeveniet": 1846,
      "tae": 1847,
      "Ġaliud": 1848,
      "Ġlaboriosam": 1849,
      "Ġdixit": 1850,
      "Ġquant": 1851,
      "Ġmater": 1852,
      "Ġ#": 1853,
      "Ġ5": 1854,
      "Ġquad": 1855,
      "Ġomni": 1856,
      "utus": 1857,
      "Ġaperiam": 1858,
      "ĠReg": 1859,
      "Ġperm": 1860,
      "va": 1861,
      "ĠHoc": 1862,
      "ĠQuae": 1863,
      "Ġaeter": 1864,
      "Ġprimo": 1865,
      "Ġdoloribus": 1866,
      "abil": 1867,
      "ilos": 1868,
      "vi": 1869,
      "Ġdo": 1870,
      "cipi": 1871,
      "erd": 1872,
      "Ġsubst": 1873,
      "ĠSanc": 1874,
      "ide": 1875,
      "ric": 1876,
      "Ġconsequuntur": 1877,
      "Ġcan": 1878,
      "Ġexercitationem": 1879,
      "Ġdil": 1880,
      "Ġvobis": 1881,
      "Ġfieri": 1882,
      "Ġsuc": 1883,
      "Ġquoniam": 1884,
      "Ġnasc": 1885,
      "Ġexter": 1886,
      "Ġeaque": 1887,
      "ĠSit": 1888,
      "Ġodit": 1889,
      "ĠAug": 1890,
      "Ġdesc": 1891,
      "Ġnatura": 1892,
      "uerunt": 1893,
      "Ġ19": 1894,
      "Ġâ": 1895,
      "ĠSol": 1896,
      "ario": 1897,
      "Ġsapiente": 1898,
      "Ġdies": 1899,
      "Ġha": 1900,
      "Ġbeatae": 1901,
      "Ġreli": 1902,
      "Ġvix": 1903,
      "Ġbonum": 1904,
      "Ġconsul": 1905,
      "itae": 1906,
      "urum": 1907,
      "bilia": 1908,
      "ria": 1909,
      "ulg": 1910,
      "Ġhabere": 1911,
      "torum": 1912,
      "Ġadd": 1913,
      "Ġreiciendis": 1914,
      "Ġoff": 1915,
      "Ġincept": 1916,
      "Ġth": 1917,
      "Ġdep": 1918,
      "Ġdictumst": 1919,
      "Ġperf": 1920,
      "Ġrepellat": 1921,
      "Ġseu": 1922,
      "Ġasperiores": 1923,
      "Ġded": 1924,
      "unti": 1925,
      "modi": 1926,
      "umb": 1927,
      "imo": 1928,
      "Ġmand": 1929,
      "Ġhabitant": 1930,
      "Ġfut": 1931,
      "ilosoph": 1932,
      "pect": 1933,
      "Ġdim": 1934,
      "Ġtrib": 1935,
      "Ġperferendis": 1936,
      "Ġterra": 1937,
      "ĠPet": 1938,
      "ĠQuam": 1939,
      "alibus": 1940,
      "Ġsupp": 1941,
      "het": 1942,
      "ona": 1943,
      "Ġtem": 1944,
      "ress": 1945,
      "erant": 1946,
      "Ġipso": 1947,
      "ve": 1948,
      "itasse": 1949,
      "ĠIs": 1950,
      "Ġadhuc": 1951,
      "Ġeadem": 1952,
      "ecund": 1953,
      "Ġcircum": 1954,
      "Ġmemor": 1955,
      "Ġvidetur": 1956,
      "yp": 1957,
      "Ġfit": 1958,
      "ilius": 1959,
      "Ġposse": 1960,
      "ones": 1961,
      "Ġquaerat": 1962,
      "atea": 1963,
      "Ġhomines": 1964,
      "itudo": 1965,
      "Ġlitter": 1966,
      "Ġterr": 1967,
      "Ġsenectus": 1968,
      "idi": 1969,
      "ĠFac": 1970,
      "Ġrebus": 1971,
      "Ġhas": 1972,
      "Ġfab": 1973,
      "Ġaccusantium": 1974,
      "ips": 1975,
      "Ġcirca": 1976,
      "Ġdoloremque": 1977,
      "iri": 1978,
      "Ġperspiciatis": 1979,
      "Ġanti": 1980,
      "Ġnullam": 1981,
      "Ġnesciunt": 1982,
      "Ġpraet": 1983,
      "atos": 1984,
      "tea": 1985,
      "Ġrid": 1986,
      "Ġbe": 1987,
      "Ġlaudantium": 1988,
      "Ġsaec": 1989,
      "Ġinventore": 1990,
      "Ġpossunt": 1991,
      "Ġincidunt": 1992,
      "Ġnetus": 1993,
      "ĠQuo": 1994,
      "atoque": 1995,
      "Ġtorquent": 1996,
      "onum": 1997,
      "ebr": 1998,
      "Ġinu": 1999,
      "Ġini": 2000,
      "Ġproduc": 2001,
      "Ġsocios": 2002,
      "Ġexplicabo": 2003,
      "ota": 2004,
      "ĠEn": 2005,
      "ĠInter": 2006,
      "Ġarchitecto": 2007,
      "pet": 2008,
      "Ġsex": 2009,
      "Ġaenean": 2010,
      "yn": 2011,
      "bet": 2012,
      "Ġratio": 2013,
      "Ġaspernatur": 2014,
      "Ġcubilia": 2015,
      "Ġfacit": 2016,
      "issime": 2017,
      "Ġerant": 2018,
      "ĠSpir": 2019,
      "xit": 2020,
      "uet": 2021,
      "ĠHis": 2022,
      "Ġscrib": 2023,
      "Ġincid": 2024,
      "Ġapostol": 2025,
      "Ġlitora": 2026,
      "ubia": 2027,
      "Ġprius": 2028,
      "Ġplatea": 2029,
      "Ġinceptos": 2030,
      "ĠNos": 2031,
      "Ġaptent": 2032,
      "inqu": 2033,
      "Ġoptim": 2034,
      "Ġpraesent": 2035,
      "oss": 2036,
      "ola": 2037,
      "ĠIps": 2038,
      "Ġcoel": 2039,
      "Ġmov": 2040,
      "itudine": 2041,
      "iorum": 2042,
      "ĠLib": 2043,
      "Ġminim": 2044,
      "anda": 2045,
      "Ġista": 2046,
      "Ġhabitasse": 2047,
      "Ġlicet": 2048,
      "dus": 2049,
      "ulit": 2050,
      "Ġpal": 2051,
      "Ġinde": 2052,
      "ĠTemp": 2053,
      "rag": 2054,
      "erint": 2055,
      "ĠEa": 2056,
      "Ġsuae": 2057,
      "Ġgratia": 2058,
      "Ġetc": 2059,
      "....": 2060,
      "enis": 2061,
      "Ġnatoque": 2062,
      "Ġtest": 2063,
      "ĠPa": 2064,
      "Ġmar": 2065,
      "Ġrei": 2066,
      "Ġmulta": 2067,
      "Ġsucc": 2068,
      "Ġexempl": 2069,
      "Ġipsius": 2070,
      "Ġillius": 2071,
      "Ġdam": 2072,
      "ebatur": 2073,
      "Ġexs": 2074,
      "Ġconi": 2075,
      "enaeos": 2076,
      "Ġtaciti": 2077,
      "Ġsuspendisse": 2078,
      "Ġmagnis": 2079,
      "ha": 2080,
      "antibus": 2081,
      "ilio": 2082,
      "Ġhominum": 2083,
      "olog": 2084,
      "Ġusu": 2085,
      "Ġcop": 2086,
      "Ġdivers": 2087,
      "ĠMagn": 2088,
      "Ġconubia": 2089,
      "Ġjudic": 2090,
      "Ġmulti": 2091,
      "Ġeodem": 2092,
      "Ġuol": 2093,
      "atam": 2094,
      "Ġdebet": 2095,
      "ÌĪ": 2096,
      "Unde": 2097,
      "arii": 2098,
      "Ġipsi": 2099,
      "uerit": 2100,
      "Ġsociosqu": 2101,
      "Ġdol": 2102,
      "ros": 2103,
      "Ġvers": 2104,
      "pi": 2105,
      "Ġrefer": 2106,
      "ensi": 2107,
      "anae": 2108,
      "andem": 2109,
      "tia": 2110,
      "Ġfal": 2111,
      "Ġadvers": 2112,
      "Ġvim": 2113,
      "Ġserm": 2114,
      "Ġlud": 2115,
      "endam": 2116,
      "Ġuoc": 2117,
      "Ġordin": 2118,
      "umus": 2119,
      "quir": 2120,
      "ung": 2121,
      "ĠDic": 2122,
      "Ġcras": 2123,
      "ruc": 2124,
      "Ġdicendum": 2125,
      "ber": 2126,
      "Ġintr": 2127,
      "ecta": 2128,
      "Ġredd": 2129,
      "tiones": 2130,
      "asse": 2131,
      "Ġpros": 2132,
      "Ġfuisse": 2133,
      "ĠCons": 2134,
      "Ġfecit": 2135,
      "iculus": 2136,
      "Ġmontes": 2137,
      "rips": 2138,
      "Ġunivers": 2139,
      "Ġhabent": 2140,
      "entus": 2141,
      "erus": 2142,
      "issimum": 2143,
      "itionem": 2144,
      "Ġdiscip": 2145,
      "Ġpraest": 2146,
      "Ġpenatibus": 2147,
      "Ġhujus": 2148,
      "antem": 2149,
      "Ġtrad": 2150,
      "Ġquidam": 2151,
      "Ġprima": 2152,
      "atae": 2153,
      "Ġbre": 2154,
      "ĠAng": 2155,
      "ĠGraec": 2156,
      "Ġquaer": 2157,
      "imenaeos": 2158,
      "Ġ6": 2159,
      "ĠÎ": 2160,
      "ĠprÃ¦": 2161,
      "Ġos": 2162,
      "ons": 2163,
      "issima": 2164,
      "ea": 2165,
      "modum": 2166,
      "ida": 2167,
      "Ġlocum": 2168,
      "Ġnostri": 2169,
      "ulc": 2170,
      "Ġdisp": 2171,
      "ara": 2172,
      "Ġfund": 2173,
      "Ġtuum": 2174,
      "Ġsacerd": 2175,
      "Ġfig": 2176,
      "Ġquorum": 2177,
      "Qui": 2178,
      "Ġextr": 2179,
      "Ġinteger": 2180,
      "Ġminis": 2181,
      "uto": 2182,
      "ÌĤ": 2183,
      "enire": 2184,
      "uus": 2185,
      "Er": 2186,
      "rac": 2187,
      "Ġacce": 2188,
      "Ġsangu": 2189,
      "Ġgaud": 2190,
      "Ġfacta": 2191,
      "Ex": 2192,
      "Ġspiritu": 2193,
      "Ġunus": 2194,
      "Ġpars": 2195,
      "Ġplus": 2196,
      "Ġhimenaeos": 2197,
      "essus": 2198,
      "Ġvita": 2199,
      "yst": 2200,
      "Ġcompl": 2201,
      "Ġling": 2202,
      "sit": 2203,
      "Ġaur": 2204,
      "Ġindi": 2205,
      ").": 2206,
      "Ġcognosc": 2207,
      "ĠChristus": 2208,
      "Ġbona": 2209,
      "Ġprec": 2210,
      "rob": 2211,
      "At": 2212,
      "Ġcujus": 2213,
      "Ġconstit": 2214,
      "Ġinfer": 2215,
      "Ġstr": 2216,
      "erem": 2217,
      "Ġtab": 2218,
      "ĠLat": 2219,
      "ĠRep": 2220,
      "uxta": 2221,
      "ĠNe": 2222,
      "Ġlic": 2223,
      "ĠHaec": 2224,
      "Ġpartes": 2225,
      "Ġpropos": 2226,
      "ĠDomino": 2227,
      "Ġimag": 2228,
      "Ġatt": 2229,
      "Ġpri": 2230,
      "ast": 2231,
      "Ġanima": 2232,
      "Ġeiusmod": 2233,
      "Ġmerit": 2234,
      "Ġprophet": 2235,
      "qua": 2236,
      "fac": 2237,
      "Ġnostrud": 2238,
      "Ġux": 2239,
      "Ġphilosoph": 2240,
      "atorum": 2241,
      "Ġquomodo": 2242,
      "imi": 2243,
      "oli": 2244,
      "Ġcurabitur": 2245,
      "Ġpartem": 2246,
      "ĠConsequ": 2247,
      "Ġcunc": 2248,
      "itates": 2249,
      "iem": 2250,
      "utum": 2251,
      "lium": 2252,
      "oann": 2253,
      "ĠUnde": 2254,
      "aus": 2255,
      "Ġmel": 2256,
      "ulas": 2257,
      "ĠGal": 2258,
      "Ġsea": 2259,
      "Ġpostea": 2260,
      "Ġcorpore": 2261,
      "iens": 2262,
      "Ġalii": 2263,
      "itam": 2264,
      "ĠSt": 2265,
      "Ġpraefect": 2266,
      "cc": 2267,
      "ĠHic": 2268,
      "Ġcust": 2269,
      "Ġhunc": 2270,
      "Ġincididunt": 2271,
      "Ġperfect": 2272,
      "Ġext": 2273,
      "Ġ20": 2274,
      "eres": 2275,
      "Ġrelig": 2276,
      "Ġpraecip": 2277,
      "Ġrev": 2278,
      "ulae": 2279,
      "uius": 2280,
      "Ġprox": 2281,
      "ech": 2282,
      "Ġorb": 2283,
      "Ġrex": 2284,
      "Ġvide": 2285,
      "Ġintelleg": 2286,
      "apt": 2287,
      "uers": 2288,
      "Ġutrum": 2289,
      "ulorum": 2290,
      "Ġcogit": 2291,
      "Ġgenus": 2292,
      "Ġpauc": 2293,
      "Ġom": 2294,
      "Ġpati": 2295,
      "Ġdicere": 2296,
      "Ġaet": 2297,
      "Ġreper": 2298,
      "ionibus": 2299,
      "isti": 2300,
      "Ġperic": 2301,
      "rip": 2302,
      "atores": 2303,
      "ĠRe": 2304,
      "Sic": 2305,
      "ĠCar": 2306,
      "Ġproin": 2307,
      "Ġpotius": 2308,
      "Ġaudi": 2309,
      "Ġterram": 2310,
      ".@#": 2311,
      "Ġfilius": 2312,
      "uam": 2313,
      "abilis": 2314,
      "Ġfactum": 2315,
      "Ġexper": 2316,
      "Ġlum": 2317,
      "ĠMol": 2318,
      "Ġterm": 2319,
      "itiae": 2320,
      "abant": 2321,
      "ĠAugus": 2322,
      "ĠChristo": 2323,
      "Ġhor": 2324,
      "Ġon": 2325,
      "ident": 2326,
      "sc": 2327,
      "ĠTr": 2328,
      "Ġperpet": 2329,
      "Ġhominis": 2330,
      "ich": 2331,
      "ĠEl": 2332,
      "Ġequ": 2333,
      "urus": 2334,
      "Ġvul": 2335,
      "ulam": 2336,
      "icorum": 2337,
      "icem": 2338,
      "Ġmundi": 2339,
      "Ġrad": 2340,
      "Ġfur": 2341,
      "ocr": 2342,
      "odi": 2343,
      "),": 2344,
      "ĠLab": 2345,
      "Ġquaedam": 2346,
      "ĠItaque": 2347,
      "ereb": 2348,
      "Ġfruc": 2349,
      "Ġcael": 2350,
      "ĠPar": 2351,
      "Ġridiculus": 2352,
      "ĠquÃ¦": 2353,
      "ox": 2354,
      "itione": 2355,
      "elli": 2356,
      "eta": 2357,
      "ebus": 2358,
      "Ġarm": 2359,
      "trum": 2360,
      "ariis": 2361,
      "Ġnascetur": 2362,
      "Ġmanu": 2363,
      "Ġz": 2364,
      "Ġindic": 2365,
      "Ġincl": 2366,
      "idum": 2367,
      "Ġamb": 2368,
      "Ġhominem": 2369,
      "enique": 2370,
      "ĠSal": 2371,
      "Ġfirm": 2372,
      "ism": 2373,
      "Cum": 2374,
      "Ġmultis": 2375,
      "Ġsancti": 2376,
      "Ġfidem": 2377,
      "ebit": 2378,
      "Ġiis": 2379,
      "ou": 2380,
      "ron": 2381,
      "etis": 2382,
      "Ġ7": 2383,
      "Ġillam": 2384,
      "cce": 2385,
      "udae": 2386,
      "Ġclass": 2387,
      "issimi": 2388,
      "icos": 2389,
      "eterea": 2390,
      "essit": 2391,
      "ĠEcclesiae": 2392,
      "Ġmodum": 2393,
      "pist": 2394,
      "Ġsept": 2395,
      "Ġaliquip": 2396,
      "enum": 2397,
      "ecenas": 2398,
      "Ġomnino": 2399,
      "tos": 2400,
      "oth": 2401,
      "Ġmanus": 2402,
      "alium": 2403,
      "Ġgrav": 2404,
      "umm": 2405,
      "onium": 2406,
      "Ġnun": 2407,
      "Ġforte": 2408,
      "Ġmaecenas": 2409,
      "uram": 2410,
      "yl": 2411,
      "Ġpag": 2412,
      "Ġnego": 2413,
      "ĠVen": 2414,
      "Ġmanif": 2415,
      "An": 2416,
      "eant": 2417,
      "ond": 2418,
      "ĠApostol": 2419,
      "ru": 2420,
      "tas": 2421,
      "Ġpater": 2422,
      "Ġamp": 2423,
      "Ġmemb": 2424,
      "Ġaed": 2425,
      "iles": 2426,
      "Ġcolor": 2427,
      "Ġappar": 2428,
      "Ġchar": 2429,
      "Ġrest": 2430,
      "Ġperson": 2431,
      "ĠNeque": 2432,
      "Ġmiss": 2433,
      "Ġinterp": 2434,
      "Ġsanctus": 2435,
      "aretur": 2436,
      "inta": 2437,
      "antis": 2438,
      "Ġrationem": 2439,
      "Ġdia": 2440,
      "Ġtotum": 2441,
      "sal": 2442,
      "Ġarbit": 2443,
      "Ġpatri": 2444,
      "Ġasc": 2445,
      "Ġuno": 2446,
      "Ġpraefecturae": 2447,
      "fici": 2448,
      "nam": 2449,
      "enedic": 2450,
      "Ġtota": 2451,
      "Ġlibro": 2452,
      "Ġsimplic": 2453,
      "Ġdedit": 2454,
      "ides": 2455,
      "Ġaux": 2456,
      "Quid": 2457,
      "Ġostend": 2458,
      "Ġcurae": 2459,
      "Ġvitam": 2460,
      "Ġvi": 2461,
      "Ġdicens": 2462,
      "Ġturb": 2463,
      "Ġsubi": 2464,
      "su": 2465,
      "illum": 2466,
      "Ġinteg": 2467,
      "ĠBr": 2468,
      "ular": 2469,
      "tidi": 2470,
      "Ġfinem": 2471,
      "Ġprot": 2472,
      "ĠZ": 2473,
      "Ġpol": 2474,
      "da": 2475,
      "obus": 2476,
      "Ġfo": 2477,
      "Ġconcl": 2478,
      "avi": 2479,
      "Ġpotenti": 2480,
      "ĠFranc": 2481,
      "Ġ8": 2482,
      "Ġforma": 2483,
      "Ġvig": 2484,
      "Î¿": 2485,
      "anquam": 2486,
      "libet": 2487,
      "Ġdiem": 2488,
      "Ġperv": 2489,
      "Ġinn": 2490,
      "...": 2491,
      "Ġomne": 2492,
      "Ġmer": 2493,
      "ugn": 2494,
      "etera": 2495,
      "Ġcam": 2496,
      "Ġnol": 2497,
      "Ġoportet": 2498,
      "Ġcaput": 2499,
      "Ġmeli": 2500,
      "quidem": 2501,
      "ĠQua": 2502,
      "Ġmaj": 2503,
      "Ġlap": 2504,
      "Ġpraem": 2505,
      "Ġpres": 2506,
      "Ġverum": 2507,
      "Ġaqua": 2508,
      "Ġle": 2509,
      "epit": 2510,
      "Ġadv": 2511,
      "par": 2512,
      "ĠUn": 2513,
      "ĠOmnis": 2514,
      "Ġmeum": 2515,
      "issent": 2516,
      "ĠEv": 2517,
      "Ġperd": 2518,
      "nes": 2519,
      "Ġprov": 2520,
      "ectio": 2521,
      "Ġpugn": 2522,
      "ppe": 2523,
      "Ġspiritus": 2524,
      "Ġinim": 2525,
      "Î¹": 2526,
      "Ġson": 2527,
      "Ġalt": 2528,
      "ĠJes": 2529,
      "Ġquat": 2530,
      "Ġfere": 2531,
      "Ergo": 2532,
      "Ġpeccatum": 2533,
      "och": 2534,
      "Ġcruc": 2535,
      "plex": 2536,
      "Ġlaboris": 2537,
      "Ġtres": 2538,
      "Ġmaior": 2539,
      "ĠChristum": 2540,
      "Ġdefin": 2541,
      "Ġcert": 2542,
      "ĠErgo": 2543,
      "Ġtuo": 2544,
      "ella": 2545,
      "Î±": 2546,
      "Ġconstitu": 2547,
      "Ġingr": 2548,
      "arr": 2549,
      "Ġquaesti": 2550,
      "Ġgem": 2551,
      "issimus": 2552,
      "Ġtuam": 2553,
      "Ġannos": 2554,
      "ĠNihil": 2555,
      "Ġpraeter": 2556,
      ".,": 2557,
      "Ġsuos": 2558,
      "icip": 2559,
      "Ġalio": 2560,
      "eru": 2561,
      "ĠMat": 2562,
      "Ġsil": 2563,
      "red": 2564,
      "Ġmelius": 2565,
      "Ġverba": 2566,
      "ĠVoluptatem": 2567,
      "Ġden": 2568,
      "Ġiterum": 2569,
      "rog": 2570,
      "Ġphasellus": 2571,
      "ĠEu": 2572,
      "ĠSunt": 2573,
      "ĠCaes": 2574,
      "Ġdeinde": 2575,
      "Ġspect": 2576,
      "Ut": 2577,
      "Ġomnem": 2578,
      "Ġfide": 2579,
      "auit": 2580,
      "ĠPrim": 2581,
      "ĠEnim": 2582,
      "Ġau": 2583,
      "anorum": 2584,
      "Ġmortem": 2585,
      "Ġof": 2586,
      "Ġlo": 2587,
      "Ġnaturae": 2588,
      "Ġmotus": 2589,
      "Ġnostro": 2590,
      "Ġmilit": 2591,
      "Ġuerb": 2592,
      "ĠVir": 2593,
      "Pra": 2594,
      "Ġopera": 2595,
      "ĠLuc": 2596,
      "ete": 2597,
      "ĠSim": 2598,
      "Ä±": 2599,
      "Ġextra": 2600,
      "Ġsti": 2601,
      "Ġsumus": 2602,
      "modo": 2603,
      "ectionem": 2604,
      "Ġaliquando": 2605,
      "Ġmateria": 2606,
      "aster": 2607,
      "Ġrespond": 2608,
      "Ġtract": 2609,
      "ĠTe": 2610,
      "lor": 2611,
      "Ġthe": 2612,
      "unque": 2613,
      "Ġsacram": 2614,
      "Ġnostris": 2615,
      "ique": 2616,
      "ute": 2617,
      "libus": 2618,
      "rium": 2619,
      "Ġmiseric": 2620,
      "Ġalb": 2621,
      "angeli": 2622,
      "Ġcompos": 2623,
      "Ġvere": 2624,
      "amur": 2625,
      "Ġultim": 2626,
      "ĠEcclesia": 2627,
      "Ġregis": 2628,
      "etuer": 2629,
      "Ita": 2630,
      "eps": 2631,
      "Ġdoctr": 2632,
      "ense": 2633,
      "Ġmalum": 2634,
      "ido": 2635,
      "Ġagn": 2636,
      "edere": 2637,
      "ĠComm": 2638,
      "aed": 2639,
      "una": 2640,
      "Ġessent": 2641,
      "Ġfidei": 2642,
      "uae": 2643,
      "arch": 2644,
      "ĠNum": 2645,
      "ĠMolesti": 2646,
      "eper": 2647,
      "Ġvivamus": 2648,
      "amm": 2649,
      "iunt": 2650,
      "Ġtui": 2651,
      "arent": 2652,
      "Ġposset": 2653,
      "ĠRerum": 2654,
      "ĠThe": 2655,
      "Hoc": 2656,
      "Ġdev": 2657,
      "Ġsuas": 2658,
      "Ġfacile": 2659,
      "Ġfacilisi": 2660,
      "Ġvest": 2661,
      "Ġfilii": 2662,
      "Ġdiv": 2663,
      "XX": 2664,
      "rus": 2665,
      "ĠEum": 2666,
      "oh": 2667,
      "Ġsper": 2668,
      "Ġuen": 2669,
      "Ġnoster": 2670,
      "ecum": 2671,
      "estum": 2672,
      "Ġconsider": 2673,
      "Ġconfirm": 2674,
      "ĠCap": 2675,
      "antiam": 2676,
      "Ġopin": 2677,
      "odie": 2678,
      "Ġsociis": 2679,
      "cum": 2680,
      "Ġipsis": 2681,
      "Ġdex": 2682,
      "\".": 2683,
      "Ġiuv": 2684,
      "ĠTer": 2685,
      "Ġinterpret": 2686,
      "ines": 2687,
      "Ġpecun": 2688,
      "ĠAtque": 2689,
      "Ġfusce": 2690,
      "Ġ9": 2691,
      "Ġsan": 2692,
      "isit": 2693,
      "ĠScript": 2694,
      "elic": 2695,
      "Ġdon": 2696,
      "Ġnav": 2697,
      "Ġanimo": 2698,
      "itati": 2699,
      "osa": 2700,
      "Ġuer": 2701,
      "Con": 2702,
      "Ġdiffer": 2703,
      "Ġnecesse": 2704,
      "Ġmulto": 2705,
      "Ġcompar": 2706,
      "pta": 2707,
      "Ġcib": 2708,
      "ĠClass": 2709,
      "Ġannis": 2710,
      "rah": 2711,
      "Ġeas": 2712,
      "Ġnaturam": 2713,
      "ibile": 2714,
      "Ġdesider": 2715,
      "Ġinfirm": 2716,
      "Ġdemon": 2717,
      "inistr": 2718,
      "!.": 2719,
      "Î½": 2720,
      "Ġhinc": 2721,
      "Pro": 2722,
      "Ġusus": 2723,
      "Ġgenere": 2724,
      "Ġintra": 2725,
      "Ġpatet": 2726,
      "ga": 2727,
      "eth": 2728,
      "Ġvinc": 2729,
      "Ġstatim": 2730,
      "andam": 2731,
      "uro": 2732,
      "Ġpriv": 2733,
      "Ġfre": 2734,
      "eteris": 2735,
      "Ġmeus": 2736,
      "Ġpauper": 2737,
      "Ġcant": 2738,
      "dis": 2739,
      "enn": 2740,
      "Ġlev": 2741,
      "Ġ18": 2742,
      "xx": 2743,
      "Ġscrips": 2744,
      "ulli": 2745,
      "Ġdiebus": 2746,
      "elicet": 2747,
      "Ġcausam": 2748,
      "ilem": 2749,
      "ĠMax": 2750,
      "Ġpulch": 2751,
      "Ġdiffic": 2752,
      "anos": 2753,
      "exus": 2754,
      "Ġtandem": 2755,
      "ered": 2756,
      "inas": 2757,
      "Ġincol": 2758,
      "Ġhuic": 2759,
      "estig": 2760,
      "Ġsenti": 2761,
      "lo": 2762,
      "Ġexis": 2763,
      "rio": 2764,
      "endere": 2765,
      "abatur": 2766,
      "Ġpraecept": 2767,
      "rius": 2768,
      "abili": 2769,
      "asi": 2770,
      "Ġline": 2771,
      "Ġquar": 2772,
      "Ġclam": 2773,
      "enam": 2774,
      "Ġvirtus": 2775,
      "Nec": 2776,
      "ecit": 2777,
      "Ġdub": 2778,
      "issa": 2779,
      "Ġtoll": 2780,
      "Ġav": 2781,
      "cipere": 2782,
      "rist": 2783,
      "idis": 2784,
      "ariae": 2785,
      "Ġaliquo": 2786,
      "ĠDominum": 2787,
      "mo": 2788,
      "Ġignor": 2789,
      "atuor": 2790,
      "ese": 2791,
      "atoris": 2792,
      "itudinis": 2793,
      "Ġib": 2794,
      "Ġsequitur": 2795,
      "Ġpopulo": 2796,
      "onia": 2797,
      "Ġcommune": 2798,
      "do": 2799,
      "Ġgratiam": 2800,
      "Ġta": 2801,
      "Ġdisput": 2802,
      "amen": 2803,
      "estin": 2804,
      "esta": 2805,
      "ĠAmet": 2806,
      "utis": 2807,
      "Ġspecies": 2808,
      "Ġterrae": 2809,
      "Ġaliquis": 2810,
      "ĠEs": 2811,
      "Ġ*": 2812,
      "Ġdelect": 2813,
      "Ġingen": 2814,
      "ĠLa": 2815,
      "ĠSpiritus": 2816,
      "Ġdici": 2817,
      "Ġinquam": 2818,
      "la": 2819,
      "Ġconsectetuer": 2820,
      "Ġdicunt": 2821,
      "ĠTur": 2822,
      "Ġaccid": 2823,
      "Ġcad": 2824,
      "Ġconu": 2825,
      "Ġ10": 2826,
      "Ġhominibus": 2827,
      "Ġdecl": 2828,
      "Ġmerc": 2829,
      "Ġexercitation": 2830,
      "averunt": 2831,
      "Ġcelebr": 2832,
      "ĠSecund": 2833,
      "emb": 2834,
      "Ġargum": 2835,
      "Ġullamco": 2836,
      "Ġolim": 2837,
      "estis": 2838,
      "ĠUr": 2839,
      ",@#": 2840,
      "Ġanimae": 2841,
      "Quia": 2842,
      "Ġgub": 2843,
      "Ġkai": 2844,
      "ÌĨ": 2845,
      "fr": 2846,
      "ationi": 2847,
      "Ġpere": 2848,
      "Ġall": 2849,
      "ĠImper": 2850,
      "Ġ15": 2851,
      "Ġinven": 2852,
      "Ġadhib": 2853,
      "Ġstat": 2854,
      "issimo": 2855,
      "ĠGerm": 2856,
      "Ġcul": 2857,
      "ho": 2858,
      "Ġfamili": 2859,
      "ĠEos": 2860,
      "Ġvt": 2861,
      "nus": 2862,
      "rop": 2863,
      "Ġalios": 2864,
      "ĠUl": 2865,
      "arg": 2866,
      "ĠMin": 2867,
      "Ġmulier": 2868,
      "ĠPon": 2869,
      "Ġcarn": 2870,
      "Ġvenit": 2871,
      "Ġsiue": 2872,
      "Ġrecip": 2873,
      "ĠPost": 2874,
      "Ġrog": 2875,
      "Ġtemporis": 2876,
      "ĠNov": 2877,
      "ĠIsra": 2878,
      "Ġcustod": 2879,
      "Ġsuffic": 2880,
      "Ġtestim": 2881,
      "inceps": 2882,
      "Ġhistor": 2883,
      "ĠCo": 2884,
      "Ġfactus": 2885,
      "Ġinstit": 2886,
      "Ġvell": 2887,
      "Quae": 2888,
      "Ġverbis": 2889,
      "ribus": 2890,
      "Ġdomum": 2891,
      "Ġqual": 2892,
      "inibus": 2893,
      "abile": 2894,
      "asti": 2895,
      "ĠDolorem": 2896,
      "Ġtanquam": 2897,
      "Ġposter": 2898,
      "Ġquippe": 2899,
      "este": 2900,
      "Ġelect": 2901,
      "ania": 2902,
      "Ġard": 2903,
      "Ġnob": 2904,
      "Ġregnum": 2905,
      "icing": 2906,
      "Ġmedi": 2907,
      "Ġillos": 2908,
      "Ġmedio": 2909,
      "Ġspeci": 2910,
      "Ġrecte": 2911,
      "Haec": 2912,
      "Ġadeo": 2913,
      "Ġtamquam": 2914,
      "uisset": 2915,
      "Ġlocis": 2916,
      "ĠDel": 2917,
      "ĠVoluptas": 2918,
      "Ġpotentia": 2919,
      "ĠAutem": 2920,
      "ĠMo": 2921,
      "Ġabb": 2922,
      "Ġabsol": 2923,
      "Id": 2924,
      "ca": 2925,
      "ĠDec": 2926,
      "Ġpopulus": 2927,
      "Ġ[": 2928,
      "cili": 2929,
      "onte": 2930,
      "-.": 2931,
      "Ġcreatur": 2932,
      "Ġquatuor": 2933,
      "Ġaute": 2934,
      "Ġfrequ": 2935,
      "Ġcog": 2936,
      "eu": 2937,
      "entio": 2938,
      "Ġcens": 2939,
      "ebantur": 2940,
      "Ġy": 2941,
      "Ġobi": 2942,
      "Ġdamn": 2943,
      "Ġfrig": 2944,
      "erentur": 2945,
      "ĠIsrael": 2946,
      "Ġpotuit": 2947,
      "ĠItem": 2948,
      "eph": 2949,
      "ursus": 2950,
      "Ġfilium": 2951,
      "Ġgraec": 2952,
      "Ġalterum": 2953,
      "Ġplures": 2954,
      "Ġore": 2955,
      "ĠVelit": 2956,
      "escit": 2957,
      "Ġtuae": 2958,
      "Ġcrim": 2959,
      "ectione": 2960,
      "Ġadipisicing": 2961,
      "Ġappet": 2962,
      "entius": 2963,
      "pir": 2964,
      "Ġmultum": 2965,
      "ĠOffic": 2966,
      "ĠRes": 2967,
      "athol": 2968,
      "ĠPater": 2969,
      "Ġpopuli": 2970,
      "Ġanimam": 2971,
      "Ġobl": 2972,
      "Ġclar": 2973,
      "Ġmeo": 2974,
      "Ġaltera": 2975,
      "ĠGr": 2976,
      "Ġvac": 2977,
      "itor": 2978,
      "Ġcorpora": 2979,
      "ĠNexus": 2980,
      "bol": 2981,
      "ittit": 2982,
      "ĠIus": 2983,
      "ioribus": 2984,
      "Ġalic": 2985,
      "Ġunius": 2986,
      "Ġmonaster": 2987,
      "ĠEg": 2988,
      "Ġepist": 2989,
      "Ġ/": 2990,
      "iliter": 2991,
      "Ġtuis": 2992,
      "Ġull": 2993,
      "ativ": 2994,
      "eribus": 2995,
      "Ġdico": 2996,
      "ĠCurae": 2997,
      "uas": 2998,
      "Ġlonge": 2999,
      "Ġmala": 3000,
      "eur": 3001,
      "Ġadj": 3002,
      "Ġutil": 3003,
      "Ġpoenit": 3004,
      "Ġlocus": 3005,
      "ĠConsequatur": 3006,
      "ioris": 3007,
      "anam": 3008,
      "Ġdomus": 3009,
      "ĠOp": 3010,
      "Ġaedific": 3011,
      "uetud": 3012,
      "Ġconvers": 3013,
      "eti": 3014,
      "Ġprohib": 3015,
      "ĠConst": 3016,
      "Ġvirtute": 3017,
      "udit": 3018,
      "Ġuic": 3019,
      "ĠAeg": 3020,
      "Ġvalde": 3021,
      "entorum": 3022,
      "Ġnullo": 3023,
      "Ġostendit": 3024,
      "Ġquodam": 3025,
      "iora": 3026,
      "idus": 3027,
      "Ġoccas": 3028,
      "Ġsepar": 3029,
      "Ġvin": 3030,
      "Ġsomn": 3031,
      "Ġextrem": 3032,
      "Ġdicuntur": 3033,
      "atas": 3034,
      "Ġpiet": 3035,
      "Ġepiscopus": 3036,
      "Ġbenefic": 3037,
      "uu": 3038,
      "Ġort": 3039,
      "ote": 3040,
      "ins": 3041,
      "titia": 3042,
      "ectu": 3043,
      "Ġstatu": 3044,
      "ĠApp": 3045,
      "ĠSem": 3046,
      "Ġdemonstr": 3047,
      "Ġprud": 3048,
      "Ġaliter": 3049,
      "Ġamic": 3050,
      "Ġsor": 3051,
      "Ġtanto": 3052,
      "Ġfratres": 3053,
      "Ġdicat": 3054,
      "Ġori": 3055,
      "cis": 3056,
      "Ġconj": 3057,
      "Ġapplic": 3058,
      "eno": 3059,
      "Ġvari": 3060,
      "Ġrequir": 3061,
      "atat": 3062,
      "eum": 3063,
      "trib": 3064,
      "Ġiniqu": 3065,
      "Ġpap": 3066,
      "itatum": 3067,
      "ĠDi": 3068,
      "Ġeffici": 3069,
      "Ġnumero": 3070,
      "imur": 3071,
      "Ġpostul": 3072,
      "Ġquic": 3073,
      "ĠNo": 3074,
      "Ġpossumus": 3075,
      "atorem": 3076,
      "Ġnostrae": 3077,
      "Ġmali": 3078,
      "uga": 3079,
      "Ġcerte": 3080,
      "Ġinstrum": 3081,
      "Ġhodie": 3082,
      "iorem": 3083,
      "ĠEgo": 3084,
      "Ġirure": 3085,
      "Ġexhib": 3086,
      "ĠPers": 3087,
      "Ġconting": 3088,
      "Ġui": 3089,
      "inos": 3090,
      "arb": 3091,
      "Ġdeser": 3092,
      "etum": 3093,
      "ĠPos": 3094,
      "Ġmale": 3095,
      "Ġsingulis": 3096,
      "Ġ12": 3097,
      "Ġmeam": 3098,
      "ĠVer": 3099,
      "Ġregem": 3100,
      "eles": 3101,
      "ecim": 3102,
      "Ġreliqu": 3103,
      "III": 3104,
      "Ġtit": 3105,
      "Ġlux": 3106,
      "hor": 3107,
      "nia": 3108,
      "ĠAdi": 3109,
      "Ġgloria": 3110,
      "Ġexistim": 3111,
      "ĠInterdum": 3112,
      "Ġsumma": 3113,
      "ĠII": 3114,
      "ĠAg": 3115,
      "pectu": 3116,
      "rehens": 3117,
      "Ġcorde": 3118,
      "ĠOb": 3119,
      "amentum": 3120,
      "erumque": 3121,
      "Ġfacult": 3122,
      "itium": 3123,
      "Ġdelic": 3124,
      "ĠMon": 3125,
      "Ġmateri": 3126,
      "Ġconsilium": 3127,
      "Ġvult": 3128,
      "lem": 3129,
      "Ġnonn": 3130,
      "arem": 3131,
      "etr": 3132,
      "Ġsubj": 3133,
      "tro": 3134,
      "Ġexterni": 3135,
      "Ġtanta": 3136,
      "ĠArch": 3137,
      "Ġactu": 3138,
      "ĠDomine": 3139,
      "Ġinfin": 3140,
      "Ĥ¬": 3141,
      "Ġiter": 3142,
      "Ġhi": 3143,
      "Ġlibert": 3144,
      "ĠInc": 3145,
      "Ġhabeat": 3146,
      "Ġconsilio": 3147,
      "ĠâĢ": 3148,
      "ĠÂ": 3149,
      "Ġopt": 3150,
      "Ġangel": 3151,
      "Ġlign": 3152,
      "Ġep": 3153,
      "Ġfem": 3154,
      "usa": 3155,
      "ĠAugustin": 3156,
      "Ġmeis": 3157,
      "Ġlege": 3158,
      "Ġvirg": 3159,
      "Ġsubl": 3160,
      "endas": 3161,
      "Ġcillum": 3162,
      "Ġtribus": 3163,
      "Ġantiqu": 3164,
      "Ġsalutem": 3165,
      "Ġcapit": 3166,
      "Ġcontem": 3167,
      "ton": 3168,
      "ĠâĤ¬": 3169,
      "Ġdenique": 3170,
      "ĠTu": 3171,
      "ermin": 3172,
      "ĠSint": 3173,
      "Ġsin": 3174,
      "Îµ": 3175,
      "orro": 3176,
      "Ġmac": 3177,
      "lum": 3178,
      "Ġquinque": 3179,
      "Ġdominus": 3180,
      "Ġsensus": 3181,
      "raph": 3182,
      "Ġpede": 3183,
      "ivit": 3184,
      "Ġpas": 3185,
      "Ġtoto": 3186,
      "Ġobserv": 3187,
      "Ġregione": 3188,
      "Ġquamvis": 3189,
      "Ġmox": 3190,
      "Ġquaes": 3191,
      "bo": 3192,
      "ĠJudae": 3193,
      "Ġexig": 3194,
      "ortun": 3195,
      "erci": 3196,
      "Item": 3197,
      "ĠLe": 3198,
      "Ġtran": 3199,
      "Ġannum": 3200,
      "iii": 3201,
      "imis": 3202,
      "Ġactus": 3203,
      "Ġaccept": 3204,
      "Ġduobus": 3205,
      "Ġdur": 3206,
      "Ali": 3207,
      "Ġnimis": 3208,
      "ationum": 3209,
      "Ġflum": 3210,
      "Ġmisericord": 3211,
      "Ġfuerat": 3212,
      "Ġarb": 3213,
      "Ġbenedic": 3214,
      "Ill": 3215,
      "Ġumb": 3216,
      "emor": 3217,
      "Ġsubstanti": 3218,
      "ularis": 3219,
      "eto": 3220,
      "Ġhaud": 3221,
      "Ġtemper": 3222,
      "Ġnunquam": 3223,
      "iori": 3224,
      "ĠAlex": 3225,
      "ĠHisp": 3226,
      "Ġ11": 3227,
      "Ġtent": 3228,
      "tic": 3229,
      "ilii": 3230,
      "Ġaus": 3231,
      "Ġordine": 3232,
      "Ġbonorum": 3233,
      "bum": 3234,
      "ingu": 3235,
      "ĠHier": 3236,
      "Ġsententia": 3237,
      "Ġda": 3238,
      "Ġgeneris": 3239,
      "Ġoculis": 3240,
      "otum": 3241,
      "Ġuis": 3242,
      "ĠEpiscop": 3243,
      "Ġamplius": 3244,
      "itiam": 3245,
      "Ġpraef": 3246,
      "Ġmagno": 3247,
      "Ġvia": 3248,
      "Ġmitt": 3249,
      "ĠIpsum": 3250,
      "Ġexist": 3251,
      "Ġsummo": 3252,
      "ĠOcc": 3253,
      "Ġverbum": 3254,
      "Ġabst": 3255,
      "ÏĦ": 3256,
      "Ġutique": 3257,
      "Ġcali": 3258,
      "atius": 3259,
      "ĠOd": 3260,
      "Ġquadr": 3261,
      "mus": 3262,
      "Ġpaulo": 3263,
      "Ġnonum": 3264,
      "Ġadul": 3265,
      "Ġoccaecat": 3266,
      "Ġsacri": 3267,
      "Ġimpl": 3268,
      "omm": 3269,
      "Ġ16": 3270,
      "pto": 3271,
      "Ġnem": 3272,
      "Ġcoram": 3273,
      "Ġspl": 3274,
      "Ġconsec": 3275,
      "Ġwisi": 3276,
      "Ġqualis": 3277,
      "essum": 3278,
      "Ġaccip": 3279,
      "Ġsociet": 3280,
      "Ġdux": 3281,
      "nae": 3282,
      "ela": 3283,
      "Ġnullum": 3284,
      "ith": 3285,
      "Ġpotes": 3286,
      "ror": 3287,
      "Ġpraeb": 3288,
      "Ġmundo": 3289,
      "Ġfides": 3290,
      "Ġdei": 3291,
      "ectionis": 3292,
      "Ġurbem": 3293,
      "Ġscriptum": 3294,
      "Ġsubs": 3295,
      "Ġcat": 3296,
      "Ġunam": 3297,
      "Ġproident": 3298,
      "Ġast": 3299,
      "ĠDuo": 3300,
      "Ġtri": 3301,
      "yd": 3302,
      "Ġsur": 3303,
      "Ġhonor": 3304,
      "Ġsola": 3305,
      "Ġdesign": 3306,
      "Ġbonis": 3307,
      "Ì§": 3308,
      "Ġsch": 3309,
      "Ġindustr": 3310,
      "Ġcupidatat": 3311,
      "Ġcommend": 3312,
      "Ġboni": 3313,
      "by": 3314,
      "Ġsolet": 3315,
      "Ġviri": 3316,
      "Ġpuer": 3317,
      "Ġjuxta": 3318,
      "abis": 3319,
      "Ġpropria": 3320,
      "Ġoratio": 3321,
      "Ġtalis": 3322,
      "Ġcetera": 3323,
      "eros": 3324,
      "Ġnut": 3325,
      "Ġfiat": 3326,
      "Ġ201": 3327,
      "tior": 3328,
      "Ġnullus": 3329,
      "Ġdomini": 3330,
      "Ġorig": 3331,
      "ĠTum": 3332,
      "ĠArist": 3333,
      "men": 3334,
      "estatis": 3335,
      "Ġtotius": 3336,
      "tiv": 3337,
      "Ġfol": 3338,
      "oci": 3339,
      "Ġfuerunt": 3340,
      "Ġquot": 3341,
      "Ġbellum": 3342,
      "Ġdiscipl": 3343,
      "Ġmollit": 3344,
      "Ġprimus": 3345,
      "Ġmori": 3346,
      "Ġpraed": 3347,
      "aph": 3348,
      "ĠSe": 3349,
      "eritas": 3350,
      "ĠNisi": 3351,
      "eam": 3352,
      "Ġlaet": 3353,
      "ĠJoann": 3354,
      "atium": 3355,
      "tionibus": 3356,
      "Ġtrium": 3357,
      "Ġdissenti": 3358,
      "ares": 3359,
      "Ġmorte": 3360,
      "Ġsecundo": 3361,
      "Ġtrah": 3362,
      "Ġaeg": 3363,
      "Ġdispos": 3364,
      "onom": 3365,
      "Ġmultiplic": 3366,
      "ectis": 3367,
      "lam": 3368,
      "Ġren": 3369,
      "Ġsane": 3370,
      "Ġitem": 3371,
      "ĠÃ¦": 3372,
      "Ġseptem": 3373,
      "Ġmalis": 3374,
      "ulta": 3375,
      "Ã¦c": 3376,
      "Ġpunc": 3377,
      "Ġaccipi": 3378,
      "Ġnig": 3379,
      "ĠAccus": 3380,
      "uxit": 3381,
      "Ġteneb": 3382,
      "Ġsplend": 3383,
      "ertim": 3384,
      "non": 3385,
      "Ġsustin": 3386,
      "Ġbr": 3387,
      "iret": 3388,
      "endos": 3389,
      "ĠQ": 3390,
      "Ġuirtut": 3391,
      "tri": 3392,
      "Ġsese": 3393,
      "Ġpertinet": 3394,
      "Ġpect": 3395,
      "Ġlegis": 3396,
      "ĠIam": 3397,
      "Ġsalv": 3398,
      "Ġpartibus": 3399,
      "Ġrelinqu": 3400,
      "Ġcent": 3401,
      "Ġintellectus": 3402,
      "uos": 3403,
      "Est": 3404,
      "Ġciu": 3405,
      "endae": 3406,
      "Ġdivis": 3407,
      "itiones": 3408,
      "Ġpostquam": 3409,
      "ĠNemo": 3410,
      "Ġformam": 3411,
      "iuers": 3412,
      "ĠVitae": 3413,
      "itionis": 3414,
      "andis": 3415,
      "olis": 3416,
      "Praeterea": 3417,
      "pius": 3418,
      "ĠAlexand": 3419,
      "Ġmach": 3420,
      "Ġconsuetud": 3421,
      "ĠSancti": 3422,
      "tris": 3423,
      "ĠSac": 3424,
      "Ġfuisset": 3425,
      "Ġinstitu": 3426,
      "aptism": 3427,
      "ĠIst": 3428,
      "Ġfilio": 3429,
      "Ġfun": 3430,
      "Om": 3431,
      "ujus": 3432,
      "Ġsimiliter": 3433,
      "Ġpropor": 3434,
      "Ġagit": 3435,
      "ptus": 3436,
      "lu": 3437,
      "Ġignis": 3438,
      "Ġmedium": 3439,
      "oto": 3440,
      "ecus": 3441,
      "Ġsupplic": 3442,
      "ĠMed": 3443,
      "Ġpatris": 3444,
      "Ġmentis": 3445,
      "cript": 3446,
      "Per": 3447,
      "ĠAnti": 3448,
      "Ġvestra": 3449,
      "Ġhost": 3450,
      "esset": 3451,
      "Ġprincipium": 3452,
      "inere": 3453,
      "Ġparum": 3454,
      "Ġalius": 3455,
      "issimis": 3456,
      "Ġultra": 3457,
      "ĠCas": 3458,
      "Ġnit": 3459,
      "Ġ17": 3460,
      "Ġdivina": 3461,
      "Ġpond": 3462,
      "Ġton": 3463,
      "Ġnamque": 3464,
      "Ġvictor": 3465,
      "Ġdubit": 3466,
      "Ġobli": 3467,
      "Ġvera": 3468,
      "Ġoculos": 3469,
      "Ġregni": 3470,
      "Ġparv": 3471,
      "Ġsuccess": 3472,
      "ft": 3473,
      "Ġillic": 3474,
      "Ġeiusdem": 3475,
      "ĠQuibus": 3476,
      "Ġhabuit": 3477,
      "Ġexpet": 3478,
      "Ġconsci": 3479,
      "Ġcura": 3480,
      "ĠFilius": 3481,
      "ibilis": 3482,
      "con": 3483,
      "Ġillorum": 3484,
      "Ġpror": 3485,
      "so": 3486,
      "les": 3487,
      "Ġanni": 3488,
      "Ġpeccata": 3489,
      "ĠDuc": 3490,
      "Ġveni": 3491,
      "ĠPol": 3492,
      "Ġmortis": 3493,
      "enim": 3494,
      "Ġindign": 3495,
      "Ġcand": 3496,
      "Ġmanibus": 3497,
      "ĠCal": 3498,
      "atoribus": 3499,
      "Ġiub": 3500,
      "leg": 3501,
      "Ġlegem": 3502,
      "ĠDes": 3503,
      "oti": 3504,
      "Ġpopulum": 3505,
      "eas": 3506,
      "gress": 3507,
      "Ġprope": 3508,
      "Ġglad": 3509,
      "Ġurbe": 3510,
      "Ġinduc": 3511,
      "Ġmore": 3512,
      "Dic": 3513,
      "Ġidest": 3514,
      "Ġsignificat": 3515,
      "Ġmom": 3516,
      "ĠCam": 3517,
      "ptum": 3518,
      "Ġiud": 3519,
      "Ġpossess": 3520,
      "Ġsimilis": 3521,
      "ĠConsect": 3522,
      "Ġgrad": 3523,
      "ind": 3524,
      "Ġfine": 3525,
      "Ġvidelicet": 3526,
      "ĠLeg": 3527,
      "Ġhuiusmodi": 3528,
      "ĠMag": 3529,
      "pend": 3530,
      "Ġinsign": 3531,
      "Ġnovum": 3532,
      "Ġrap": 3533,
      "Ġru": 3534,
      "usque": 3535,
      "aci": 3536,
      "byter": 3537,
      "otis": 3538,
      "Ġsubstantia": 3539,
      "Ġnostram": 3540,
      "ĠEur": 3541,
      "Ġminime": 3542,
      "Ġhabemus": 3543,
      "Ġoccurr": 3544,
      "Ġabsque": 3545,
      "Ġnarr": 3546,
      "Ġmagnum": 3547,
      "Ġduas": 3548,
      "abor": 3549,
      "rorum": 3550,
      "Ġpersec": 3551,
      "onibus": 3552,
      "Ġcurr": 3553,
      "Ġvalet": 3554,
      "Ġminister": 3555,
      "cep": 3556,
      "ĠCorp": 3557,
      "acta": 3558,
      "Ġeleg": 3559,
      "Ġcollig": 3560,
      "Ġmare": 3561,
      "Ġsuff": 3562,
      "Ġdulc": 3563,
      "Ġscripta": 3564,
      "Ġ>": 3565,
      "ĠIes": 3566,
      "Ġibidem": 3567,
      "Ġdiuers": 3568,
      "Hic": 3569,
      "Ġsententiam": 3570,
      "udo": 3571,
      "Ġoccid": 3572,
      "acia": 3573,
      "Ġlim": 3574,
      "admodum": 3575,
      "Ġfaciunt": 3576,
      "ommod": 3577,
      "arn": 3578,
      "Ġgloriam": 3579,
      "itter": 3580,
      "arc": 3581,
      "ensum": 3582,
      "Ġiuxta": 3583,
      "Ġmonach": 3584,
      "eterum": 3585,
      "Ġnomina": 3586,
      "Ġual": 3587,
      "iit": 3588,
      "Ġdare": 3589,
      "Ġproced": 3590,
      "Ġcarnis": 3591,
      "vinci": 3592,
      "Ġvelut": 3593,
      "ĠAsper": 3594,
      "Ġnub": 3595,
      "Ġmente": 3596,
      "Ġ14": 3597,
      "Ġlingua": 3598,
      "ĠHab": 3599,
      "Ġmart": 3600,
      "eunt": 3601,
      "Ġerunt": 3602,
      "Ġmen": 3603,
      "Ġinfra": 3604,
      "enses": 3605,
      "anu": 3606,
      "ĠFacilis": 3607,
      "inci": 3608,
      "Ġfuerint": 3609,
      "Ġconveni": 3610,
      "ĠLac": 3611,
      "Ġsuorum": 3612,
      "Ġobtin": 3613,
      "Ġsigna": 3614,
      "ĠImp": 3615,
      "Ġcess": 3616,
      "ĠPlac": 3617,
      "ĠDolores": 3618,
      "Ġconfess": 3619,
      "Ġpleb": 3620,
      "Ġanimal": 3621,
      "tores": 3622,
      "Ġmodus": 3623,
      "Ġhuman": 3624,
      "ĠMolestiae": 3625,
      "Ġdetermin": 3626,
      "Ġvindic": 3627,
      "Ġsignum": 3628,
      "Ġvener": 3629,
      "Ġsanct": 3630,
      "Ġprou": 3631,
      "Ġsanctum": 3632,
      "uda": 3633,
      "Ġdicam": 3634,
      "Ġsanguine": 3635,
      "ites": 3636,
      "ĠY": 3637,
      "Ġdomo": 3638,
      "Ġmyst": 3639,
      "ĠGen": 3640,
      "Ġnunti": 3641,
      "Ġsancto": 3642,
      "ĠInv": 3643,
      "ĠSapi": 3644,
      "icas": 3645,
      "Ġcern": 3646,
      "Ġum": 3647,
      "ok": 3648,
      "Ġnondum": 3649,
      "apti": 3650,
      "Ġrub": 3651,
      "Ġduos": 3652,
      "ĠExcept": 3653,
      "Ġsolus": 3654,
      "titiam": 3655,
      "actus": 3656,
      "Ġfelic": 3657,
      "oro": 3658,
      "anter": 3659,
      "Ġcae": 3660,
      "Ġpoterit": 3661,
      "Ġubique": 3662,
      "Ġsanctorum": 3663,
      "Ġeloqu": 3664,
      "Ġfall": 3665,
      "Ġalterius": 3666,
      "Ġprincipes": 3667,
      "orr": 3668,
      "Ġinveni": 3669,
      "Ġprofect": 3670,
      "ulari": 3671,
      "Ġ<<": 3672,
      "ĠVol": 3673,
      "Ġamore": 3674,
      "averit": 3675,
      "cord": 3676,
      "Ġscire": 3677,
      "aculum": 3678,
      "ellis": 3679,
      "mi": 3680,
      "Ġdecem": 3681,
      "ĠEsse": 3682,
      "ĠSuper": 3683,
      "Ġteg": 3684,
      "Ġecclesia": 3685,
      "ĠMac": 3686,
      "Ġordinem": 3687,
      "ustra": 3688,
      "aepe": 3689,
      "ule": 3690,
      "Ġdig": 3691,
      "ĠIoann": 3692,
      "ĠPraeterea": 3693,
      "sis": 3694,
      "Ġvidit": 3695,
      "eatur": 3696,
      "Ġloquitur": 3697,
      "Ġvestri": 3698,
      "Ġconstat": 3699,
      "inti": 3700,
      "Ġprol": 3701,
      "Ġusum": 3702,
      "irum": 3703,
      "Ġarma": 3704,
      "Ġpariter": 3705,
      "Ġcapite": 3706,
      "eram": 3707,
      "Ġdiceret": 3708,
      "Ġconstruc": 3709,
      "Prim": 3710,
      "Ġ13": 3711,
      "Ġhomine": 3712,
      "ĠDav": 3713,
      "Ġration": 3714,
      "Ġquanto": 3715,
      "Ġsubd": 3716,
      "Ġuolunt": 3717,
      "usc": 3718,
      "ĠVid": 3719,
      "Ġinterret": 3720,
      "ĠAnd": 3721,
      "err": 3722,
      "osque": 3723,
      "az": 3724,
      "Ġprocul": 3725,
      "erg": 3726,
      "Ġhered": 3727,
      "ĠOc": 3728,
      "ãģ": 3729,
      "ohann": 3730,
      "Ġdir": 3731,
      "Ġinstruc": 3732,
      "Ïģ": 3733,
      "ĠRem": 3734,
      "Ġfrater": 3735,
      "Ġpurg": 3736,
      "Ġmans": 3737,
      "Ġstet": 3738,
      "Ġpontific": 3739,
      "aptiz": 3740,
      "ĠSu": 3741,
      "otes": 3742,
      "Ġconclus": 3743,
      "Ġnocte": 3744,
      "Ġbrev": 3745,
      "Ġofficium": 3746,
      "US": 3747,
      "ĠBland": 3748,
      "Ġfas": 3749,
      "idium": 3750,
      "ĠOrci": 3751,
      "Ġscientia": 3752,
      "abunt": 3753,
      "uerat": 3754,
      "Ġfilios": 3755,
      "Ġejusdem": 3756,
      "ĠApostolus": 3757,
      "asset": 3758,
      "Ġexst": 3759,
      "Ġillustr": 3760,
      "ĠAcc": 3761,
      "ĠCol": 3762,
      "Ġcaec": 3763,
      "Ġaestim": 3764,
      "Ġdata": 3765,
      "ioni": 3766,
      "issimos": 3767,
      "Ġadmir": 3768,
      "Ġobsc": 3769,
      "Ġadversus": 3770,
      "ille": 3771,
      "ĠPaulus": 3772,
      "llam": 3773,
      "ĠDign": 3774,
      "yri": 3775,
      "Ġmos": 3776,
      "uimus": 3777,
      "incia": 3778,
      "ionum": 3779,
      "Ġecclesias": 3780,
      "Ġaduers": 3781,
      "ensem": 3782,
      "Ġetsi": 3783,
      "Ġsacrific": 3784,
      "Ġbono": 3785,
      "Ġnegoti": 3786,
      "Ġanimum": 3787,
      "Ġeffectus": 3788,
      "ĠPo": 3789,
      "Ġreduc": 3790,
      "Quam": 3791,
      "escere": 3792,
      "cing": 3793,
      "Ġduplic": 3794,
      "ĠSept": 3795,
      "liae": 3796,
      "Ġabi": 3797,
      "Ġtria": 3798,
      "ĠAristot": 3799,
      "Ġtale": 3800,
      "roque": 3801,
      "Ġiri": 3802,
      "Ġfra": 3803,
      "itto": 3804,
      "ĠDeinde": 3805,
      "ĠRepell": 3806,
      "Ġ200": 3807,
      "Ġtex": 3808,
      "Ġdat": 3809,
      "Ïħ": 3810,
      "Ġpedes": 3811,
      "Ġpossint": 3812,
      "ĠFl": 3813,
      "Ġdeduc": 3814,
      "olu": 3815,
      "Ġopere": 3816,
      "ĠSub": 3817,
      "Ġindig": 3818,
      "rom": 3819,
      "Ġfideli": 3820,
      "yth": 3821,
      "peret": 3822,
      "entu": 3823,
      "tig": 3824,
      "Ġquidquid": 3825,
      "ĠHi": 3826,
      "arth": 3827,
      "fl": 3828,
      "Ġuestr": 3829,
      "Ġaure": 3830,
      "Ġsolu": 3831,
      "Ġsyn": 3832,
      "ĠCommun": 3833,
      "Ġtuus": 3834,
      "acula": 3835,
      "Ġcausae": 3836,
      "arunt": 3837,
      "ĠSicut": 3838,
      "Ġmedia": 3839,
      "Ġaliam": 3840,
      "ĠEius": 3841,
      "Ġcongreg": 3842,
      "Ġfinis": 3843,
      "etetur": 3844,
      "Ġmanum": 3845,
      "abantur": 3846,
      "Ġpotestate": 3847,
      "Ġloci": 3848,
      "Ġperegr": 3849,
      "mine": 3850,
      "Ġdefend": 3851,
      "ĠCu": 3852,
      "Ġhom": 3853,
      "Ġadol": 3854,
      "Ġplag": 3855,
      "Ġauctoritate": 3856,
      "Ġvidere": 3857,
      "exit": 3858,
      "Ġoccup": 3859,
      "Ġist": 3860,
      "Ġcorpor": 3861,
      "Ġbello": 3862,
      "imam": 3863,
      "Ġaquae": 3864,
      "Ġplura": 3865,
      "Ġferre": 3866,
      "cir": 3867,
      "Ġnumerus": 3868,
      "Ġparticip": 3869,
      "adips": 3870,
      "iore": 3871,
      "Ġseptim": 3872,
      "Ġpisc": 3873,
      "Ġconfer": 3874,
      "Ġplen": 3875,
      "Ġcit": 3876,
      "ĠInde": 3877,
      "Ġadmodum": 3878,
      "ĠEvangeli": 3879,
      "ĠEurop": 3880,
      "Ġsecunda": 3881,
      "Secund": 3882,
      "cumque": 3883,
      ">>": 3884,
      "ĠAnno": 3885,
      "anno": 3886,
      "Ġcordis": 3887,
      "ĠCr": 3888,
      "ÌĮ": 3889,
      "Ġampl": 3890,
      "Ġcommunic": 3891,
      "Ġfructus": 3892,
      "Ġrob": 3893,
      "adipscing": 3894,
      "Ìĵ": 3895,
      "mina": 3896,
      "ittere": 3897,
      "ĠOdio": 3898,
      "Ġmuli": 3899,
      "Ġrursus": 3900,
      "aro": 3901,
      "Ġamor": 3902,
      "Ġcler": 3903,
      "ĠSen": 3904,
      "Ġtransm": 3905,
      "Ġimperium": 3906,
      "Ġalium": 3907,
      "Ġaliquod": 3908,
      "iepiscop": 3909,
      "Ġperc": 3910,
      "Ġlibris": 3911,
      "Ġprem": 3912,
      "ellum": 3913,
      "Ġadministr": 3914,
      "Ġexcl": 3915,
      "ĠQuos": 3916,
      "otus": 3917,
      "CC": 3918,
      "Ac": 3919,
      "ariam": 3920,
      "aur": 3921,
      "Ġsecret": 3922,
      "Ġconcept": 3923,
      "emur": 3924,
      "Ġsemel": 3925,
      "Ġresurr": 3926,
      "ÏĤ": 3927,
      "Ġrelic": 3928,
      "ĠSoc": 3929,
      "Ġerud": 3930,
      "Ġprofess": 3931,
      "Ġpotestatem": 3932,
      "ĠConsectetur": 3933,
      "ĠXX": 3934,
      "Ġsuav": 3935,
      "Ġsolv": 3936,
      "Ġprincipio": 3937,
      "ĠRomani": 3938,
      "Ġpeccato": 3939,
      "embris": 3940,
      "Ġpatrem": 3941,
      "Ġdeus": 3942,
      "yc": 3943,
      "Ġsaltem": 3944,
      "Ġuos": 3945,
      "Ġant": 3946,
      "Ġaliorum": 3947,
      "ĠBo": 3948,
      "rep": 3949,
      "ellae": 3950,
      "pond": 3951,
      "Ġbaptiz": 3952,
      "Ġspeciem": 3953,
      "Ġinterrog": 3954,
      "Ġuobis": 3955,
      "Ġseru": 3956,
      "ĠSam": 3957,
      "irmod": 3958,
      "Ġmembra": 3959,
      "Ġdomino": 3960,
      "abilem": 3961,
      "Ġseips": 3962,
      "Ġpersequ": 3963,
      "iosa": 3964,
      "Ġtut": 3965,
      "Ġdixi": 3966,
      "Ġsecum": 3967,
      "Ġagere": 3968,
      "iarum": 3969,
      "Ġabund": 3970,
      "Ġclaus": 3971,
      "Ġx": 3972,
      "Ġpatria": 3973,
      "Ġcuncta": 3974,
      "ĠMel": 3975,
      "bis": 3976,
      "ĠAth": 3977,
      "ĠCumque": 3978,
      "Ġmanifest": 3979,
      "Ġbeati": 3980,
      "Ġvirtutem": 3981,
      "ĠDavid": 3982,
      "Ġmundum": 3983,
      "abiliter": 3984,
      "Ġgenera": 3985,
      "Ġbas": 3986,
      "oque": 3987,
      "Ġsadipscing": 3988,
      "Ġcathol": 3989,
      "Ġaccepit": 3990,
      "rix": 3991,
      "ialis": 3992,
      "Ġspecie": 3993,
      "erti": 3994,
      "pterea": 3995,
      "Ġuniuers": 3996,
      "Ġpluribus": 3997,
      "Ġpersona": 3998,
      "ixit": 3999,
      "ĠGu": 4000,
      "Ġtertium": 4001,
      "Ġlex": 4002,
      "Ì¨": 4003,
      "Ġdiximus": 4004,
      "upisc": 4005,
      "Ġmedic": 4006,
      "Ġsolis": 4007,
      "olorum": 4008,
      "Ġmetu": 4009,
      "Ġtang": 4010,
      "undum": 4011,
      "eruntur": 4012,
      "Ġfore": 4013,
      "js": 4014,
      "Ġic": 4015,
      "asque": 4016,
      "Ġexspect": 4017,
      "Ġpropriet": 4018,
      "Ġfoed": 4019,
      "Ġmaxima": 4020,
      "Ġviam": 4021,
      "Ġinvidunt": 4022,
      "Ġaudire": 4023,
      "aginta": 4024,
      "Ġfiunt": 4025,
      "uni": 4026,
      "Ġgradus": 4027,
      "olv": 4028,
      "Ġexemplum": 4029,
      "line": 4030,
      "Ġpraesertim": 4031,
      "arios": 4032,
      "ĠPrincip": 4033,
      "Ġomitt": 4034,
      "ĠCat": 4035,
      "Ġconsetetur": 4036,
      "Ġfon": 4037,
      "Ġauxilium": 4038,
      "ugit": 4039,
      "iderat": 4040,
      "ĠMus": 4041,
      "Ġloca": 4042,
      "Ġhorum": 4043,
      "Ġconsum": 4044,
      "Ġuers": 4045,
      "onus": 4046,
      "ipot": 4047,
      "ĠUllam": 4048,
      "Ġgentes": 4049,
      "Ġcav": 4050,
      "age": 4051,
      "ileg": 4052,
      "Ġoffer": 4053,
      "Ġaquam": 4054,
      "Ġcorrum": 4055,
      "onit": 4056,
      "ĠGo": 4057,
      "andus": 4058,
      "Ġquon": 4059,
      "Ġplant": 4060,
      "Ġduod": 4061,
      "ele": 4062,
      "Al": 4063,
      "ala": 4064,
      "Ġpaul": 4065,
      "Ġbonus": 4066,
      "Ġinp": 4067,
      "quod": 4068,
      "mis": 4069,
      "Ġurbis": 4070,
      "Ġsaepius": 4071,
      "Ġsapientia": 4072,
      "Ġecclesiae": 4073,
      "Ġimit": 4074,
      "Ġspiritum": 4075,
      "gren": 4076,
      "yll": 4077,
      "Ġinfl": 4078,
      "onio": 4079,
      "Ġobt": 4080,
      "Ġexpos": 4081,
      "Ġnonumy": 4082,
      "ĠExp": 4083,
      "Ġpenitus": 4084,
      "Ġimped": 4085,
      "Ġconserv": 4086,
      "Ġsolem": 4087,
      "Ġnova": 4088,
      "ultus": 4089,
      "Ġcod": 4090,
      "ĠPatris": 4091,
      "Ġobst": 4092,
      "Ġmur": 4093,
      "Ġquer": 4094,
      "sign": 4095,
      "ergren": 4096,
      "Ġtradit": 4097,
      "Ġsa": 4098,
      "Ġdiabol": 4099,
      "Ġdicimus": 4100,
      "Ġlitteris": 4101,
      "aecati": 4102,
      "esque": 4103,
      "Ġcec": 4104,
      "Ġprovinci": 4105,
      "ominus": 4106,
      "Ġproprie": 4107,
      "Ġvas": 4108,
      "Ġaccusam": 4109,
      "ĠVal": 4110,
      "Ġproprium": 4111,
      "Ġcult": 4112,
      "aeque": 4113,
      "ystem": 4114,
      "Ġconcupisc": 4115,
      "Ġhomini": 4116,
      "Ġstudio": 4117,
      "ĠPort": 4118,
      "Ġador": 4119,
      "ĠNobis": 4120,
      "Ġdivid": 4121,
      "ĠUbi": 4122,
      "ĠLaud": 4123,
      "Ġmultos": 4124,
      "echn": 4125,
      "empe": 4126,
      "Ġconiunc": 4127,
      "Ġantequam": 4128,
      "Ġfaciem": 4129,
      "Ġpacem": 4130,
      "Ġprorsus": 4131,
      "Ġtertio": 4132,
      "Ġdatur": 4133,
      "Ġeirmod": 4134,
      "Ġhort": 4135,
      "abus": 4136,
      "ĠDis": 4137,
      "estus": 4138,
      "ensibus": 4139,
      "Ġviol": 4140,
      "ĠEi": 4141,
      "Ġherb": 4142,
      "ak": 4143,
      "arentur": 4144,
      "Ġhabebat": 4145,
      "Ġquemadmodum": 4146,
      "Ġquare": 4147,
      "Ġads": 4148,
      "ĠCic": 4149,
      "Ġutinam": 4150,
      "Ġipsos": 4151,
      "Ġreu": 4152,
      "Ġvoluptua": 4153,
      "ãĤ": 4154,
      "ĠAugustinus": 4155,
      "Ġelitr": 4156,
      "Ġpartic": 4157,
      "Ġfortasse": 4158,
      "Ġtris": 4159,
      "amque": 4160,
      "Ġbl": 4161,
      "Ġhumana": 4162,
      "Ġmortuus": 4163,
      "Ġlect": 4164,
      "Ġsensu": 4165,
      "âĢ": 4166,
      "tif": 4167,
      "Ġlegit": 4168,
      "ĠPorro": 4169,
      "Ġmerito": 4170,
      "Ġincon": 4171,
      "Ġulla": 4172,
      "ĠPri": 4173,
      "ĠCiv": 4174,
      "ĠRh": 4175,
      "Ġactum": 4176,
      "oduc": 4177,
      "Ġhumil": 4178,
      "elle": 4179,
      "Ġpresbyter": 4180,
      "Ġadolesc": 4181,
      "ĠMan": 4182,
      "Ġdeter": 4183,
      "enign": 4184,
      "Ġcoron": 4185,
      "ĠPetri": 4186,
      "ardus": 4187,
      "ĠRomae": 4188,
      "Ġarmis": 4189,
      "Ġand": 4190,
      "Ġcli": 4191,
      "Ġmors": 4192,
      "Ġdeclar": 4193,
      "Ġmeae": 4194,
      "ef": 4195,
      "Ġrepet": 4196,
      "ĠPetrus": 4197,
      "org": 4198,
      "Ġmoder": 4199,
      "atura": 4200,
      "Ġsimpliciter": 4201,
      "Ġutroque": 4202,
      "amenta": 4203,
      "ĠTunc": 4204,
      "ĠQuem": 4205,
      "rat": 4206,
      "issum": 4207,
      "Ġpud": 4208,
      "Ġmisit": 4209,
      "Ġnumerum": 4210,
      "Ġimb": 4211,
      "Ġmodis": 4212,
      "ĠAmer": 4213,
      "Ġiriure": 4214,
      "Ġgubergren": 4215,
      "Ġquadam": 4216,
      "Ġhaeret": 4217,
      "ĠAliqu": 4218,
      "Ġappare": 4219,
      "ĠPoss": 4220,
      "Ġvirtutis": 4221,
      "Ġcarnem": 4222,
      "ĠMet": 4223,
      "Ġinvenire": 4224,
      "Ġvituper": 4225,
      "Ġmunere": 4226,
      "Ġloqui": 4227,
      "Ġconsol": 4228,
      "Ġinqu": 4229,
      "otam": 4230,
      "uptatum": 4231,
      "Ġmunus": 4232,
      "Ġflag": 4233,
      "Ġmalorum": 4234,
      "ĠMart": 4235,
      "Ġplane": 4236,
      "ĠEcclesiam": 4237,
      "Ġsuscipi": 4238,
      "ellas": 4239,
      "Ġsust": 4240,
      "Ġrebum": 4241,
      "bat": 4242,
      "Ġcastra": 4243,
      "Ġconced": 4244,
      "Ġuxor": 4245,
      "idere": 4246,
      "Ġvirum": 4247,
      "Ġeduc": 4248,
      "Ġpsal": 4249,
      "undi": 4250,
      "Ġdissim": 4251,
      "gu": 4252,
      "ĠVerb": 4253,
      "Ġfav": 4254,
      "Ġincolarum": 4255,
      "Ġministr": 4256,
      "Ġquaeque": 4257,
      "Ġcrud": 4258,
      "ĠPom": 4259,
      "Ġcoepit": 4260,
      "abiles": 4261,
      "Ġcalc": 4262,
      "Ġuiu": 4263,
      "uria": 4264,
      "tidie": 4265,
      "Ġminor": 4266,
      "Ġtali": 4267,
      "Ġoperibus": 4268,
      "ĠPot": 4269,
      "Ġartific": 4270,
      "ilibus": 4271,
      "Ġpoterat": 4272,
      "ensa": 4273,
      "ĠArc": 4274,
      "Ġpeccati": 4275,
      "ĠQuas": 4276,
      "undem": 4277,
      "yg": 4278,
      "ĠJesu": 4279,
      "Ġexperi": 4280,
      "Ġtoti": 4281,
      "oniae": 4282,
      "ĠSaepe": 4283,
      "Ġoppos": 4284,
      "elus": 4285,
      "Ġaeque": 4286,
      "Ġecce": 4287,
      "aciter": 4288,
      "uras": 4289,
      "ĠDeb": 4290,
      "Ġfuturum": 4291,
      "ĠVis": 4292,
      "Ġcasu": 4293,
      "Ġmensis": 4294,
      "ĠGreg": 4295,
      "Ġbarb": 4296,
      "Ġexcus": 4297,
      "Ġcarne": 4298,
      "olae": 4299,
      "Ġsancta": 4300,
      "unae": 4301,
      "Ġrege": 4302,
      "Ġseri": 4303,
      "Ġclita": 4304,
      "liam": 4305,
      "Ġvirtu": 4306,
      "hi": 4307,
      "Åĵ": 4308,
      "Ġquondam": 4309,
      "cepit": 4310,
      "olo": 4311,
      "Ġplerumque": 4312,
      "Ġvali": 4313,
      "ĠJac": 4314,
      "iamus": 4315,
      "Ġnotitia": 4316,
      "Ġmemoria": 4317,
      "Ġexcepteur": 4318,
      "ulti": 4319,
      "Ġcapi": 4320,
      "Ġcard": 4321,
      "istit": 4322,
      "ucius": 4323,
      "ĠHeb": 4324,
      "ĠLibero": 4325,
      "Ġtation": 4326,
      "Ġtestimonium": 4327,
      "Ġves": 4328,
      "enc": 4329,
      "itatus": 4330,
      "Ġprofic": 4331,
      "ĠIac": 4332,
      "oed": 4333,
      "Ġlumen": 4334,
      "ĠAnte": 4335,
      "Ġvoce": 4336,
      "Ġestis": 4337,
      "ilipp": 4338,
      "Ġirr": 4339,
      "Quis": 4340,
      "Ġpasc": 4341,
      "Ġdebent": 4342,
      "Ġnota": 4343,
      "Ġrequi": 4344,
      "ĠCup": 4345,
      "tera": 4346,
      "Ġgratiae": 4347,
      "ĠDum": 4348,
      "Ġutrumque": 4349,
      "Ġbelli": 4350,
      "tii": 4351,
      "Ġquarum": 4352,
      "ensus": 4353,
      "Ġepiscopi": 4354,
      "ĠDiam": 4355,
      "rica": 4356,
      "20": 4357,
      "atore": 4358,
      "uisti": 4359,
      "Ġlam": 4360,
      "ĠCan": 4361,
      "Ġlucem": 4362,
      "Ġmentem": 4363,
      "10": 4364,
      "til": 4365,
      "Ġarte": 4366,
      "po": 4367,
      "Ġmotu": 4368,
      "ĠVerum": 4369,
      "aniae": 4370,
      "ello": 4371,
      "ĠEcce": 4372,
      "Ġuidetur": 4373,
      "Ġadduc": 4374,
      "onym": 4375,
      "Ġpublica": 4376,
      "ĠVirg": 4377,
      "entior": 4378,
      "uerint": 4379,
      "Ġcaro": 4380,
      "Ġtertia": 4381,
      "Ġtransl": 4382,
      "ograph": 4383,
      "Ġster": 4384,
      "Ġpredic": 4385,
      "ursum": 4386,
      "Ġecclesiam": 4387,
      "Ġhabens": 4388,
      "Ġpraesum": 4389,
      "arus": 4390,
      "Ġcontenti": 4391,
      "Ġpatre": 4392,
      "Ġbeatus": 4393,
      "Ġnus": 4394,
      "Ġcet": 4395,
      "amento": 4396,
      "Ġdescend": 4397,
      "inu": 4398,
      "titiae": 4399,
      "Ġbenign": 4400,
      "Ġluptatum": 4401,
      "Ġcunctis": 4402,
      "ĠPsal": 4403,
      "ummy": 4404,
      "ĠDolore": 4405,
      "pr": 4406,
      "Ġceter": 4407,
      "Ġmonstr": 4408,
      "Ġjud": 4409,
      "Ġconcili": 4410,
      "ĠErat": 4411,
      "ĠConstant": 4412,
      "Ġviris": 4413,
      "VI": 4414,
      "ba": 4415,
      "Post": 4416,
      "Ġimperator": 4417,
      "Ġcontempl": 4418,
      "ĠSch": 4419,
      "Ġpraepar": 4420,
      "itiv": 4421,
      "Ġcondic": 4422,
      "duc": 4423,
      "Ġresist": 4424,
      "erim": 4425,
      "Ġdorm": 4426,
      "Ġaliquem": 4427,
      "ĠTen": 4428,
      "etae": 4429,
      "Neque": 4430,
      "iderunt": 4431,
      "ĠIns": 4432,
      "Ġvehem": 4433,
      "Ġpan": 4434,
      "Ġdecret": 4435,
      "orium": 4436,
      "ĠIllum": 4437,
      "Ġaufer": 4438,
      "Ġedit": 4439,
      "aque": 4440,
      "Ġcompet": 4441,
      "Ġiudicium": 4442,
      "Ġchristi": 4443,
      "circo": 4444,
      "itos": 4445,
      "Ġvoluit": 4446,
      "Ġfacto": 4447,
      "ĠColl": 4448,
      "aribus": 4449,
      "Ġfaciat": 4450,
      "olus": 4451,
      "ĠQuin": 4452,
      "Ġiuris": 4453,
      "ĠVic": 4454,
      "ts": 4455,
      "Ġpraecipue": 4456,
      "umentum": 4457,
      "ĠTheod": 4458,
      "ĠDem": 4459,
      "Ġder": 4460,
      "Ġsensum": 4461,
      "Ġnominis": 4462,
      "Ġexerci": 4463,
      "Ġemend": 4464,
      "Ġaccommod": 4465,
      "Ġabsc": 4466,
      "Ġhora": 4467,
      "Ġplacet": 4468,
      "Ġaffirm": 4469,
      "ĠAbrah": 4470,
      "Ġperman": 4471,
      "Ġmend": 4472,
      "Ġrecept": 4473,
      "Ġnecessaria": 4474,
      "uss": 4475,
      "Ġpend": 4476,
      "Ġscriptor": 4477,
      "enes": 4478,
      "Ġhabeo": 4479,
      "ĠNic": 4480,
      "Ġsacra": 4481,
      "iÃ¦": 4482,
      "Ġfacti": 4483,
      "ĠSab": 4484,
      "inarum": 4485,
      "issimam": 4486,
      "Ġagnosc": 4487,
      "ĠPap": 4488,
      "Ġponit": 4489,
      "Ġresp": 4490,
      "Ġvivere": 4491,
      "kh": 4492,
      "aev": 4493,
      "Ġinnoc": 4494,
      "Ġsaeculo": 4495,
      "Ġdoctrina": 4496,
      "Ġascend": 4497,
      "Ġvuln": 4498,
      "ĠBrit": 4499,
      "Ġaccipere": 4500,
      "Ġvolumus": 4501,
      "Ġhuc": 4502,
      "esa": 4503,
      "une": 4504,
      "Ġdestr": 4505,
      "Ġepic": 4506,
      "eritis": 4507,
      "Ġsententiae": 4508,
      "Ġisti": 4509,
      "Ġocto": 4510,
      "Ġimo": 4511,
      "Ġpell": 4512,
      "issis": 4513,
      "Ġigne": 4514,
      "cere": 4515,
      "ĠCui": 4516,
      "ĠIpsa": 4517,
      "esi": 4518,
      "Ġmalo": 4519,
      "Ġfama": 4520,
      "Ġpron": 4521,
      "istis": 4522,
      "Ġregno": 4523,
      "eria": 4524,
      "Ġuul": 4525,
      "ej": 4526,
      "ĠQuasi": 4527,
      "Ġecclesiast": 4528,
      "bili": 4529,
      "Ġvoluntas": 4530,
      "Ġfiliis": 4531,
      "anci": 4532,
      "Ġadmon": 4533,
      "Ġnatum": 4534,
      "Ġoperis": 4535,
      "ors": 4536,
      "Ġnox": 4537,
      "Ġretin": 4538,
      "Ar": 4539,
      "Ab": 4540,
      "uic": 4541,
      "Ġger": 4542,
      "Ġvidentur": 4543,
      "Res": 4544,
      "itias": 4545,
      "Ġinvid": 4546,
      "ĠHinc": 4547,
      "Ġsuperius": 4548,
      "Ġterrarum": 4549,
      "idio": 4550,
      "Deinde": 4551,
      "Ġlaudem": 4552,
      "Sicut": 4553,
      "Ġlibri": 4554,
      "Ġmotum": 4555,
      "Ġapparet": 4556,
      "Ġsap": 4557,
      "esent": 4558,
      "Quo": 4559,
      "Ġrationis": 4560,
      "Ġcoelo": 4561,
      "item": 4562,
      "ĠEm": 4563,
      "Ġcolloc": 4564,
      "Ġquum": 4565,
      "Ġintenti": 4566,
      "Ġputant": 4567,
      "Ġcredit": 4568,
      "Ġira": 4569,
      "Ġsolo": 4570,
      "roc": 4571,
      "Ġadf": 4572,
      "unda": 4573,
      "Ġov": 4574,
      "idia": 4575,
      "Ġvoluntatem": 4576,
      "Ġaddit": 4577,
      "Ġrever": 4578,
      "Ġire": 4579,
      "Ġrum": 4580,
      "Ġcentum": 4581,
      "Ġvoluntate": 4582,
      "be": 4583,
      "Ġinform": 4584,
      "Ġjug": 4585,
      "ĠExerc": 4586,
      "ebis": 4587,
      "Ġacced": 4588,
      "Ġprinceps": 4589,
      "Ġbaptism": 4590,
      "Ġpaucis": 4591,
      "ĠBeat": 4592,
      "Ġna": 4593,
      "Ġgubern": 4594,
      "olit": 4595,
      "Ġterris": 4596,
      "Ġquaestio": 4597,
      "arm": 4598,
      "Ġcorn": 4599,
      "tt": 4600,
      "Ġvideo": 4601,
      "Ġintellectu": 4602,
      "Ġargumentum": 4603,
      "Ġhonore": 4604,
      "Ġare": 4605,
      "ĠUnivers": 4606,
      "Ġcanon": 4607,
      "ĠStr": 4608,
      "Ġhujusmodi": 4609,
      "Ġgentium": 4610,
      "Ġfraud": 4611,
      "Ġambul": 4612,
      "Ġatr": 4613,
      "Ġangus": 4614,
      "raque": 4615,
      "ĠTrin": 4616,
      "ĠIdem": 4617,
      "Pl": 4618,
      "Ġtriumph": 4619,
      "Ġtribu": 4620,
      "rav": 4621,
      "ecte": 4622,
      "ĠIII": 4623,
      "estibus": 4624,
      "Ġtechn": 4625,
      "Ġexpl": 4626,
      "Ġmelior": 4627,
      "Ġspes": 4628,
      "Ġpic": 4629,
      "ogn": 4630,
      "ertitur": 4631,
      "Ġvulg": 4632,
      "ĠIt": 4633,
      "Ġvolor": 4634,
      "Ïĥ": 4635,
      "Ego": 4636,
      "Ġprior": 4637,
      "Ġsermo": 4638,
      "ĠOrd": 4639,
      "Ġsalutis": 4640,
      "Ġipsorum": 4641,
      "ebunt": 4642,
      "Ġperse": 4643,
      "Ġcast": 4644,
      "Ġ$": 4645,
      "Ġnumer": 4646,
      "Ġhonorem": 4647,
      "oseph": 4648,
      "Ġprout": 4649,
      "ĠBe": 4650,
      "Ġsaeculi": 4651,
      "ardi": 4652,
      "entias": 4653,
      "Ġdescrib": 4654,
      "olum": 4655,
      "Ġexercitu": 4656,
      "Ġuita": 4657,
      "Ġpacis": 4658,
      "Ġsanctae": 4659,
      "Ġnuper": 4660,
      "ĠPontific": 4661,
      "Ġspem": 4662,
      "cit": 4663,
      "Inter": 4664,
      "ĠHen": 4665,
      "ĠAbb": 4666,
      ")..": 4667,
      "Ġocta": 4668,
      "Ġgrat": 4669,
      "ge": 4670,
      "Ġbis": 4671,
      "Ġfigura": 4672,
      "ĠIlle": 4673,
      "ĠPhilipp": 4674,
      "Ġhabes": 4675,
      "Ġsanguinem": 4676,
      "Ġomnipot": 4677,
      "Ġdid": 4678,
      "ya": 4679,
      "Ġexcell": 4680,
      "etas": 4681,
      "Ġuxorem": 4682,
      "ĠSa": 4683,
      "Ġperi": 4684,
      "Ġsis": 4685,
      "ĠInd": 4686,
      "ĠSuscipit": 4687,
      "ĠIpse": 4688,
      "Ġtyp": 4689,
      "Ġinj": 4690,
      "Ġmilia": 4691,
      "Ġpraeced": 4692,
      "ila": 4693,
      "ĠOl": 4694,
      "ulpa": 4695,
      "estate": 4696,
      "Ġobedi": 4697,
      "ĠLud": 4698,
      "Ġgest": 4699,
      "ensium": 4700,
      "Ġimpos": 4701,
      "ĠAper": 4702,
      "Ġcopia": 4703,
      "Ġrestit": 4704,
      "ĠVero": 4705,
      "Aut": 4706,
      "ĠMaxime": 4707,
      "Ġprimi": 4708,
      "Ġpeccatorum": 4709,
      "Ġmateriam": 4710,
      "pes": 4711,
      "actum": 4712,
      "Ġquatenus": 4713,
      "ono": 4714,
      "ordi": 4715,
      "ĠIsa": 4716,
      "Ġalibi": 4717,
      "Ġposuit": 4718,
      "ebas": 4719,
      "Ġregi": 4720,
      "Ġuitae": 4721,
      "Ġnonummy": 4722,
      "elo": 4723,
      "Ġreligios": 4724,
      "Ġlabores": 4725,
      "ĠSte": 4726,
      "ĠPatre": 4727,
      "Ġcub": 4728,
      "Ġinclin": 4729,
      "illi": 4730,
      "uch": 4731,
      "Ġanc": 4732,
      "Ġinvicem": 4733,
      "Ġveritatem": 4734,
      "Ġincorr": 4735,
      "Ġcommunis": 4736,
      "Ġantea": 4737,
      "Ma": 4738,
      "ÏĢ": 4739,
      "Ġtecum": 4740,
      "Ġludus": 4741,
      "Ġorbis": 4742,
      "Ġintus": 4743,
      "Ġinitio": 4744,
      "unic": 4745,
      "Ġjudicium": 4746,
      "ade": 4747,
      "Ġexpect": 4748,
      "yam": 4749,
      "Ġcommuni": 4750,
      "nas": 4751,
      "ĠJesus": 4752,
      "Nunc": 4753,
      "Ġora": 4754,
      "tuor": 4755,
      "Ġexercitus": 4756,
      "Ġprocur": 4757,
      "eamus": 4758,
      "uen": 4759,
      "Ġdepos": 4760,
      "Ìĥ": 4761,
      "Ġtol": 4762,
      "Ġprobo": 4763,
      "Ġequidem": 4764,
      "Ġens": 4765,
      "Ġrust": 4766,
      "ĠAfr": 4767,
      "Ġoperam": 4768,
      "Ġvend": 4769,
      "Ġprofecto": 4770,
      "ĠTemporibus": 4771,
      "Ġiug": 4772,
      "Ġrationibus": 4773,
      "ĠFilium": 4774,
      "Ġcivitatis": 4775,
      "ĠAch": 4776,
      "Ġhabetur": 4777,
      "Ġdeli": 4778,
      "Ġanimus": 4779,
      "ebam": 4780,
      "iz": 4781,
      "iditate": 4782,
      "Ġdiversis": 4783,
      "Ubi": 4784,
      "Ġpercus": 4785,
      "Ġoptimum": 4786,
      "Ġplurimum": 4787,
      "orsum": 4788,
      "Ġaccess": 4789,
      "itte": 4790,
      "errim": 4791,
      "ment": 4792,
      "Ġmenti": 4793,
      "Ġjub": 4794,
      "ularum": 4795,
      "Ġvetus": 4796,
      "ĠMagni": 4797,
      "Ġdiligenter": 4798,
      "ĠBib": 4799,
      "ĠPas": 4800,
      "Ġsermone": 4801,
      "Ġfert": 4802,
      "icumque": 4803,
      "Ġfulg": 4804,
      "Ġignem": 4805,
      "ĠPrae": 4806,
      "Ġceleb": 4807,
      "veni": 4808,
      "Ġflu": 4809,
      "\",": 4810,
      "Ġofficio": 4811,
      "Ġliter": 4812,
      "Ġleges": 4813,
      "Ġnil": 4814,
      "ĠVI": 4815,
      "lix": 4816,
      "Ġscr": 4817,
      "Ġconsecr": 4818,
      "Ġeffectum": 4819,
      "Ġvet": 4820,
      "greg": 4821,
      "ĠKal": 4822,
      "Ġverbo": 4823,
      "Ġveri": 4824,
      "Ġmari": 4825,
      "Ġinsid": 4826,
      "Ġastr": 4827,
      "Ġlitteras": 4828,
      "Ġtabern": 4829,
      "Ġconsc": 4830,
      "ĠOri": 4831,
      "Ġpoena": 4832,
      "idam": 4833,
      "ĠPhilosoph": 4834,
      "Ġprocess": 4835,
      "Ġfa": 4836,
      "Ġpossid": 4837,
      "ĠReges": 4838,
      "Ġsuspic": 4839,
      "Ġindustria": 4840,
      "ĠBritann": 4841,
      "alt": 4842,
      "Ġviro": 4843,
      "Ġfic": 4844,
      "Ġexprim": 4845,
      "Ġacceper": 4846,
      "ĠFrat": 4847,
      "Ġnau": 4848,
      "onitur": 4849,
      "Ġobseru": 4850,
      "Ġsect": 4851,
      "edem": 4852,
      "ultum": 4853,
      "Ġcolleg": 4854,
      "Ġmix": 4855,
      "Ġ)": 4856,
      "Ġnobil": 4857,
      "ĠNumquam": 4858,
      "ĠAdipiscing": 4859,
      "Cap": 4860,
      "Ġrationes": 4861,
      "Ġcommemor": 4862,
      "ebo": 4863,
      "His": 4864,
      "Ġsystem": 4865,
      "Ġcertam": 4866,
      "Ġtermin": 4867,
      "Î·": 4868,
      "Ġ25": 4869,
      "Ġvideri": 4870,
      "ues": 4871,
      "Ġvent": 4872,
      "Ġgratias": 4873,
      "icit": 4874,
      "ĠPal": 4875,
      "Ġfing": 4876,
      "Ġpert": 4877,
      "illae": 4878,
      "Ġproeli": 4879,
      "ĠInst": 4880,
      "Ġpaulatim": 4881,
      "Ġspe": 4882,
      "Ġserp": 4883,
      "Ġdictis": 4884,
      "ectitur": 4885,
      "Ch": 4886,
      "Ġmaris": 4887,
      "Ġaeternum": 4888,
      "ĠMatth": 4889,
      "ĠTest": 4890,
      "Ġtenet": 4891,
      "ĠHer": 4892,
      "Ġcerta": 4893,
      "Ġlegere": 4894,
      "Ġment": 4895,
      "ĠIV": 4896,
      "Ġcivitatem": 4897,
      "Ġliqu": 4898,
      "Ġsag": 4899,
      "eis": 4900,
      "ĠNesci": 4901,
      "Ġsug": 4902,
      "ĠAst": 4903,
      "undus": 4904,
      "Ġarbitr": 4905,
      "ĠGregor": 4906,
      "Ġcopios": 4907,
      "Itaque": 4908,
      "imae": 4909,
      "Ġros": 4910,
      "Ġplena": 4911,
      "Ġtemplum": 4912,
      "Ġmedioc": 4913,
      "ĠTempore": 4914,
      "Ġmateriae": 4915,
      "Ġparti": 4916,
      "Ġnecessitate": 4917,
      "Ġinsol": 4918,
      "Hinc": 4919,
      "Ġmatrim": 4920,
      "Ġarchiepiscop": 4921,
      "ĠAnton": 4922,
      "icarum": 4923,
      "Ġrot": 4924,
      "Ġpoll": 4925,
      "Ġrig": 4926,
      "Ġrecta": 4927,
      "Ġconcess": 4928,
      "ĠVeniam": 4929,
      "ĠRex": 4930,
      "Ġnulli": 4931,
      "Ġtrig": 4932,
      "Ġdeo": 4933,
      "Ġinsc": 4934,
      "Ġdaem": 4935,
      "Ġpace": 4936,
      "Ġfratribus": 4937,
      "ER": 4938,
      "anas": 4939,
      "Ġrevoc": 4940,
      "Ġmense": 4941,
      "ĠGl": 4942,
      "ariorum": 4943,
      "Ġmecum": 4944,
      "Ġinterf": 4945,
      "ĠIo": 4946,
      "ĠHas": 4947,
      "Tunc": 4948,
      "Ġpraeterit": 4949,
      "verit": 4950,
      "Ġfrag": 4951,
      "Ġorg": 4952,
      "Ġquandoque": 4953,
      "lio": 4954,
      "ĠQuare": 4955,
      "ĠElig": 4956,
      "Ġuerum": 4957,
      "tifex": 4958,
      "Ġaliquot": 4959,
      "Ġorbem": 4960,
      "Ġsimilitudinem": 4961,
      "Ġsensibus": 4962,
      "Ġintelligi": 4963,
      "Ġattrib": 4964,
      "Ġisto": 4965,
      "Ġpartim": 4966,
      "tura": 4967,
      "olam": 4968,
      "Ġsummum": 4969,
      "Ġdicatur": 4970,
      "Ġlegimus": 4971,
      "Ġveter": 4972,
      "Ġconclud": 4973,
      "nic": 4974,
      "Ġtyr": 4975,
      "eca": 4976,
      "ĠCirc": 4977,
      "orp": 4978,
      "ĠLabore": 4979,
      "Ġsanguinis": 4980,
      "sque": 4981,
      "'.": 4982,
      "Ġdeum": 4983,
      "ĠGe": 4984,
      "Ġlegitur": 4985,
      "Ġquanta": 4986,
      "Ġflamm": 4987,
      "Ġpossum": 4988,
      "Ġmai": 4989,
      "Ġdebeat": 4990,
      "cio": 4991,
      "Ġservi": 4992,
      "ĠOmnes": 4993,
      "Qua": 4994,
      "erimus": 4995,
      "undo": 4996,
      "etips": 4997,
      "Ġremed": 4998,
      "Ġerga": 4999,
      "áħ": 5000,
      "áĦ": 5001,
      "eoph": 5002,
      "ĠOmnia": 5003,
      "ĠBenedic": 5004,
      "Ġ30": 5005,
      "ĠHe": 5006,
      "Ġordo": 5007,
      "Ġnimium": 5008,
      "Ġaere": 5009,
      "ĠMoys": 5010,
      "Ġepiscopo": 5011,
      "Ġistud": 5012,
      "ĠAegyp": 5013,
      "erusalem": 5014,
      "Ġrestitu": 5015,
      "ĠMagna": 5016,
      "ĠAssum": 5017,
      "esis": 5018,
      "ĠInt": 5019,
      "ĠPatri": 5020,
      "Sim": 5021,
      "eras": 5022,
      "Ġsusp": 5023,
      "Ġae": 5024,
      "Ġvert": 5025,
      "Ġquadrag": 5026,
      "Ġsatisfac": 5027,
      "Ġdebemus": 5028,
      "Ter": 5029,
      "inium": 5030,
      "Ġinterim": 5031,
      "erte": 5032,
      "Ġvirtutes": 5033,
      "Ġsacr": 5034,
      "icii": 5035,
      "Ġnaturalis": 5036,
      "ĠIudae": 5037,
      "Ġnegleg": 5038,
      "Ġcaeli": 5039,
      "Ġobsequ": 5040,
      "ĠSpiritu": 5041,
      "Ġoblig": 5042,
      "Ġpossent": 5043,
      "Ġconcord": 5044,
      "Ġvocem": 5045,
      "Ġmagistr": 5046,
      "Ġprocessus": 5047,
      "Ġcoelum": 5048,
      "ĠPatrem": 5049,
      "Ġrespondit": 5050,
      "Ġced": 5051,
      "oveo": 5052,
      "Ġnud": 5053,
      "acio": 5054,
      "ĠDiv": 5055,
      "Ġhostes": 5056,
      "Ġsubito": 5057,
      "Ġsingula": 5058,
      "Ġpraecepta": 5059,
      "ĠIndic": 5060,
      "uf": 5061,
      "orus": 5062,
      "abilia": 5063,
      "rimis": 5064,
      "rehenderit": 5065,
      "Ġdominum": 5066,
      "Ġanimos": 5067,
      "Ġmovet": 5068,
      "Ġsecur": 5069,
      "Ġalienum": 5070,
      "tore": 5071,
      "uitur": 5072,
      "rec": 5073,
      "entri": 5074,
      "utem": 5075,
      "Ġhabitus": 5076,
      "Ġprimam": 5077,
      "vo": 5078,
      "aei": 5079,
      "Ġflor": 5080,
      "Ġtene": 5081,
      "rexit": 5082,
      "Ġerip": 5083,
      "Ġnimirum": 5084,
      "ĠGoog": 5085,
      "Ġversus": 5086,
      "Ġcomprehens": 5087,
      "Ġtalia": 5088,
      "init": 5089,
      "ĠConf": 5090,
      "phon": 5091,
      "Ġconiug": 5092,
      "psit": 5093,
      "ĠRomam": 5094,
      "rex": 5095,
      "estra": 5096,
      "Ġdivinae": 5097,
      "ĠConv": 5098,
      "ulerunt": 5099,
      "ek": 5100,
      "Ġdistrib": 5101,
      "ĠCorporis": 5102,
      "Ġ24": 5103,
      "Ġsimplex": 5104,
      "entiis": 5105,
      "Ġliberum": 5106,
      "Î»": 5107,
      "Ġoportere": 5108,
      "Ġdolupt": 5109,
      "ĠCaesar": 5110,
      "Ġinterrete": 5111,
      "Ideo": 5112,
      "Ġidque": 5113,
      "Ġhumanae": 5114,
      "ĠFab": 5115,
      "tionum": 5116,
      "Ġmedicam": 5117,
      "Ġpollic": 5118,
      "ĠMoll": 5119,
      "ĠHenr": 5120,
      "Ġdifficult": 5121,
      "Ġferro": 5122,
      "Ġexemplo": 5123,
      "erius": 5124,
      "Ġistis": 5125,
      "Ġexemp": 5126,
      "mat": 5127,
      "Ġlarg": 5128,
      "Ġsax": 5129,
      "Ġpropositum": 5130,
      "Ġimposs": 5131,
      ".\".": 5132,
      "Ġundique": 5133,
      "ĠHarum": 5134,
      "erere": 5135,
      "vus": 5136,
      "Ġful": 5137,
      "ellam": 5138,
      "ĠIste": 5139,
      "Ġnef": 5140,
      "Ġaurum": 5141,
      "Ïī": 5142,
      "Ġcaelo": 5143,
      "Ġuig": 5144,
      "Ġminimum": 5145,
      "Ġnat": 5146,
      "ĠMun": 5147,
      "Ġreform": 5148,
      "Ġfidel": 5149,
      "ĠGall": 5150,
      "ĠServ": 5151,
      "Ġsoli": 5152,
      "itationem": 5153,
      "Ġpedibus": 5154,
      "Ġrepugn": 5155,
      "Ġsort": 5156,
      "adis": 5157,
      "inius": 5158,
      "Ġinterdic": 5159,
      "ĠOfficia": 5160,
      "trah": 5161,
      "Ġanimad": 5162,
      "Ġtuos": 5163,
      "gen": 5164,
      "Ġpropinqu": 5165,
      "Ġimpet": 5166,
      "Ġmagnific": 5167,
      "ĠApoll": 5168,
      "Ġprofer": 5169,
      "ravit": 5170,
      "Ġappellantur": 5171,
      "ĠIdeo": 5172,
      "ĠNostrum": 5173,
      "Ġiur": 5174,
      "Ġtak": 5175,
      "Ġconsili": 5176,
      "ĠElit": 5177,
      "Ġuit": 5178,
      "Ġtuas": 5179,
      "Ġfrustra": 5180,
      "osum": 5181,
      "Ġfortuna": 5182,
      "Ġq": 5183,
      "Ġby": 5184,
      "Ġsat": 5185,
      "aeus": 5186,
      "issimae": 5187,
      "ĠAliquid": 5188,
      "Ġexpress": 5189,
      "ĠMagis": 5190,
      "amin": 5191,
      "rym": 5192,
      "ĠVos": 5193,
      "Ġutraque": 5194,
      "Ġhostium": 5195,
      "ĠIusto": 5196,
      "Ġvex": 5197,
      "Ġmores": 5198,
      "ĠEam": 5199,
      "ĠCulpa": 5200,
      "Ġexempla": 5201,
      "Ġannorum": 5202,
      "Ġformae": 5203,
      "uth": 5204,
      "Ġdixerunt": 5205,
      "Ġcito": 5206,
      "Ġvestig": 5207,
      "Ġmanduc": 5208,
      "imata": 5209,
      "Ġcognov": 5210,
      "Ġillumin": 5211,
      "Ġconstructio": 5212,
      "Ġimperio": 5213,
      "Ġsapientiae": 5214,
      "Ġhaberet": 5215,
      "ĠOmn": 5216,
      "Ġpeccatis": 5217,
      "erium": 5218,
      "anto": 5219,
      "ĠAuc": 5220,
      "nos": 5221,
      "Ġsolent": 5222,
      "Ġegreg": 5223,
      "Ġfutura": 5224,
      "eus": 5225,
      "Ġvariis": 5226,
      "Ġessentia": 5227,
      "Ġscripsit": 5228,
      "Ġmag": 5229,
      "Ġni": 5230,
      "quaquam": 5231,
      "Ġcausis": 5232,
      "onere": 5233,
      "Ġnusquam": 5234,
      "Ġcivitate": 5235,
      "Ġlate": 5236,
      "Ġaccidens": 5237,
      "Ġmilites": 5238,
      "torem": 5239,
      "Ġvires": 5240,
      "abuntur": 5241,
      "ay": 5242,
      "ĠQuidem": 5243,
      "Ġreman": 5244,
      "19": 5245,
      "Ġcausas": 5246,
      "Ġdocet": 5247,
      "ĠAqu": 5248,
      "Ġpericula": 5249,
      "Ġferri": 5250,
      "Ġconvenit": 5251,
      "Ġquattuor": 5252,
      "idos": 5253,
      "Ġpropterea": 5254,
      "Ġcaeteris": 5255,
      "Ġimmort": 5256,
      "Ġrecens": 5257,
      "Ġperfic": 5258,
      "ĠMinus": 5259,
      "Ġhabeant": 5260,
      "Ġdefens": 5261,
      "inalis": 5262,
      "iali": 5263,
      "ĠLoci": 5264,
      "ostolorum": 5265,
      "Ġsuperfic": 5266,
      "Ġcaelum": 5267,
      "Ġcibo": 5268,
      "Ġgrau": 5269,
      "Ġmille": 5270,
      "ilique": 5271,
      "Ġluce": 5272,
      "ĠThom": 5273,
      "ĠLabor": 5274,
      "Ġcontraria": 5275,
      "ĠMerc": 5276,
      "Ġgenti": 5277,
      "Ġconsumm": 5278,
      "ĠNatus": 5279,
      "anguis": 5280,
      "Ġmisericordia": 5281,
      "Ġveritas": 5282,
      "Ġnescio": 5283,
      "Ġcomput": 5284,
      "Ġutrius": 5285,
      "Ġfat": 5286,
      "ĠEd": 5287,
      "Ġdecet": 5288,
      "Am": 5289,
      "ĠArg": 5290,
      "com": 5291,
      "Ġgreg": 5292,
      "Ġdemum": 5293,
      "ties": 5294,
      "Ġdebere": 5295,
      "Ġclem": 5296,
      "Ġperven": 5297,
      "Ġuitam": 5298,
      "hab": 5299,
      "Ġquinqu": 5300,
      "Ġmanet": 5301,
      "ĠJus": 5302,
      "acum": 5303,
      "Ġcomprehend": 5304,
      "Ġaeterna": 5305,
      "ĠDist": 5306,
      "oper": 5307,
      "Ġeb": 5308,
      "escunt": 5309,
      "Ġpartium": 5310,
      "15": 5311,
      "IV": 5312,
      "Ġsubstantiam": 5313,
      "Ġambi": 5314,
      "Ġspatium": 5315,
      "ĠDo": 5316,
      "rev": 5317,
      "ĠBon": 5318,
      "iculum": 5319,
      "esto": 5320,
      "ĠcÃ¦": 5321,
      "esimo": 5322,
      "Ġartis": 5323,
      "iciis": 5324,
      "Ġlinea": 5325,
      "ĠDeserunt": 5326,
      "Ġeidem": 5327,
      "antiae": 5328,
      "Ġsab": 5329,
      "ensu": 5330,
      "Ġoptime": 5331,
      "Ġputo": 5332,
      "ĠDoc": 5333,
      "Ġcru": 5334,
      "Ġintro": 5335,
      "Ġrefert": 5336,
      "fi": 5337,
      "Ġreges": 5338,
      "Ġstup": 5339,
      "Ġdefunc": 5340,
      "itibus": 5341,
      "itata": 5342,
      "Ġpossim": 5343,
      "ĠNecess": 5344,
      "Ġdispon": 5345,
      "Ġfus": 5346,
      "Ġlonga": 5347,
      "Ġnecessarium": 5348,
      "ĠVoluptate": 5349,
      "Ġpropriae": 5350,
      "Ġlet": 5351,
      "ĠPrimum": 5352,
      "Ġlocutus": 5353,
      "Ġpecuniam": 5354,
      "Ġdona": 5355,
      "Ġgravis": 5356,
      "ĠCorr": 5357,
      "erebat": 5358,
      "Ġoperatur": 5359,
      "Ġintellectum": 5360,
      "Ġtribun": 5361,
      "ende": 5362,
      "ĠAnt": 5363,
      "Ġperpetua": 5364,
      "ĠEp": 5365,
      "Ġmemoriam": 5366,
      "Ġpraeterea": 5367,
      "Ġceteris": 5368,
      "ĠUltr": 5369,
      "Ġinquantum": 5370,
      "imas": 5371,
      "Ġnupti": 5372,
      "queb": 5373,
      "Ġvox": 5374,
      "Ġhec": 5375,
      "Ġmagnus": 5376,
      "Ġconspectu": 5377,
      "cipitur": 5378,
      "Ġub": 5379,
      "Ġtales": 5380,
      "ĠTor": 5381,
      "Ġprogress": 5382,
      "utam": 5383,
      "ema": 5384,
      "Ġvirtutum": 5385,
      "ĠhÃ¦c": 5386,
      "Ġdubio": 5387,
      "Ġturba": 5388,
      "Ġpromiss": 5389,
      "Ġutriusque": 5390,
      "ĠDicta": 5391,
      "ĠProvid": 5392,
      "Ġmoribus": 5393,
      "ĠInf": 5394,
      "ĠDam": 5395,
      "Ġponitur": 5396,
      "Ġadu": 5397,
      "Ġoratione": 5398,
      "--": 5399,
      "ĠIure": 5400,
      "Ġrespons": 5401,
      "Ġpublicae": 5402,
      "Ġduae": 5403,
      "tioni": 5404,
      "Ġdiei": 5405,
      "Ġimaginem": 5406,
      "ĠExplic": 5407,
      "averat": 5408,
      "Ġscientiam": 5409,
      "alitas": 5410,
      "Ġtalem": 5411,
      "Ġcommunium": 5412,
      "onii": 5413,
      "Ġpraesens": 5414,
      "Ġquicquid": 5415,
      "ĠReprehenderit": 5416,
      "Ġ0": 5417,
      "ĠFugit": 5418,
      "ariatur": 5419,
      "hort": 5420,
      "let": 5421,
      "Ġdiscrim": 5422,
      "ĠMaria": 5423,
      "Ġfluc": 5424,
      "ĠVix": 5425,
      "Ġincipit": 5426,
      "ave": 5427,
      "Ġnempe": 5428,
      "Ġneglig": 5429,
      "Ġsanctis": 5430,
      "anim": 5431,
      "Ġtribul": 5432,
      "Ġintelligere": 5433,
      "aculo": 5434,
      "aequ": 5435,
      "Ġjuv": 5436,
      "Ġ22": 5437,
      "Nos": 5438,
      "Ġduodecim": 5439,
      "ueris": 5440,
      "ĠPlat": 5441,
      "alog": 5442,
      "Ġpapa": 5443,
      "Ġmundus": 5444,
      "ĠTempora": 5445,
      "asd": 5446,
      "ĠHel": 5447,
      "Ġsimile": 5448,
      "isci": 5449,
      "ĠAlias": 5450,
      "Ġiudicio": 5451,
      "Ġtanti": 5452,
      "Ġprovincia": 5453,
      "Ġartic": 5454,
      "inn": 5455,
      "Ġirac": 5456,
      "pisci": 5457,
      "quo": 5458,
      "Ġfratrem": 5459,
      "Ġliceat": 5460,
      "ĠFoed": 5461,
      "ĠSoluta": 5462,
      "ĠFacere": 5463,
      "Ġadulter": 5464,
      "Ġvolo": 5465,
      "Ġfacies": 5466,
      "Ġeandem": 5467,
      "tamen": 5468,
      "Ġdestin": 5469,
      "Ġtotus": 5470,
      "Ġnostros": 5471,
      "Ġclaud": 5472,
      "Ġbella": 5473,
      "Ġfilia": 5474,
      "Ġverit": 5475,
      "Ġscribit": 5476,
      "ĠAccusamus": 5477,
      "ĠDom": 5478,
      "ativa": 5479,
      "Pr": 5480,
      "Ġfals": 5481,
      "idae": 5482,
      "Ġmagister": 5483,
      "Ġpraev": 5484,
      "ĠEpic": 5485,
      "lex": 5486,
      "ril": 5487,
      "aces": 5488,
      "Ġpraecl": 5489,
      "ĠLig": 5490,
      "ĠSpiritum": 5491,
      "Ġcontemn": 5492,
      "Ġaccipit": 5493,
      "Ġsacerdos": 5494,
      "ĠAnimi": 5495,
      "Ġquicquam": 5496,
      "ĠHa": 5497,
      "Ġaer": 5498,
      "Ġtend": 5499,
      "ÍĤ": 5500,
      "Ġpropheta": 5501,
      "oria": 5502,
      "Ġdeclin": 5503,
      "Ġtranse": 5504,
      "Ġmunera": 5505,
      "Ġfalsum": 5506,
      "uls": 5507,
      "UM": 5508,
      "Ġunquam": 5509,
      "elag": 5510,
      "Ġfaciam": 5511,
      "ars": 5512,
      "Atque": 5513,
      "Ġfructum": 5514,
      "ĠHos": 5515,
      "ĠFugiat": 5516,
      "equitur": 5517,
      "urs": 5518,
      "Ġdefic": 5519,
      "ĠSecundum": 5520,
      "Ġcoeper": 5521,
      "Ġaliae": 5522,
      "Ġaudit": 5523,
      "Ġsugg": 5524,
      "ĠOfficiis": 5525,
      "Ġpom": 5526,
      "unde": 5527,
      "Ġsubstantiae": 5528,
      "ĠSemper": 5529,
      "ĠProc": 5530,
      "ĠSociet": 5531,
      "Ġdiscere": 5532,
      "Ġadiuv": 5533,
      "ĠLiber": 5534,
      "Ġfacie": 5535,
      "Ġconfit": 5536,
      "Ġspon": 5537,
      "Ġpastor": 5538,
      "diu": 5539,
      "Ġremiss": 5540,
      "ĠMM": 5541,
      "estia": 5542,
      "Ġconvenire": 5543,
      "Ġinsan": 5544,
      "ede": 5545,
      "ĠEget": 5546,
      "Ġhumili": 5547,
      "Ġrevel": 5548,
      "Ġimpetus": 5549,
      "Ġconuers": 5550,
      "Ġcapitis": 5551,
      "isco": 5552,
      "Ġquaec": 5553,
      "itare": 5554,
      "Ġ21": 5555,
      "Ġhospit": 5556,
      "Ġcalam": 5557,
      "uncta": 5558,
      "Ġactio": 5559,
      "ĠAdam": 5560,
      "ke": 5561,
      "Ġobj": 5562,
      "ĠScel": 5563,
      "ĠLeo": 5564,
      "ropter": 5565,
      "Ġapostolus": 5566,
      "ĠEligendi": 5567,
      "Ġcomes": 5568,
      "Ġdeos": 5569,
      "Ġsole": 5570,
      "Ġinop": 5571,
      "Ġjudicio": 5572,
      "Ġauro": 5573,
      "Ġsublim": 5574,
      "Ġaliquyam": 5575,
      "cunque": 5576,
      "ĠCant": 5577,
      "Im": 5578,
      "uriam": 5579,
      "Ġmarty": 5580,
      "ych": 5581,
      "ulare": 5582,
      "Ġuerba": 5583,
      "ittitur": 5584,
      "ĠCommunia": 5585,
      "ĠBeatae": 5586,
      "Ġstip": 5587,
      "Ġidone": 5588,
      "Ġdistingu": 5589,
      "Ġmirum": 5590,
      "ĠEpist": 5591,
      "ĠCommodi": 5592,
      "ĠGerman": 5593,
      "Ġdiac": 5594,
      "ĠIul": 5595,
      "Ġpern": 5596,
      "Ġpun": 5597,
      "ĠIun": 5598,
      "Ġsuperbi": 5599,
      "Ġcolum": 5600,
      "Ġtet": 5601,
      "pol": 5602,
      "cr": 5603,
      "Ġdifferentia": 5604,
      "Ġheb": 5605,
      "Ġimprob": 5606,
      "ĠMagnam": 5607,
      "Ġgradu": 5608,
      "Ġconfus": 5609,
      "ĠIllo": 5610,
      "Ġturp": 5611,
      "ĠXV": 5612,
      "Ġhabitati": 5613,
      "Ġpertinent": 5614,
      "terius": 5615,
      "ĠHieronym": 5616,
      "Ġmou": 5617,
      "Ġsanctific": 5618,
      "ĠGoogle": 5619,
      "timus": 5620,
      "ĠTra": 5621,
      "Ġtrit": 5622,
      "ĠImpedit": 5623,
      "Ġfacilius": 5624,
      "aron": 5625,
      "Ġmane": 5626,
      "Ġdamnum": 5627,
      "Ġviribus": 5628,
      "Ġcuram": 5629,
      "Ġpericulum": 5630,
      "Cur": 5631,
      "Ġdicis": 5632,
      "Ġaltero": 5633,
      "ĠDeleniti": 5634,
      "ĠMal": 5635,
      "Ġnutr": 5636,
      "ĠError": 5637,
      "Ġsenatus": 5638,
      "ĠDolorum": 5639,
      "Ġcontum": 5640,
      "Ġconn": 5641,
      "Ġdignum": 5642,
      "ĠTro": 5643,
      "Ġcapt": 5644,
      "Ġueni": 5645,
      "anta": 5646,
      "ity": 5647,
      "ugait": 5648,
      "emque": 5649,
      "Ġaliqui": 5650,
      "ĠQuibusdam": 5651,
      "ibili": 5652,
      "undia": 5653,
      "Ġillas": 5654,
      "asci": 5655,
      "ĠLaborum": 5656,
      "Ġpotestas": 5657,
      "Ġcredere": 5658,
      "Ġhorr": 5659,
      "Ġvideatur": 5660,
      "amenti": 5661,
      "Ġtollit": 5662,
      "ĠQuomodo": 5663,
      "ij": 5664,
      "ĠDebitis": 5665,
      "Ġsacramentum": 5666,
      "Ġproper": 5667,
      "Ġordinis": 5668,
      "Ġpecunia": 5669,
      "Ġassign": 5670,
      "Ġaeris": 5671,
      "able": 5672,
      "Ġmediocr": 5673,
      "Ġcongr": 5674,
      "ĠAdipisci": 5675,
      "Ġsord": 5676,
      "Ġhy": 5677,
      "Ġtransfer": 5678,
      "tini": 5679,
      "Ġsurg": 5680,
      "Ġquaeritur": 5681,
      "ĠSimilique": 5682,
      "Ġdatum": 5683,
      "ĠEaque": 5684,
      "inctio": 5685,
      "Ġappareat": 5686,
      "issem": 5687,
      "ullius": 5688,
      "Ġvelle": 5689,
      "Ġdeinceps": 5690,
      "Ġram": 5691,
      "Ġphilosophia": 5692,
      "Ġinqui": 5693,
      "Ġeundem": 5694,
      "Ġlep": 5695,
      "Ġreligionis": 5696,
      "ĠBene": 5697,
      "Ġtyrann": 5698,
      "Ġlon": 5699,
      "escat": 5700,
      "toria": 5701,
      "opis": 5702,
      "ĠBal": 5703,
      "Ġmajor": 5704,
      "ĠMinima": 5705,
      "andos": 5706,
      "Ġalti": 5707,
      "Ġasp": 5708,
      "Ġmatris": 5709,
      "ĠDucimus": 5710,
      "itavit": 5711,
      "ejun": 5712,
      "Ġgentibus": 5713,
      "Ġnequaquam": 5714,
      "upta": 5715,
      "//": 5716,
      "enos": 5717,
      "ĠOptio": 5718,
      "Ġfix": 5719,
      "ĠPis": 5720,
      "Ġpetit": 5721,
      "Ġgloriae": 5722,
      "Ġsimiles": 5723,
      "avimus": 5724,
      "irent": 5725,
      "Ġpostr": 5726,
      "Ġ23": 5727,
      "ĠAud": 5728,
      "Ġmisericordiam": 5729,
      "ĠAlb": 5730,
      "turb": 5731,
      "Ġrecipi": 5732,
      "ĠModi": 5733,
      "Ġcreb": 5734,
      "ĠCorrupti": 5735,
      "ĠPraesentium": 5736,
      "Ġnati": 5737,
      "ĠRatione": 5738,
      "Ġcoeli": 5739,
      "Ġparatus": 5740,
      "ĠPlaceat": 5741,
      "umenta": 5742,
      "Ġurg": 5743,
      "emos": 5744,
      "Ġdomest": 5745,
      "Ġdefer": 5746,
      "enia": 5747,
      "abimus": 5748,
      "Ġcontingit": 5749,
      "Ġpectore": 5750,
      "Ġpress": 5751,
      "Ġsuperb": 5752,
      "ĠSin": 5753,
      "entos": 5754,
      "emn": 5755,
      "itatu": 5756,
      "ĠIpsam": 5757,
      "Ġabl": 5758,
      "ĠSecundo": 5759,
      "Ġaetate": 5760,
      "ĠPul": 5761,
      "ĠVoluptates": 5762,
      "Ġpi": 5763,
      "Ġcivibus": 5764,
      "ĠFilii": 5765,
      "ĠEarum": 5766,
      "ivi": 5767,
      "Ġaeterno": 5768,
      "Ġoppidum": 5769,
      "Ġduabus": 5770,
      "udum": 5771,
      "ilo": 5772,
      "Ġalbum": 5773,
      "ĠBlanditiis": 5774,
      "Ġinuen": 5775,
      "atic": 5776,
      "Ġvestris": 5777,
      "Ġpericulis": 5778,
      "Ġsponte": 5779,
      "Ġitin": 5780,
      "Ġsuffrag": 5781,
      "Ġinterc": 5782,
      "alitatem": 5783,
      "Ġclav": 5784,
      "ĠEveniet": 5785,
      "Ġfines": 5786,
      "ĠAperiam": 5787,
      "Ġpraesenti": 5788,
      "Ġstudium": 5789,
      "ĠCupiditate": 5790,
      "ĠVoluptatum": 5791,
      "Ġinm": 5792,
      "gredi": 5793,
      "Ġtransf": 5794,
      "Ġmatur": 5795,
      "ector": 5796,
      "Ġamoris": 5797,
      "Ġinimicus": 5798,
      "Ġfel": 5799,
      "Ġalicuius": 5800,
      "Ġexercitum": 5801,
      "inio": 5802,
      "Ġelabor": 5803,
      "ĠQuoniam": 5804,
      "Ġsacris": 5805,
      "Ġdetrac": 5806,
      "Ecce": 5807,
      "Ġpene": 5808,
      "Ġfiduc": 5809,
      "Quare": 5810,
      "Ġmanifestum": 5811,
      "Ġcup": 5812,
      "Ġsubsc": 5813,
      "ĠScriptura": 5814,
      "ĠAntioch": 5815,
      "itti": 5816,
      "Ġscientiae": 5817,
      "Ġpericulo": 5818,
      "gna": 5819,
      "Ġpatr": 5820,
      "Ġmedit": 5821,
      "Ġdiuis": 5822,
      "ĠSer": 5823,
      "Ġexor": 5824,
      "Ġnegotium": 5825,
      "ĠMollitia": 5826,
      "Ġdicant": 5827,
      "ĠExcepturi": 5828,
      "ace": 5829,
      "ĠLaboriosam": 5830,
      "ĠTotam": 5831,
      "Ġamorem": 5832,
      "12": 5833,
      "Ġsiquidem": 5834,
      "Ġou": 5835,
      "Ġindiv": 5836,
      "istere": 5837,
      "Ġtemporum": 5838,
      "Ġullum": 5839,
      "alli": 5840,
      "Ġtimore": 5841,
      "Ġvestrum": 5842,
      "Ġpotentiam": 5843,
      "Ġoleum": 5844,
      "Ġorbe": 5845,
      "ibilia": 5846,
      "ĠCre": 5847,
      "ĠScelerisque": 5848,
      "ĠPossimus": 5849,
      "ĠMolestias": 5850,
      "Ġcontradic": 5851,
      "Ġcasus": 5852,
      "Ġinvestig": 5853,
      "ĠMe": 5854,
      "Ġquaeso": 5855,
      "Ġperegrin": 5856,
      "osi": 5857,
      "urrit": 5858,
      "Ġmilitum": 5859,
      "Ġcrass": 5860,
      "Ġexcel": 5861,
      "Ġnaturaliter": 5862,
      "Ġvocatur": 5863,
      "Ġinnum": 5864,
      "Ġoporteat": 5865,
      "ermis": 5866,
      "ĠAssumenda": 5867,
      "Ips": 5868,
      "Ġdefini": 5869,
      "quae": 5870,
      "Ġdispens": 5871,
      "Ġonline": 5872,
      "ensio": 5873,
      "Ġcomment": 5874,
      "Ġiustum": 5875,
      "Ġplan": 5876,
      "Ġvocibus": 5877,
      "tric": 5878,
      "Ġci": 5879,
      "raesent": 5880,
      "Ġtakimata": 5881,
      "ĠExpedita": 5882,
      "ĠRepudiandae": 5883,
      "ĠDignissimos": 5884,
      "ĠAegy": 5885,
      "erata": 5886,
      "Ġvendit": 5887,
      "Ġexpedit": 5888,
      "Ġiuu": 5889,
      "Ġfieret": 5890,
      "Ġinfid": 5891,
      "urb": 5892,
      "ĠArab": 5893,
      "Ġalum": 5894,
      "ĠMaiores": 5895,
      "Ġbo": 5896,
      "ĠQuisquam": 5897,
      "Ġperfecta": 5898,
      "ubi": 5899,
      "acem": 5900,
      "ĠVeritatis": 5901,
      "Ġhyp": 5902,
      "Ġvoluntatis": 5903,
      "Ġfabric": 5904,
      "Ġlatere": 5905,
      "Ġtel": 5906,
      "Ġsubm": 5907,
      "Ġrespectu": 5908,
      "Ġcapti": 5909,
      "ĠNecessitatibus": 5910,
      "Ġagens": 5911,
      "Ġcomed": 5912,
      "ĠDie": 5913,
      "amb": 5914,
      "Ġsemen": 5915,
      "incipis": 5916,
      "Ġincipi": 5917,
      "ĠDa": 5918,
      "Ġfortis": 5919,
      "wn": 5920,
      "Ġaures": 5921,
      "Ġfalsa": 5922,
      "apropter": 5923,
      "Ġsanguis": 5924,
      "Ġcertum": 5925,
      "ka": 5926,
      "Ġiuc": 5927,
      "Ġsuscipere": 5928,
      "Ġincend": 5929,
      "Ġidcirco": 5930,
      "Ġlumine": 5931,
      "ĠVide": 5932,
      "ĠExercitationem": 5933,
      "eremus": 5934,
      "ĠCapit": 5935,
      "Ġinitium": 5936,
      "utio": 5937,
      "ĠSalom": 5938,
      "gnum": 5939,
      "ĠÐ": 5940,
      "Ġvigil": 5941,
      "Ġistius": 5942,
      "terum": 5943,
      "Ġdictus": 5944,
      "Ġpatriae": 5945,
      "Ġincrem": 5946,
      "ysi": 5947,
      "Ġobv": 5948,
      "ĠRomanorum": 5949,
      "hone": 5950,
      "Ġfacultatem": 5951,
      "Ġalta": 5952,
      "Ġtorm": 5953,
      "ĠProvident": 5954,
      "Ġquosdam": 5955,
      "Ġkasd": 5956,
      "ĠAsperiores": 5957,
      "osis": 5958,
      "Ġforo": 5959,
      "Ġrud": 5960,
      "Ġcorda": 5961,
      "Ġqualiter": 5962,
      "Ġdict": 5963,
      "Ġprosper": 5964,
      "Ġcirciter": 5965,
      "arie": 5966,
      "Ġforis": 5967,
      "Ġvenire": 5968,
      "Î¼": 5969,
      "ĠCorn": 5970,
      "ĠHanc": 5971,
      "Ġfluv": 5972,
      "ĠSteph": 5973,
      "egit": 5974,
      "Ġconci": 5975,
      "ĠIncidunt": 5976,
      "ĠQuaerat": 5977,
      "Ġperfici": 5978,
      "ĠMariae": 5979,
      "Ġtrem": 5980,
      "arias": 5981,
      "Ġviginti": 5982,
      "Ġmagnitudine": 5983,
      "ĠEb": 5984,
      "ĠOccaecati": 5985,
      "ressus": 5986,
      "Ġsuad": 5987,
      "Ġmonte": 5988,
      "Ġcontinuo": 5989,
      "ingere": 5990,
      "Ġsingularis": 5991,
      "ĠOdit": 5992,
      "Ġoculi": 5993,
      "ĠAccusantium": 5994,
      "Ġvultus": 5995,
      "anitas": 5996,
      "ĠCathol": 5997,
      "isso": 5998,
      "Ġlaps": 5999,
      "Ġaffectus": 6000,
      "Ġreliqui": 6001,
      "uros": 6002,
      "erer": 6003,
      "Ġequit": 6004,
      "Ġmeritis": 6005,
      "Ġaetatis": 6006,
      "Ġconven": 6007,
      "SS": 6008,
      "eophras": 6009,
      "Ġjejun": 6010,
      "ĠDoloribus": 6011,
      "picit": 6012,
      "osus": 6013,
      "ĠBas": 6014,
      "Ġproprio": 6015,
      "Ġcorrup": 6016,
      "luc": 6017,
      "Sunt": 6018,
      "Ġpax": 6019,
      "ĠSequi": 6020,
      "tenus": 6021,
      "Ġimago": 6022,
      "Ġtenebris": 6023,
      "Ġpatres": 6024,
      "Ġloquor": 6025,
      "ebitur": 6026,
      "Ġhistoria": 6027,
      "ĠArchitecto": 6028,
      "Ġquoddam": 6029,
      "Ġuinc": 6030,
      "ĠRecus": 6031,
      "Ġdul": 6032,
      "ĠAbraham": 6033,
      "Ġuas": 6034,
      "Ġveritate": 6035,
      "ĠIov": 6036,
      "Ġtre": 6037,
      "Ġhosti": 6038,
      "Ġdomi": 6039,
      "Ġmaiorum": 6040,
      "Ġcorrig": 6041,
      "ogo": 6042,
      "Ġpriu": 6043,
      "Ġsale": 6044,
      "Ġvidet": 6045,
      "ĠDelectus": 6046,
      "uat": 6047,
      "Tu": 6048,
      "piscopis": 6049,
      "Ġscand": 6050,
      "ĠAss": 6051,
      "mum": 6052,
      "Ġincred": 6053,
      "Ġindulg": 6054,
      "Ġpraepos": 6055,
      "ĠRec": 6056,
      "Ġpersonae": 6057,
      "11": 6058,
      "Ġopportun": 6059,
      "imenta": 6060,
      "Ġoption": 6061,
      "30": 6062,
      "Ġfugi": 6063,
      "Ġpietatis": 6064,
      "Ġlibros": 6065,
      "ĠInventore": 6066,
      "Ġuni": 6067,
      "ĠFuga": 6068,
      "ous": 6069,
      "ĠPraec": 6070,
      "Ġglorios": 6071,
      "ĠPariatur": 6072,
      "Ġreci": 6073,
      "itit": 6074,
      "ĠProph": 6075,
      "Ġcupi": 6076,
      "ĠIii": 6077,
      "Ġsemp": 6078,
      "Ġumquam": 6079,
      "TI": 6080,
      "Ġfecerunt": 6081,
      "Ġquotidie": 6082,
      "Ġsitum": 6083,
      "Ġvolum": 6084,
      "Ġfeugait": 6085,
      "Ġfuerant": 6086,
      "Ġpagina": 6087,
      "Ġabhor": 6088,
      "000": 6089,
      "octum": 6090,
      "Ġcontrarium": 6091,
      "Ġfigur": 6092,
      "ĠSalv": 6093,
      "Ġfiliorum": 6094,
      "ĠTenetur": 6095,
      "Ġnequ": 6096,
      "Ġmob": 6097,
      "ĠJacob": 6098,
      "Ġlegibus": 6099,
      "ertus": 6100,
      "mata": 6101,
      "Ġdonum": 6102,
      "Ġcibum": 6103,
      "pro": 6104,
      "Ġparva": 6105,
      "Ġmillia": 6106,
      "imos": 6107,
      "Ġsta": 6108,
      "Ġfati": 6109,
      "ĠAspernatur": 6110,
      "ĠIgitur": 6111,
      "Ġservus": 6112,
      "ades": 6113,
      "ĠMi": 6114,
      "Ġdirig": 6115,
      "Ġaccep": 6116,
      "Ġlibid": 6117,
      "Ġrapt": 6118,
      "Ġjure": 6119,
      "Ġassid": 6120,
      "ĠRob": 6121,
      "ingit": 6122,
      "Ġviros": 6123,
      "Ġadha": 6124,
      "Ġintelligitur": 6125,
      "Ġstudios": 6126,
      "ĠPho": 6127,
      "xi": 6128,
      "ures": 6129,
      "Ġceteros": 6130,
      "ĠLaudantium": 6131,
      "Ġjustitiam": 6132,
      "ĠConsequuntur": 6133,
      "Ġdiscret": 6134,
      "ĠAustr": 6135,
      "Ġmaledic": 6136,
      "Ġhumani": 6137,
      "ĠRepellat": 6138,
      "atenus": 6139,
      "Ġauri": 6140,
      "ĠFe": 6141,
      "Ġalteri": 6142,
      "ĠSapiente": 6143,
      "usus": 6144,
      "Ġsym": 6145,
      "Ca": 6146,
      "ĠAegypti": 6147,
      "ĠExplicabo": 6148,
      "idera": 6149,
      "ĠJoannes": 6150,
      "Ġprincipia": 6151,
      "Ġnostrorum": 6152,
      "Ġmisc": 6153,
      "Ġreddit": 6154,
      "Ġexplor": 6155,
      "Ġjac": 6156,
      "Ġdelenit": 6157,
      "Ġposita": 6158,
      "uitas": 6159,
      "inet": 6160,
      "ĠUrb": 6161,
      "andas": 6162,
      "Ġnonnull": 6163,
      "Ġpe": 6164,
      "Ġhabitu": 6165,
      "ibil": 6166,
      "unam": 6167,
      "Ġbal": 6168,
      "Ġdecus": 6169,
      "Ġuidelicet": 6170,
      "Ġdisper": 6171,
      "ĠSex": 6172,
      "Ġimpossibile": 6173,
      "ĠDistinctio": 6174,
      "ĠPerspiciatis": 6175,
      "Ġinterest": 6176,
      "Ġpatern": 6177,
      "elix": 6178,
      "Ġvocant": 6179,
      "ĠCommodo": 6180,
      "ĠSumm": 6181,
      "quisque": 6182,
      "Ġintegr": 6183,
      "ĠVoluptatibus": 6184,
      "odum": 6185,
      "Ġistam": 6186,
      "Ġpartis": 6187,
      "Ġantec": 6188,
      "ĠBab": 6189,
      "Ġincom": 6190,
      "ĠTrans": 6191,
      "ĠPerferendis": 6192,
      "ĠNesciunt": 6193,
      "ertere": 6194,
      "met": 6195,
      "illis": 6196,
      "ĠFranci": 6197,
      "ceper": 6198,
      "Ġcorporum": 6199,
      "ĠRecusandae": 6200,
      "Ġfaceret": 6201,
      "ĠVerbum": 6202,
      "Ġultimum": 6203,
      "Ġjustitia": 6204,
      "ose": 6205,
      "Ġcotidi": 6206,
      "Ġlacrym": 6207,
      "estium": 6208,
      "ĠReiciendis": 6209,
      "igr": 6210,
      "ĠAugue": 6211,
      "ommunic": 6212,
      "Ġcus": 6213,
      "usit": 6214,
      "Ġdiversa": 6215,
      "ĠObs": 6216,
      "Ġlatus": 6217,
      "enci": 6218,
      "Ġmomenti": 6219,
      "ĠExcepteur": 6220,
      "ĠSatur": 6221,
      "Ġmeos": 6222,
      "ss": 6223,
      "://": 6224,
      "Ġquoad": 6225,
      "ĠHac": 6226,
      "ĠRepellendus": 6227,
      "Ġrecord": 6228,
      "ĠDoloremque": 6229,
      "urp": 6230,
      "zed": 6231,
      "ĠSolis": 6232,
      "Ġpatriam": 6233,
      "mon": 6234,
      "ĠQuando": 6235,
      "ĠSax": 6236,
      "inth": 6237,
      "ĠMic": 6238,
      "Ġlibera": 6239,
      "Ġcivitas": 6240,
      "Ġvidisse": 6241,
      "iderint": 6242,
      "Ph": 6243,
      "audi": 6244,
      "Ġinsuper": 6245,
      "utae": 6246,
      "Ġsedes": 6247,
      "inop": 6248,
      "ĠCuius": 6249,
      "Ġconjug": 6250,
      "Ne": 6251,
      "Ġmatrem": 6252,
      "Ġcaetera": 6253,
      "Ġdiut": 6254,
      "Ġvocab": 6255,
      "Ġdesper": 6256,
      "ĠRomanis": 6257,
      "ĠBern": 6258,
      "Ġimperii": 6259,
      "Ġingens": 6260,
      "Ġaegr": 6261,
      "Ġquaerere": 6262,
      "ĠTim": 6263,
      "ĠIgn": 6264,
      "icibus": 6265,
      "Ġfabulas": 6266,
      "Ġinquis": 6267,
      "isl": 6268,
      "acis": 6269,
      "Ġplaga": 6270,
      "Ġdest": 6271,
      "Ġ+": 6272,
      "Ġagitur": 6273,
      "Ġaccidit": 6274,
      "odus": 6275,
      "Ġpassim": 6276,
      "illo": 6277,
      "Ġhactenus": 6278,
      "ulto": 6279,
      "Ġterras": 6280,
      "Ġpraebet": 6281,
      "Ġimmo": 6282,
      "Ġresid": 6283,
      "Ġsacerdotes": 6284,
      "Ġduce": 6285,
      "Ġlup": 6286,
      "Ġhabitum": 6287,
      "erae": 6288,
      "oec": 6289,
      "ĠBel": 6290,
      "ĠIlla": 6291,
      "tob": 6292,
      "Ġfierent": 6293,
      "Ġdefinitionem": 6294,
      "Ġsuscept": 6295,
      "Ġstatum": 6296,
      "ĠFilio": 6297,
      "Ġsuffici": 6298,
      "imen": 6299,
      "neum": 6300,
      "ĠAristoteles": 6301,
      "ineat": 6302,
      "ĠGalli": 6303,
      "ĠCard": 6304,
      "18": 6305,
      "Å¿": 6306,
      "Ġpondus": 6307,
      "Pos": 6308,
      "Ġperg": 6309,
      "Ġfecerit": 6310,
      "Ġcomplectitur": 6311,
      "ibet": 6312,
      "Ġlar": 6313,
      "Ġexcit": 6314,
      "Ġiussit": 6315,
      "Ġpotentiae": 6316,
      "Ġcircuit": 6317,
      "Ġsequuntur": 6318,
      "Ġsacerdo": 6319,
      "Ġpurp": 6320,
      "Ġtulit": 6321,
      "Ġfestin": 6322,
      "ĠFort": 6323,
      "Ġosc": 6324,
      "orumque": 6325,
      "Ġcreatura": 6326,
      "Ġpuls": 6327,
      "ierunt": 6328,
      "erique": 6329,
      "Ġdigna": 6330,
      "ĠHipp": 6331,
      "Ġinstar": 6332,
      "Ġedic": 6333,
      "ole": 6334,
      "Ġilluc": 6335,
      "Ġepiscopum": 6336,
      "Ġmaximum": 6337,
      "Ġsaecula": 6338,
      "erii": 6339,
      "Ġpoenitentiam": 6340,
      "Ġintu": 6341,
      "Ġlinguae": 6342,
      "Ġaccur": 6343,
      "Ġquamquam": 6344,
      "Ġmaiorem": 6345,
      "Ġgrand": 6346,
      "Ġsemetips": 6347,
      "Ġconstituit": 6348,
      "aturus": 6349,
      "gressus": 6350,
      "ĠLacus": 6351,
      "sed": 6352,
      "assum": 6353,
      "Ġerroribus": 6354,
      "Ġlibrum": 6355,
      "Ġobr": 6356,
      "elius": 6357,
      "ĠEuropae": 6358,
      "Ġoffendit": 6359,
      "ĠCel": 6360,
      "arit": 6361,
      "Ġprocedit": 6362,
      "ĠItaliae": 6363,
      "14": 6364,
      "Ġsapiens": 6365,
      "ĠIesu": 6366,
      "IX": 6367,
      "ĠSum": 6368,
      "Ġcontinet": 6369,
      "acium": 6370,
      "liv": 6371,
      "Ġobsid": 6372,
      "Ġlin": 6373,
      "Hab": 6374,
      "Ġaetern": 6375,
      "Ġhostis": 6376,
      "Ġuenit": 6377,
      "Ġuera": 6378,
      "Ġsepulc": 6379,
      "illam": 6380,
      "zim": 6381,
      "Ġspons": 6382,
      "Ġpoenam": 6383,
      "ĠRa": 6384,
      "ĠiP": 6385,
      "issi": 6386,
      "Ġcommut": 6387,
      "erio": 6388,
      "ĠJohann": 6389,
      "Vid": 6390,
      "Quibus": 6391,
      "Ġprecibus": 6392,
      "Ġsig": 6393,
      "Ġsustent": 6394,
      "Ġnorm": 6395,
      "orio": 6396,
      "Ġpanis": 6397,
      "Ġpatitur": 6398,
      "Ġappellatur": 6399,
      "ĠEgestas": 6400,
      "Ġaltare": 6401,
      "St": 6402,
      "cha": 6403,
      "Ġdicti": 6404,
      "phem": 6405,
      "Ġreperi": 6406,
      "etam": 6407,
      "ĠBl": 6408,
      "Ġnuncup": 6409,
      "enditur": 6410,
      "Ġdari": 6411,
      "ãĥ": 6412,
      "Ġuerbis": 6413,
      "Ġmagnitudinem": 6414,
      "Ġquarto": 6415,
      "inorum": 6416,
      "dom": 6417,
      "Ġnecessario": 6418,
      "ĠAccumsan": 6419,
      "Ġimmut": 6420,
      "',": 6421,
      "ĠAmb": 6422,
      "Ġplat": 6423,
      "ĠMea": 6424,
      "Ġbesti": 6425,
      "Ġregna": 6426,
      "ĠFam": 6427,
      "Ġinterv": 6428,
      "Ġdierum": 6429,
      "Ġurbs": 6430,
      "Ġcooper": 6431,
      "Ġcorporibus": 6432,
      "Ġbrach": 6433,
      "Ġinvenitur": 6434,
      "Ġtriginta": 6435,
      "Ġvisum": 6436,
      "Ġsedem": 6437,
      "ĠIanu": 6438,
      "ocus": 6439,
      "Ġdoctus": 6440,
      "ĠIoannes": 6441,
      "urn": 6442,
      "tex": 6443,
      "Ġdecern": 6444,
      "idas": 6445,
      "eratus": 6446,
      "Ġaeternam": 6447,
      "pa": 6448,
      "Ġjustitiae": 6449,
      "Ġperduc": 6450,
      "Ġamici": 6451,
      "ĠDenique": 6452,
      "Ġextremum": 6453,
      "Ġreprim": 6454,
      "Ġ26": 6455,
      "Ġpolit": 6456,
      "Ġsuppos": 6457,
      "Ġnou": 6458,
      "ĠLong": 6459,
      "Ġaquas": 6460,
      "ow": 6461,
      "Ġessenti": 6462,
      "Ġlangu": 6463,
      "Ġquamuis": 6464,
      "Ġcaptiv": 6465,
      "Ġcompon": 6466,
      "Ġperturb": 6467,
      "Ġsyll": 6468,
      "ĠDictum": 6469,
      "oan": 6470,
      "Ġreliqua": 6471,
      "acter": 6472,
      "Ġperfecto": 6473,
      "Ġsempiter": 6474,
      "Ġdeorum": 6475,
      "Ġreddere": 6476,
      "ĠMei": 6477,
      "Ġornatus": 6478,
      "yb": 6479,
      "ĠSci": 6480,
      "Ġadept": 6481,
      "Ġpari": 6482,
      "Ġspirit": 6483,
      "Ġquarta": 6484,
      "Ġdoctrinam": 6485,
      "Ġveluti": 6486,
      "ĠRomana": 6487,
      "ullus": 6488,
      "Quomodo": 6489,
      "Ġquodammodo": 6490,
      "amina": 6491,
      "Sc": 6492,
      "Ġdescendit": 6493,
      "abam": 6494,
      "Ġdicto": 6495,
      "ĠJerusalem": 6496,
      "Ġoris": 6497,
      "Ġfructu": 6498,
      "ĠMer": 6499,
      "upp": 6500,
      "Ġperu": 6501,
      "verunt": 6502,
      "Ġessentiam": 6503,
      "ĠHebrae": 6504,
      "ĠAcadem": 6505,
      "Quem": 6506,
      "vum": 6507,
      "Ġnavig": 6508,
      "Ġsuus": 6509,
      "Ġcognoscere": 6510,
      "Ġpropriis": 6511,
      "Ġdiligit": 6512,
      "Ġultima": 6513,
      "Ġpraesentia": 6514,
      "Ġsimilia": 6515,
      "Ġiras": 6516,
      "Ġfidelium": 6517,
      "ĠPop": 6518,
      "Ġ199": 6519,
      "Îº": 6520,
      "\"..": 6521,
      "ĠPrimo": 6522,
      "Ġmutat": 6523,
      "ĠSil": 6524,
      "ĠItal": 6525,
      "Ġso": 6526,
      "Ġtard": 6527,
      "Ġhae": 6528,
      "Ġuter": 6529,
      "Ġmonasterio": 6530,
      "Ġtoler": 6531,
      "ĠItalia": 6532,
      "fectum": 6533,
      "ĠHerc": 6534,
      "Ġpueri": 6535,
      "ĠHom": 6536,
      "Ġsita": 6537,
      "Ġexpon": 6538,
      "itudines": 6539,
      "Ġfratrum": 6540,
      "Ġampli": 6541,
      "ĠVim": 6542,
      "ĠTellus": 6543,
      "Ġprael": 6544,
      "ĠRoma": 6545,
      "Ġregum": 6546,
      "ĠParis": 6547,
      "ĠRomano": 6548,
      "atori": 6549,
      "Ġapostoli": 6550,
      "Ġec": 6551,
      "Ġintim": 6552,
      "Ġnata": 6553,
      "Ġsapientem": 6554,
      "ĠTar": 6555,
      "ĠPauli": 6556,
      "Ġperspic": 6557,
      "Ġfrum": 6558,
      "ĠIohann": 6559,
      "Ipse": 6560,
      "Ġexim": 6561,
      "Ġmunicip": 6562,
      "ĠGraeci": 6563,
      "Ġsubdit": 6564,
      "itionibus": 6565,
      "Ġ27": 6566,
      "hem": 6567,
      "ĠUsu": 6568,
      "Ġprav": 6569,
      "Primo": 6570,
      "Ġpris": 6571,
      "Ġduplex": 6572,
      "Ġasser": 6573,
      "ulares": 6574,
      "Ġcustodi": 6575,
      "Ġintroduc": 6576,
      "Ġuix": 6577,
      "ĠMaced": 6578,
      "Ġgerm": 6579,
      "Ġmandamus": 6580,
      "Ġprog": 6581,
      "urei": 6582,
      "Ġlucis": 6583,
      "Ġcerto": 6584,
      "ĠMort": 6585,
      "Ġmultas": 6586,
      "pianus": 6587,
      "ĠFlor": 6588,
      "Ġproducts": 6589,
      "Ġingredi": 6590,
      "Ġquaerit": 6591,
      "Ġdubium": 6592,
      "Ġinquir": 6593,
      "Ġprobat": 6594,
      "Ġperfectum": 6595,
      "Ġnatu": 6596,
      "Ġumbra": 6597,
      "Ġillae": 6598,
      "entissime": 6599,
      "Ġfamilia": 6600,
      "Ġdicebat": 6601,
      "Ġdeg": 6602,
      "Ġexplicari": 6603,
      "Ġpublice": 6604,
      "Ġquaerendum": 6605,
      "uorum": 6606,
      "Ġmetall": 6607,
      "essi": 6608,
      "Ġlibertatem": 6609,
      "Ġcomper": 6610,
      "Ġbrevi": 6611,
      "Ġpeper": 6612,
      "Ġ28": 6613,
      "Ġsicc": 6614,
      "Ġgaudium": 6615,
      "Ġmonasterium": 6616,
      "antas": 6617,
      "Ġmultitudo": 6618,
      "Vel": 6619,
      "Ġpre": 6620,
      "Ġpara": 6621,
      "16": 6622,
      "Ġungu": 6623,
      "ibilem": 6624,
      "Ġaquis": 6625,
      "Ġcognitionem": 6626,
      "Ġsapientiam": 6627,
      "Ġpecus": 6628,
      "Ġdicentes": 6629,
      "Ġmaiestatis": 6630,
      "Ġmora": 6631,
      "ack": 6632,
      "Ġconstituto": 6633,
      "Ġforet": 6634,
      "Ġponere": 6635,
      "Ġconclusionem": 6636,
      "ĠÂ§": 6637,
      "ĠLatine": 6638,
      "berg": 6639,
      "econom": 6640,
      "Ġaffic": 6641,
      "Ġpariet": 6642,
      "andri": 6643,
      "Ġmenses": 6644,
      "idie": 6645,
      "ungit": 6646,
      "mos": 6647,
      "rentur": 6648,
      "ectiones": 6649,
      "Ġpositum": 6650,
      "obi": 6651,
      "Ġetiamsi": 6652,
      "ĠOn": 6653,
      "utionem": 6654,
      "aturque": 6655,
      "olibet": 6656,
      "Ġrip": 6657,
      "ĠTib": 6658,
      "Ġrepl": 6659,
      "Ġvag": 6660,
      "Ġfratris": 6661,
      "ĠRegis": 6662,
      "Ġcapita": 6663,
      "Ġconsilia": 6664,
      "Ġpossis": 6665,
      "ĠUlpianus": 6666,
      "Ġprotinus": 6667,
      "Ġproprius": 6668,
      "Ġthesa": 6669,
      "Ġalicui": 6670,
      "Ġredit": 6671,
      "Ġincarn": 6672,
      "nox": 6673,
      "Ġputa": 6674,
      "Ġstatus": 6675,
      "Ġvehementer": 6676,
      "ementum": 6677,
      "Ġuirg": 6678,
      "Ġpercipit": 6679,
      "Ġopes": 6680,
      "Ġpretio": 6681,
      "pidis": 6682,
      "acus": 6683,
      "gni": 6684,
      "cius": 6685,
      "Ġanimas": 6686,
      "Ġitinere": 6687,
      "Ġprovoc": 6688,
      "Ġservit": 6689,
      "Ġgloriatur": 6690,
      "pisse": 6691,
      "Ġingenio": 6692,
      "Ġnaturali": 6693,
      "Ġfabrica": 6694,
      "Ġconsp": 6695,
      "Ġquoc": 6696,
      "Ġge": 6697,
      "Ġtemplo": 6698,
      "Ġanimalia": 6699,
      "ĠIbi": 6700,
      "Ġgradum": 6701,
      "Ġamicitia": 6702,
      "ĠSea": 6703,
      "ĠTincidunt": 6704,
      "Ġaffert": 6705,
      "Ġatom": 6706,
      "Ġpropriam": 6707,
      "Ġek": 6708,
      "lioth": 6709,
      "Ġfrequenter": 6710,
      "ĠHuius": 6711,
      "Ap": 6712,
      "Cui": 6713,
      "Ġsalub": 6714,
      "Ġinhib": 6715,
      "Ġlen": 6716,
      "Ġomnesque": 6717,
      "Ġproximum": 6718,
      "ĠBa": 6719,
      "icia": 6720,
      "ĠAugusti": 6721,
      "ripsit": 6722,
      "Ġpulchr": 6723,
      "Ġspatio": 6724,
      "Ġfov": 6725,
      "ode": 6726,
      "onae": 6727,
      "ik": 6728,
      "Ġurbes": 6729,
      "Ġrepudi": 6730,
      "Ġmultorum": 6731,
      "Ġpersonam": 6732,
      "amine": 6733,
      "Ġcrucis": 6734,
      "Ġgign": 6735,
      "za": 6736,
      "Ġdoloris": 6737,
      "Ġpassus": 6738,
      "Ġascendit": 6739,
      "ĠPetro": 6740,
      "Ġperag": 6741,
      "ze": 6742,
      "Ġhostem": 6743,
      "Ġchoro": 6744,
      "Ġvulgo": 6745,
      "Ġtalibus": 6746,
      "acti": 6747,
      "actis": 6748,
      "13": 6749,
      "Ġinfinitum": 6750,
      "Ġreliquis": 6751,
      "Secundo": 6752,
      "ĠDion": 6753,
      "Ġadolescens": 6754,
      "iturus": 6755,
      "ĠGeorg": 6756,
      "Ġcastris": 6757,
      "ologia": 6758,
      "Ġsursum": 6759,
      "Ġuelut": 6760,
      "Ġdesid": 6761,
      "ectam": 6762,
      "endunt": 6763,
      "Ġintern": 6764,
      "aniam": 6765,
      "Denique": 6766,
      "vae": 6767,
      "Ġullo": 6768,
      "ĠGallic": 6769,
      "uerant": 6770,
      "ĠTempus": 6771,
      "ĠConstantinop": 6772,
      "Ġiisque": 6773,
      "Ġpatrio": 6774,
      "Ġtenere": 6775,
      "Ġtempt": 6776,
      "avisse": 6777,
      "urreret": 6778,
      "entiarum": 6779,
      "Ġplacuit": 6780,
      "Ġfrug": 6781,
      "Ġsuperst": 6782,
      "ĠPag": 6783,
      "Ġpertinere": 6784,
      "Ġperst": 6785,
      "Ġaliena": 6786,
      "Ġconviv": 6787,
      "Ġverbi": 6788,
      "ĠMassa": 6789,
      "arthag": 6790,
      "Ġsinc": 6791,
      "Ġabbas": 6792,
      "Ġincho": 6793,
      "Ġnex": 6794,
      "yt": 6795,
      "Ġfaciet": 6796,
      "Ġlitterarum": 6797,
      "Ġcamp": 6798,
      "Ġrevers": 6799,
      "Ġuult": 6800,
      "Ġconduc": 6801,
      "ĠAv": 6802,
      "ĠPage": 6803,
      "Ġconsenti": 6804,
      "ĠPyr": 6805,
      "Ġactionem": 6806,
      "Ġdiuina": 6807,
      "Ġcin": 6808,
      "riptio": 6809,
      "Ġprimae": 6810,
      "ĠBabyl": 6811,
      "ĠHunc": 6812,
      "Ġverter": 6813,
      "Ġutitur": 6814,
      "Ġiura": 6815,
      "alam": 6816,
      "Ġlibenter": 6817,
      "ymph": 6818,
      "Ġconsistit": 6819,
      "Ġprobatur": 6820,
      "Ġveloc": 6821,
      "Ġliquid": 6822,
      "Ġassentior": 6823,
      "Ġerig": 6824,
      "Ġproj": 6825,
      "Ġnativ": 6826,
      "Ġnovi": 6827,
      "aculis": 6828,
      "ularibus": 6829,
      "Ġphilosophus": 6830,
      "Ġtuorum": 6831,
      "Ġhym": 6832,
      "Ġvinum": 6833,
      "Ġvidemus": 6834,
      "Ġcolore": 6835,
      "Ġapprob": 6836,
      "Ġmarg": 6837,
      "uia": 6838,
      "Ġfen": 6839,
      "Ġpup": 6840,
      "Ġphys": 6841,
      "Ġverborum": 6842,
      "estatem": 6843,
      "Ġdetra": 6844,
      "elmus": 6845,
      "icere": 6846,
      "Ġapostolorum": 6847,
      "ĠTab": 6848,
      "Ġmusc": 6849,
      "Ġaduersus": 6850,
      "Ġreced": 6851,
      "emper": 6852,
      "ĠNibh": 6853,
      "Ġpretios": 6854,
      "Ġvirtutibus": 6855,
      "Ġincer": 6856,
      "Ġfrang": 6857,
      "ĠXXX": 6858,
      "ĠFebr": 6859,
      "Ġepistola": 6860,
      "ĠOctob": 6861,
      "Ġabstin": 6862,
      "ĠJesum": 6863,
      "Ġdixerit": 6864,
      "Ġsermonem": 6865,
      "Ġsenserit": 6866,
      "Ġfata": 6867,
      "Ġcondemn": 6868,
      "port": 6869,
      "Ġcontinu": 6870,
      "Ġquartum": 6871,
      "Ġeruditi": 6872,
      "aevola": 6873,
      "ĠSar": 6874,
      "Ġhonestatis": 6875,
      "Ġfideles": 6876,
      "Ġcoc": 6877,
      "Ġvellet": 6878,
      "ordin": 6879,
      "Ġstir": 6880,
      "ĠAf": 6881,
      "ĠMarc": 6882,
      "Ġvocat": 6883,
      "Ġfil": 6884,
      "ĠSec": 6885,
      "Ġdissentiunt": 6886,
      "otem": 6887,
      "OS": 6888,
      "Ġauxilio": 6889,
      "Ġpoterant": 6890,
      "Ġii": 6891,
      "Ġreb": 6892,
      "Ġignota": 6893,
      "Ġweb": 6894,
      "Ġfiliam": 6895,
      "Ġoperum": 6896,
      "ĠBlandit": 6897,
      "idibus": 6898,
      "Ġlatine": 6899,
      "ĠApple": 6900,
      "Ġvestrae": 6901,
      "Ġvivendum": 6902,
      "Idem": 6903,
      "Ġamo": 6904,
      "Ġferi": 6905,
      "Ġprobatus": 6906,
      "Ġeisdem": 6907,
      "Ġglob": 6908,
      "Ġexcommunic": 6909,
      "Ġpauca": 6910,
      "Ġpign": 6911,
      "Ġaeth": 6912,
      "Ġnominati": 6913,
      "Ġinh": 6914,
      "Ġmonst": 6915,
      "Ġeamdem": 6916,
      "redi": 6917,
      "ĠAuctor": 6918,
      "ĠIllud": 6919,
      "Ġnostras": 6920,
      "Ġinterm": 6921,
      "ĠSyn": 6922,
      "Ob": 6923,
      "Ġsummam": 6924,
      "Ġpess": 6925,
      "Ġauctoritatem": 6926,
      "Ġetenim": 6927,
      "Is": 6928,
      "Ġfum": 6929,
      "atque": 6930,
      "Ġmeliore": 6931,
      "Ġreliquit": 6932,
      "Ġlav": 6933,
      "Ġferv": 6934,
      "usta": 6935,
      "ĠChr": 6936,
      "Ġfornic": 6937,
      "Quoniam": 6938,
      "Ġamicis": 6939,
      "Ġiei": 6940,
      "50": 6941,
      "Ille": 6942,
      "Ġsalute": 6943,
      "Ġunc": 6944,
      "Ġpav": 6945,
      "Ġtimor": 6946,
      "ĠSocr": 6947,
      "Ġgenuit": 6948,
      "ĠApr": 6949,
      "Ġhaered": 6950,
      "Ġseipsum": 6951,
      "ĠAbbas": 6952,
      "Nihil": 6953,
      "Ġmaius": 6954,
      "ado": 6955,
      "Ġpalam": 6956,
      "ĠGregorius": 6957,
      "dae": 6958,
      "ĠAtt": 6959,
      "Ġaccommodare": 6960,
      "ĠColleg": 6961,
      "aco": 6962,
      "Ġ--": 6963,
      "Ġcetero": 6964,
      "Ġmandata": 6965,
      "alitatis": 6966,
      "ĠRomanae": 6967,
      "Ġconsulatu": 6968,
      "Ġsufficit": 6969,
      "Ġremov": 6970,
      "Ġsummus": 6971,
      "Ġalteram": 6972,
      "Ġsubiectum": 6973,
      "Ġeumdem": 6974,
      "Ġhostibus": 6975,
      "Ġartem": 6976,
      "Ġstudiis": 6977,
      "Ġdepon": 6978,
      "Ġcrucif": 6979,
      "Ġtantas": 6980,
      "Num": 6981,
      "Ġmontem": 6982,
      "Ġsedis": 6983,
      "Ġimagin": 6984,
      "Ġpotissimum": 6985,
      "Ġtranqu": 6986,
      "omine": 6987,
      "ĠBer": 6988,
      "Ġcale": 6989,
      "ĠÃ": 6990,
      "Uel": 6991,
      "Ġincorrupt": 6992,
      "ĠHor": 6993,
      "ĠClaud": 6994,
      "Ġlongum": 6995,
      "ĠBaptism": 6996,
      "Ġmeridi": 6997,
      "sen": 6998,
      "eophrastus": 6999,
      "Ġsingulos": 7000,
      "Ġspol": 7001,
      "esper": 7002,
      "Ġrepraesent": 7003,
      "Ġquandam": 7004,
      "Ġdecore": 7005,
      "Ġpercipitur": 7006,
      "Ġhiem": 7007,
      "Ġpronunti": 7008,
      "Ġdisciplina": 7009,
      "ĠOper": 7010,
      "Ġmemoriae": 7011,
      "unci": 7012,
      "vam": 7013,
      "arÄ±": 7014,
      "ĠIlli": 7015,
      "Ġpotens": 7016,
      "Ġactione": 7017,
      "Ġsinistr": 7018,
      "Ġquadraginta": 7019,
      "uy": 7020,
      "Ġelev": 7021,
      "Ġartes": 7022,
      "ectae": 7023,
      "Ġorationem": 7024,
      "of": 7025,
      "mas": 7026,
      "athed": 7027,
      "ĠOs": 7028,
      "Ġgenitus": 7029,
      "Ġsignis": 7030,
      "nit": 7031,
      "Ġinstrumentum": 7032,
      "Ġcerv": 7033,
      "ĠQuorum": 7034,
      "ĠArcu": 7035,
      "Ġobscur": 7036,
      "ĠEph": 7037,
      "Ġpersecuti": 7038,
      "Ġinuti": 7039,
      "Ġstruc": 7040,
      "Ġscripserit": 7041,
      "Ġistum": 7042,
      "Ġconsue": 7043,
      "Ġduorum": 7044,
      "Ġlongius": 7045,
      "Ġdabit": 7046,
      "Ġdexter": 7047,
      "Ġfiant": 7048,
      "ĠEth": 7049,
      "Ġuber": 7050,
      "Ġdocendi": 7051,
      "Ġuent": 7052,
      "Ġiracundia": 7053,
      "ä¸": 7054,
      "Ġtun": 7055,
      "Ġgentis": 7056,
      "Ġ198": 7057,
      "ĠMil": 7058,
      "eda": 7059,
      "stat": 7060,
      "utione": 7061,
      "ĠCass": 7062,
      "Ġiota": 7063,
      "ĠCaesaris": 7064,
      "pote": 7065,
      "Ġfeb": 7066,
      "Ġcereb": 7067,
      "Ġiustitia": 7068,
      "ycl": 7069,
      "oniis": 7070,
      "Ġancillae": 7071,
      "Ġretro": 7072,
      "Ġmultitudine": 7073,
      "Ġcorrumpit": 7074,
      "Ġinvis": 7075,
      "Ġplurima": 7076,
      "Ġactiones": 7077,
      "Ġconiung": 7078,
      "Ġconspic": 7079,
      "Ġdemocr": 7080,
      "piam": 7081,
      "Ġconscientia": 7082,
      "Ġfertur": 7083,
      "ĠPetrum": 7084,
      "Ġapparuit": 7085,
      "Ġve": 7086,
      "Ġfastidi": 7087,
      "ĠTam": 7088,
      "Ġunusquisque": 7089,
      "Ġdefinitiones": 7090,
      "Ġcursu": 7091,
      "Ġdifficile": 7092,
      "Ġdens": 7093,
      "Tum": 7094,
      "idens": 7095,
      "Ġfacer": 7096,
      "pondeo": 7097,
      "Ġnovo": 7098,
      "OR": 7099,
      "Ġexpetenda": 7100,
      "epti": 7101,
      "Ġcontentiones": 7102,
      "etate": 7103,
      "Ġpraestare": 7104,
      "Ġhabitat": 7105,
      "queo": 7106,
      "acc": 7107,
      "alitate": 7108,
      "Ġmorbo": 7109,
      "Ġimpress": 7110,
      "ester": 7111,
      "Ġmissus": 7112,
      "Ġoccult": 7113,
      "olas": 7114,
      "Ġmembris": 7115,
      "Ġlinguam": 7116,
      "Ġregio": 7117,
      "Ġdigit": 7118,
      "Ġpectus": 7119,
      "tiens": 7120,
      "Ġdoctrinae": 7121,
      "ehem": 7122,
      "Ġpervenit": 7123,
      "ĠÎ±": 7124,
      "tinet": 7125,
      "ĠAmeric": 7126,
      "Ġconstr": 7127,
      "Ġpraeceptum": 7128,
      "Ġcrudel": 7129,
      "omet": 7130,
      "Ġdiscipulis": 7131,
      "Ġdoming": 7132,
      "Ġtantam": 7133,
      "Ġpanem": 7134,
      "Ġagam": 7135,
      "archum": 7136,
      "ĠTamen": 7137,
      "ĠNot": 7138,
      "Ġadversarium": 7139,
      "ĠPret": 7140,
      "ĠFrancicum": 7141,
      "Ġele": 7142,
      "Ġperhib": 7143,
      "Ġappetere": 7144,
      "ĠUir": 7145,
      "Ġconvert": 7146,
      "Ġeligere": 7147,
      "ĠSanctus": 7148,
      "opt": 7149,
      "Ġhaeres": 7150,
      "ance": 7151,
      "ĠRed": 7152,
      "Ġeli": 7153,
      "Ġeloquentiam": 7154,
      "rent": 7155,
      "ork": 7156,
      "ank": 7157,
      "ittunt": 7158,
      "17": 7159,
      "ister": 7160,
      "ptis": 7161,
      "Ġimportun": 7162,
      "Ġorient": 7163,
      "Ġ40": 7164,
      "Ġcogitationes": 7165,
      "Ġterrestr": 7166,
      "ulph": 7167,
      "graph": 7168,
      "angelis": 7169,
      "ian": 7170,
      "ĠPrima": 7171,
      "Ġscriptorem": 7172,
      "eroides": 7173,
      "ĠCamp": 7174,
      "Ġdit": 7175,
      "Ġintegre": 7176,
      "Ġrecon": 7177,
      "Ġcolloqu": 7178,
      "Ġformid": 7179,
      "EN": 7180,
      "Ġacquir": 7181,
      "ĠMoyses": 7182,
      "Ġcontentus": 7183,
      "Ġorigin": 7184,
      "ularem": 7185,
      "Ġmisericordi": 7186,
      "Ġdiscern": 7187,
      "Ġpate": 7188,
      "Ġnascitur": 7189,
      "Ġaem": 7190,
      "Ġsuavitate": 7191,
      "onius": 7192,
      "Ġcanc": 7193,
      "ages": 7194,
      "Ġcalor": 7195,
      "ĠMedi": 7196,
      "Ġfunc": 7197,
      "toris": 7198,
      "ater": 7199,
      "Ġperpetuo": 7200,
      "ĠAure": 7201,
      "ĠNisl": 7202,
      "ĠRisus": 7203,
      "Ġcrimen": 7204,
      "Ġcomitatu": 7205,
      "escens": 7206,
      "issus": 7207,
      "Ġinsula": 7208,
      "itorum": 7209,
      "Ġfaciens": 7210,
      "ĠCursus": 7211,
      "Ġorationis": 7212,
      "Ġhabentes": 7213,
      "22": 7214,
      "Ġproductum": 7215,
      "Ġarbitrium": 7216,
      "Ġpertinacia": 7217,
      "irca": 7218,
      "Ġmeas": 7219,
      "Cons": 7220,
      "editur": 7221,
      "Ġ29": 7222,
      "olym": 7223,
      "boli": 7224,
      "Ġfatig": 7225,
      "Ġeripuit": 7226,
      "Ġargentum": 7227,
      "Ġspecul": 7228,
      "ĠConsequat": 7229,
      "Ġauxili": 7230,
      "Ġsuscepit": 7231,
      "Ġodor": 7232,
      "Ġrepar": 7233,
      "ĠRomanus": 7234,
      "ĠSyr": 7235,
      "Ġlabitur": 7236,
      "Ġossa": 7237,
      "Ġdeprec": 7238,
      "Ġutilitatem": 7239,
      "Ġimpetr": 7240,
      "Verum": 7241,
      "Ġrepente": 7242,
      "eci": 7243,
      "ĠTurpis": 7244,
      "LI": 7245,
      "Ġsubti": 7246,
      "Ġreput": 7247,
      "fus": 7248,
      "Ġsob": 7249,
      "Ġgladio": 7250,
      "undam": 7251,
      "Ġlongo": 7252,
      "Ġhumanum": 7253,
      "Ġridens": 7254,
      "Ġputent": 7255,
      "Ġfiet": 7256,
      "ules": 7257,
      "Ġimagines": 7258,
      "Ġgut": 7259,
      "Ġtitulo": 7260,
      "Ġsud": 7261,
      "Ġpostulant": 7262,
      "Ġpropag": 7263,
      "Ġfactis": 7264,
      "ipi": 7265,
      "Ġinani": 7266,
      "iph": 7267,
      "Ġhumo": 7268,
      "ĠDig": 7269,
      "Ġabscond": 7270,
      "Ġresurg": 7271,
      "Ġquolibet": 7272,
      "utos": 7273,
      "Ġcarmina": 7274,
      "Ġcredo": 7275,
      "Ġvitium": 7276,
      "Ġsuprem": 7277,
      "Ġassue": 7278,
      "Ġscio": 7279,
      "Ġministerium": 7280,
      "Ġpeculi": 7281,
      "Ġuniversa": 7282,
      "Ġcord": 7283,
      "Ġioc": 7284,
      "risto": 7285,
      "oquin": 7286,
      "Ġup": 7287,
      "Ġpropon": 7288,
      "Porro": 7289,
      "Ġuere": 7290,
      "Ġscit": 7291,
      "Ġmorb": 7292,
      "Ġintellegam": 7293,
      "Ġym": 7294,
      "Ġquaestionem": 7295,
      "Ġferrum": 7296,
      "Ġinvenit": 7297,
      "allic": 7298,
      "Ġpertinax": 7299,
      "Ġlaboramus": 7300,
      "XXX": 7301,
      "Ġvereor": 7302,
      "vere": 7303,
      "tigit": 7304,
      "erna": 7305,
      "Ġadsc": 7306,
      "ĠCarthag": 7307,
      "Ġcentrum": 7308,
      "Ġterminus": 7309,
      "Ġuerbum": 7310,
      "Ġps": 7311,
      "Ġinjus": 7312,
      "Ġmazim": 7313,
      "Ġiubet": 7314,
      "Ġ:.": 7315,
      "atissimi": 7316,
      "Ġtradidit": 7317,
      "Ġnecessitas": 7318,
      "elam": 7319,
      "sitan": 7320,
      "Ġducem": 7321,
      "ĠIr": 7322,
      "Ġnihilominus": 7323,
      "rii": 7324,
      "ont": 7325,
      "quia": 7326,
      "Ġcitius": 7327,
      "Ġparentes": 7328,
      "Ġlaude": 7329,
      "Ġdevo": 7330,
      "Ġputas": 7331,
      "Ġcorpori": 7332,
      "ĠSod": 7333,
      "Ġpostmodum": 7334,
      "ON": 7335,
      "Ġfasti": 7336,
      "Cumque": 7337,
      "inea": 7338,
      "Ġcalum": 7339,
      "Ġperpetuum": 7340,
      "Ġdebes": 7341,
      "Ġconsensu": 7342,
      "Ġdignitatem": 7343,
      "Ġterre": 7344,
      "Ġvidebatur": 7345,
      "Ġdictas": 7346,
      "Ġvestim": 7347,
      "ĠScip": 7348,
      "Ġimperatoris": 7349,
      "Ġperfectionem": 7350,
      "eniunt": 7351,
      "Ġinterpretatur": 7352,
      "crib": 7353,
      "Ġvidi": 7354,
      "ĠHon": 7355,
      "Ġnoctem": 7356,
      "Ġlegi": 7357,
      "lin": 7358,
      "Ġperdit": 7359,
      "turus": 7360,
      "Ġcognitio": 7361,
      "ĠFaucibus": 7362,
      "Ġbeatum": 7363,
      "Ġanimis": 7364,
      "etem": 7365,
      "itig": 7366,
      "Ġpristin": 7367,
      "Ġdesiderat": 7368,
      "me": 7369,
      "ecr": 7370,
      "ĠTempor": 7371,
      "urarum": 7372,
      "Ġexpetendis": 7373,
      "ww": 7374,
      "Ġveritus": 7375,
      "Ġinius": 7376,
      "Ġingenium": 7377,
      "Ġpersequeris": 7378,
      "vir": 7379,
      "Ġdeu": 7380,
      "ffer": 7381,
      "Uerum": 7382,
      "Ġieiun": 7383,
      "Ġmultitudinem": 7384,
      "):": 7385,
      "Ġventur": 7386,
      "Ġproximo": 7387,
      "itura": 7388,
      "Quando": 7389,
      "Ġmiles": 7390,
      "man": 7391,
      "ĠEc": 7392,
      "Ġblas": 7393,
      "ĠMos": 7394,
      "Ġprincipis": 7395,
      "ĠMis": 7396,
      "Ġfalli": 7397,
      "Ġfesti": 7398,
      "Ġinteresset": 7399,
      "Or": 7400,
      "Ġiram": 7401,
      "eteri": 7402,
      "Ġfecisse": 7403,
      "Ġuterque": 7404,
      "ucc": 7405,
      "des": 7406,
      "Ġlacrim": 7407,
      "Ġoptimus": 7408,
      "Ġomittam": 7409,
      "ĠRuss": 7410,
      "bant": 7411,
      "acto": 7412,
      "omach": 7413,
      "nem": 7414,
      "atii": 7415,
      "ĠMartyr": 7416,
      "ĠProb": 7417,
      "Ġdivinis": 7418,
      "Ġhumano": 7419,
      "Ġmentitum": 7420,
      "Ġimport": 7421,
      "Ġvivendo": 7422,
      "ĠMercur": 7423,
      "Ġregionibus": 7424,
      "ĠiPhone": 7425,
      "ĠContra": 7426,
      "antius": 7427,
      "Re": 7428,
      "Ġdebitum": 7429,
      "oma": 7430,
      "uripidis": 7431,
      "Ġoti": 7432,
      "Ġfidelis": 7433,
      "natus": 7434,
      "Ġ\".": 7435,
      "Ġdeput": 7436,
      "Ġaltum": 7437,
      "ĠVII": 7438,
      "Ġinfam": 7439,
      "Ġprivileg": 7440,
      "Ġcaed": 7441,
      "Ġbonae": 7442,
      "Ġpreces": 7443,
      "Ġcommunem": 7444,
      "ichi": 7445,
      "Ġtrepid": 7446,
      "Ġlatr": 7447,
      "Ġoeconom": 7448,
      "reant": 7449,
      "Ġamar": 7450,
      "angel": 7451,
      "Ġtechnolog": 7452,
      "Ġej": 7453,
      "Ġnu": 7454,
      "Ġsede": 7455,
      "Ġvivit": 7456,
      "En": 7457,
      "tol": 7458,
      "Ġnotum": 7459,
      "amini": 7460,
      "ĠSat": 7461,
      "Ġamicos": 7462,
      "Sub": 7463,
      "Ġprompta": 7464,
      "Ġprudentia": 7465,
      "Ġsoleat": 7466,
      "Ġindoctum": 7467,
      "Ġiact": 7468,
      "Ġars": 7469,
      "Ġcircumd": 7470,
      "Ġhil": 7471,
      "Ġduxit": 7472,
      "ĠPic": 7473,
      "ĠHum": 7474,
      "ĠViverra": 7475,
      "Ġduces": 7476,
      "Ġintellegat": 7477,
      "Ist": 7478,
      "Ġsignif": 7479,
      "ĠFeugiat": 7480,
      "Ġsalus": 7481,
      "Ġmulieres": 7482,
      "Ġuac": 7483,
      "ĠJoseph": 7484,
      "Ġrenov": 7485,
      "ĠCicer": 7486,
      "aturum": 7487,
      "Ġtemere": 7488,
      "Ġefficiantur": 7489,
      "Vestibulum": 7490,
      "Ġvale": 7491,
      "olat": 7492,
      "ĠTorqu": 7493,
      "Ġdetraxit": 7494,
      "ĠAngel": 7495,
      "Ġangelus": 7496,
      "Ġsarc": 7497,
      "Ġaperiri": 7498,
      "ecc": 7499,
      "Ġjustific": 7500,
      "iturum": 7501,
      "ĠÂ°": 7502,
      ",\"": 7503,
      "Ġdignitate": 7504,
      "Ġdecimo": 7505,
      "sam": 7506,
      "Ġhoras": 7507,
      "Ġaetas": 7508,
      "Ġmandatum": 7509,
      "Ġingressus": 7510,
      "Ġdixisset": 7511,
      "Ġvirgo": 7512,
      "Ġgratis": 7513,
      "Ġvitia": 7514,
      "Ġpacto": 7515,
      "psal": 7516,
      "ationalis": 7517,
      "Ġil": 7518,
      "ĠStet": 7519,
      "Ġreformid": 7520,
      "Ġcarc": 7521,
      "Ġbulum": 7522,
      "Inde": 7523,
      "Ġmediocrem": 7524,
      "Ġape": 7525,
      "Ġoleo": 7526,
      "Ġvall": 7527,
      "ĠDionys": 7528,
      "Ġdog": 7529,
      "etarum": 7530,
      "ĠNeg": 7531,
      "ĠEli": 7532,
      "Ġangeli": 7533,
      "Ġax": 7534,
      "Ġsplendide": 7535,
      "aedrum": 7536,
      "Ġacti": 7537,
      "Ġputat": 7538,
      "Ġcives": 7539,
      "Int": 7540,
      "Ġpub": 7541,
      "Ġher": 7542,
      "estem": 7543,
      "Ġdisputando": 7544,
      "Ġpernici": 7545,
      "Ġtibique": 7546,
      "Ġfron": 7547,
      "essu": 7548,
      "Ġefficiendi": 7549,
      "Ġmanere": 7550,
      "Ġstare": 7551,
      "ĠProv": 7552,
      "ĠEvangelio": 7553,
      "Ġinclud": 7554,
      "Igitur": 7555,
      "Ġalien": 7556,
      "Ġacerb": 7557,
      "form": 7558,
      "ĠRomanos": 7559,
      "Ġiudicabit": 7560,
      "Ġprodesset": 7561,
      "ĠAnglic": 7562,
      "ruisset": 7563,
      "Ġpenetr": 7564,
      "Ġflumen": 7565,
      "Ġbeneficia": 7566,
      "Ġapprop": 7567,
      "Ġ50": 7568,
      "Ġceler": 7569,
      "Ġcontumeli": 7570,
      "Ġmill": 7571,
      "Ġutamur": 7572,
      "ĠGlor": 7573,
      "Ġesto": 7574,
      "Ġclari": 7575,
      "idiam": 7576,
      "iderit": 7577,
      "Ġexalt": 7578,
      "Ġpertr": 7579,
      "Ġlenis": 7580,
      "Ġpala": 7581,
      "Ġpetentium": 7582,
      "Ġsino": 7583,
      "Ġadim": 7584,
      "Ġvan": 7585,
      "Ġauctoritas": 7586,
      "opam": 7587,
      "Ġsacrificium": 7588,
      "Ġtestatur": 7589,
      "Ġreprehendunt": 7590,
      "ĠLy": 7591,
      "ations": 7592,
      "Ġbonam": 7593,
      "ĠAnn": 7594,
      "Ġunitatem": 7595,
      "Ġconceptam": 7596,
      "Ġacies": 7597,
      "Ġincolum": 7598,
      "Ġaev": 7599,
      "Ġexped": 7600,
      "sic": 7601,
      "Ġgraece": 7602,
      "aps": 7603,
      "edo": 7604,
      "Ġoperatio": 7605,
      "Ġgesta": 7606,
      "Ġlocorum": 7607,
      "ĠFebru": 7608,
      "Ġinsolens": 7609,
      "ilitas": 7610,
      "Ġvicis": 7611,
      "Ġinstrumenta": 7612,
      "Ġprofectus": 7613,
      "Ġobc": 7614,
      "ultis": 7615,
      "Ġdeseruisse": 7616,
      "Ġmensura": 7617,
      "ĠÏĦ": 7618,
      "Ġvenio": 7619,
      "Ġcompetit": 7620,
      "ly": 7621,
      "Ġagro": 7622,
      "Ġdelicata": 7623,
      "Ġsene": 7624,
      "40": 7625,
      "uad": 7626,
      "Ġlittera": 7627,
      "Ġcreaturae": 7628,
      "Ġvideretur": 7629,
      "Ġcuique": 7630,
      "Ġpopulos": 7631,
      "ulatus": 7632,
      "Ġdesiderium": 7633,
      "ĠDon": 7634,
      "ĠTortor": 7635,
      "Ġdiutius": 7636,
      "ĠAstr": 7637,
      "Ġmit": 7638,
      "Ġarbitrio": 7639,
      "Ġsati": 7640,
      "Ġcolumb": 7641,
      "usi": 7642,
      "Ġpersever": 7643,
      "Ġliberi": 7644,
      "Ġeris": 7645,
      "Ġtruc": 7646,
      "ĠprÃ¦s": 7647,
      "quebatur": 7648,
      "Ġevid": 7649,
      "ĠAndre": 7650,
      "Ġexperientia": 7651,
      "ĠPurus": 7652,
      "Ġra": 7653,
      "insecus": 7654,
      "ĠBar": 7655,
      "ĠDau": 7656,
      "Ġdioec": 7657,
      "Ġsemine": 7658,
      "ripti": 7659,
      "Ġoccurrit": 7660,
      "Ġintellegebat": 7661,
      "ĠPrÃ¦": 7662,
      "Ġaperte": 7663,
      "min": 7664,
      "Ġcredimus": 7665,
      "Ġelementa": 7666,
      "Ġtemer": 7667,
      "Ġfelix": 7668,
      "Ġmoderatius": 7669,
      "60": 7670,
      "Ġinermis": 7671,
      "oso": 7672,
      "Ġsemin": 7673,
      "ĠMihi": 7674,
      "Ġdisputationi": 7675,
      "onam": 7676,
      "Ġqualitas": 7677,
      "rad": 7678,
      "ciam": 7679,
      "Ġvaria": 7680,
      "Ġsupradic": 7681,
      "Ġamicus": 7682,
      "ulariter": 7683,
      "ĠDixit": 7684,
      "Ġproceditur": 7685,
      "endens": 7686,
      "Ġhumilis": 7687,
      "Ġnoctis": 7688,
      "ĠExc": 7689,
      "Ġscribentur": 7690,
      "Ġtheolog": 7691,
      "ectibus": 7692,
      "Ġoblique": 7693,
      "Ġnominibus": 7694,
      "Ġmiseri": 7695,
      "Ġlaborem": 7696,
      "unx": 7697,
      "nesarchum": 7698,
      "Ġflex": 7699,
      "Ġdedic": 7700,
      "idonium": 7701,
      "ĠcÅĵ": 7702,
      "ĠQuamquam": 7703,
      "Ġcaeter": 7704,
      "Ġmediocritatem": 7705,
      "Ġflux": 7706,
      "Ġfuturo": 7707,
      "Ġexemplar": 7708,
      "Ġ197": 7709,
      "Ġnoluisse": 7710,
      "Ġpaene": 7711,
      "Ġmonasterii": 7712,
      "ĠEuangeli": 7713,
      ",,": 7714,
      "ĠPropter": 7715,
      "Ġvaletudo": 7716,
      "Ġextrema": 7717,
      "uiter": 7718,
      "Com": 7719,
      "Ġdeterruisset": 7720,
      "ĠUS": 7721,
      "Ġuiri": 7722,
      "Ġaudiam": 7723,
      "Ġimple": 7724,
      "Ġsuscipiantur": 7725,
      "acch": 7726,
      "Ġvisus": 7727,
      "Ġgraecis": 7728,
      "Ġdixisse": 7729,
      "eantur": 7730,
      "Lib": 7731,
      "ki": 7732,
      "Ġpig": 7733,
      "Ġgraeco": 7734,
      "Ġmartyr": 7735,
      "ĠAbi": 7736,
      "ĠDE": 7737,
      "tima": 7738,
      "Ġproposito": 7739,
      "emini": 7740,
      "unquam": 7741,
      "Ġvestram": 7742,
      "Ġsabb": 7743,
      "ĠTibi": 7744,
      "Ġinterpretaris": 7745,
      "erebant": 7746,
      "ĠDicit": 7747,
      "Ġinstructior": 7748,
      "Ġvoces": 7749,
      "Ġmasc": 7750,
      "ĠSep": 7751,
      "ĠItaliam": 7752,
      "Ġproportion": 7753,
      "Ġpunctum": 7754,
      "Ġconfund": 7755,
      "Ġreferrentur": 7756,
      "agog": 7757,
      "ĠSto": 7758,
      "ĠRespon": 7759,
      "Ġpraesto": 7760,
      "Ġdomine": 7761,
      "Ġcomprehensam": 7762,
      "Ġostent": 7763,
      "Ġscribere": 7764,
      "Ġvestigia": 7765,
      "Ġtes": 7766,
      "ĠGa": 7767,
      "Ġlaudes": 7768,
      "ungitur": 7769,
      "cn": 7770,
      "erito": 7771,
      "Ġuirtute": 7772,
      "Ġemin": 7773,
      "Ġrursum": 7774,
      "Ġdignus": 7775,
      "eff": 7776,
      "ler": 7777,
      "rh": 7778,
      "Ġdextra": 7779,
      "Ġreprob": 7780,
      "Ġapostolica": 7781,
      "Ġurbanitas": 7782,
      "irian": 7783,
      "atica": 7784,
      "Ġducis": 7785,
      "unxit": 7786,
      "ulata": 7787,
      "Ġangusti": 7788,
      "ĠÎµ": 7789,
      "),.": 7790,
      "ĠEpiscopus": 7791,
      "Vers": 7792,
      "odis": 7793,
      "Ġrecogn": 7794,
      "Ġindivid": 7795,
      "Ġtantummodo": 7796,
      "Ġconcludaturque": 7797,
      "Ġafflic": 7798,
      "Ġpietate": 7799,
      "iva": 7800,
      "Ġvoluptaria": 7801,
      "Ġnominavi": 7802,
      "Ġsecus": 7803,
      "Ġadesse": 7804,
      "Ġopinionem": 7805,
      "indic": 7806,
      "Ġrusticus": 7807,
      "Ġeuripidis": 7808,
      "Ġpneum": 7809,
      "ĠForm": 7810,
      "Ġnihilo": 7811,
      "Ġfidelibus": 7812,
      "Ġneglegentur": 7813,
      "Ġevertitur": 7814,
      "Ġforensibus": 7815,
      "Ġcompell": 7816,
      "Ġatomorum": 7817,
      "Donec": 7818,
      "Ġgens": 7819,
      "Ġdetracto": 7820,
      "eget": 7821,
      "Ġtertiam": 7822,
      "Ġpondere": 7823,
      "Ġnumeri": 7824,
      "Ġelaboraret": 7825,
      "Ġratis": 7826,
      "ĠMen": 7827,
      "Ġmaluisset": 7828,
      "Ġdubi": 7829,
      "Ġdiabolus": 7830,
      "Ġrecipit": 7831,
      "estu": 7832,
      "ĠXII": 7833,
      "ĠRomanum": 7834,
      "Ġulterius": 7835,
      "Ġtantae": 7836,
      "inquit": 7837,
      "25": 7838,
      "Ġfru": 7839,
      "Ġiustus": 7840,
      "Ġsalutandi": 7841,
      "Ġponderum": 7842,
      "Ġtractatos": 7843,
      "Ġuersus": 7844,
      "Ġulcis": 7845,
      "Ġomittantur": 7846,
      "Ġsigno": 7847,
      "Ġinciderint": 7848,
      "ebimus": 7849,
      "Ġrecteque": 7850,
      "âĢ¦": 7851,
      "ko": 7852,
      "uique": 7853,
      "br": 7854,
      "Ġdefiniebas": 7855,
      "ardo": 7856,
      "Ġliberavisse": 7857,
      "Ġostendere": 7858,
      "Ġpopulis": 7859,
      "Ġliberos": 7860,
      "Ġsinu": 7861,
      "ĠIndex": 7862,
      "Ġmnesarchum": 7863,
      "Ġconstituam": 7864,
      "Ġdissentiet": 7865,
      "Ġvias": 7866,
      "Ġtheophrastus": 7867,
      "Ġnovam": 7868,
      "Ġtotidem": 7869,
      "Ġpatrioque": 7870,
      "initatis": 7871,
      "riae": 7872,
      "Ġsalutatus": 7873,
      "tineo": 7874,
      "Ġaeternae": 7875,
      "Ġrepudiare": 7876,
      "ĠVolutpat": 7877,
      "overs": 7878,
      "ĠTa": 7879,
      "Ġcalefac": 7880,
      "ĠChal": 7881,
      "ĠEodem": 7882,
      "Ġaquarum": 7883,
      "Ġuuln": 7884,
      "Ġtou": 7885,
      "Ġpublicam": 7886,
      "Ġdelicatissimi": 7887,
      "Ġhtt": 7888,
      "Ġhumanis": 7889,
      "Ġuirtus": 7890,
      "Ġalto": 7891,
      "aturae": 7892,
      "Ġfronte": 7893,
      "Ġformas": 7894,
      "mentum": 7895,
      "Ġvesper": 7896,
      "Ġdefici": 7897,
      "Ġjur": 7898,
      "Ġingenii": 7899,
      "Ġannunti": 7900,
      "Ġqualisque": 7901,
      "Ġtorquatos": 7902,
      "ĠCaec": 7903,
      "Ġepiscopis": 7904,
      "elem": 7905,
      "Ġdecor": 7906,
      "Ġconclusionemque": 7907,
      "ĠIesus": 7908,
      "ĠUrna": 7909,
      "Ġviderer": 7910,
      "Ġlapis": 7911,
      "Ġpoti": 7912,
      "ĠFor": 7913,
      "Ġdissentias": 7914,
      "Ġzelus": 7915,
      "Ġterminum": 7916,
      "Ġabhorreant": 7917,
      "Ġinvoc": 7918,
      "Ġgravi": 7919,
      "Ġanimarum": 7920,
      "Ġpatrum": 7921,
      "Ġimplic": 7922,
      "iata": 7923,
      "ĠHann": 7924,
      "Ġconcurr": 7925,
      "Ġassueverit": 7926,
      "Ġquinto": 7927,
      "ĠProt": 7928,
      "ipp": 7929,
      "21": 7930,
      "Ġphaedrum": 7931,
      "Ġgaudio": 7932,
      "Ġcorrupt": 7933,
      "Ġstim": 7934,
      "Ġinser": 7935,
      "Ġbeneficium": 7936,
      "ĠXx": 7937,
      "ĠVoc": 7938,
      "illus": 7939,
      "Ġinflamm": 7940,
      "ÌĶ": 7941,
      "Ġmultae": 7942,
      "Ġblasphem": 7943,
      "Ġsuarum": 7944,
      "Ġamat": 7945,
      "Ġpugna": 7946,
      "amp": 7947,
      "Ġferunt": 7948,
      "Ġutuntur": 7949,
      "Ġaffectu": 7950,
      "cipe": 7951,
      "ĠET": 7952,
      "Ġvulpes": 7953,
      "Ġcapere": 7954,
      "ĠAprilis": 7955,
      "iliae": 7956,
      "Ġstudia": 7957,
      "Ġhaberi": 7958,
      "Ġreformidans": 7959,
      "Ġtenu": 7960,
      "Ġfabellas": 7961,
      "Ġquart": 7962,
      "Ġcopiosae": 7963,
      "Ġambo": 7964,
      "Ġcotidieque": 7965,
      "ĠDef": 7966,
      "Ġcharitas": 7967,
      "Ġcharitatis": 7968,
      "Ġrefero": 7969,
      "vs": 7970,
      "imates": 7971,
      "tag": 7972,
      "Ġposidonium": 7973,
      "Ġhabita": 7974,
      "Ġnemore": 7975,
      "Ġvituperata": 7976,
      "Ġdemocritum": 7977,
      "alum": 7978,
      "Ġducit": 7979,
      "Ġfib": 7980,
      "Ġmatre": 7981,
      "Ġneminem": 7982,
      "Ġdomn": 7983,
      "sp": 7984,
      "Ġlub": 7985,
      "Ġvirorum": 7986,
      "ener": 7987,
      "ĠEo": 7988,
      "Ġspecialiter": 7989,
      "Ġarbitror": 7990,
      "Ġmilitibus": 7991,
      "Ġdocuit": 7992,
      "bertus": 7993,
      "Ġsigniferumque": 7994,
      "imento": 7995,
      "Ġiudico": 7996,
      "Ġamare": 7997,
      "Ġlegendos": 7998,
      "Ġpalm": 7999,
      "Ġglori": 8000,
      "Ġinueni": 8001,
      "Ġarea": 8002,
      "Ġcivitates": 8003,
      "Ġvituperatoribus": 8004,
      "ichil": 8005,
      "Ġintelligit": 8006,
      "Ġfratre": 8007,
      "Ġingeni": 8008,
      "Ġcresc": 8009,
      "Ġscaevola": 8010,
      "ĠLectus": 8011,
      "Ġseg": 8012,
      "ĠQuad": 8013,
      "Ġveris": 8014,
      "Ġconsequens": 8015,
      "utor": 8016,
      "estes": 8017,
      "Similiter": 8018,
      "Ġsinis": 8019,
      "Ġmensibus": 8020,
      "Ġcaes": 8021,
      "Ġlucilius": 8022,
      "Ġaccusata": 8023,
      "ĠIndicem": 8024,
      "Ġbi": 8025,
      "ĠQuidam": 8026,
      "Ġfastidii": 8027,
      "liane": 8028,
      "Ġluna": 8029,
      "Ġocurreret": 8030,
      "Ġexemplis": 8031,
      "uarum": 8032,
      "Ġaffectum": 8033,
      "Ġelectram": 8034,
      "Ġutile": 8035,
      "Ġiuvaret": 8036,
      "ĠGer": 8037,
      "Ġcoelestis": 8038,
      "Ġpelag": 8039,
      "Ġpassionem": 8040,
      "Ġauribus": 8041,
      "Ġpraedestin": 8042,
      "Ġpia": 8043,
      "issimas": 8044,
      "Ġadn": 8045,
      "ĠPhil": 8046,
      "Ġincorrupte": 8047,
      "Ġplatonem": 8048,
      "Ġnegotio": 8049,
      "Ġvota": 8050,
      "Ġperfecti": 8051,
      "ĠMunicip": 8052,
      "iscus": 8053,
      "iatus": 8054,
      "Ġrecusabo": 8055,
      "arat": 8056,
      "Ġepicurei": 8057,
      "Ġquantitatem": 8058,
      "aciam": 8059,
      "Ġoccasione": 8060,
      "Ġsaperet": 8061,
      "Super": 8062,
      "du": 8063,
      "Ġfacili": 8064,
      "emin": 8065,
      "ĠGallia": 8066,
      "Ġpoc": 8067,
      "Ġoppress": 8068,
      "Ġantiopam": 8069,
      "Ġapeirian": 8070,
      "yrum": 8071,
      "Ġverterem": 8072,
      "Ġmeritum": 8073,
      "amentis": 8074,
      "Ġfiguram": 8075,
      "Ġlumina": 8076,
      "Ġusurp": 8077,
      "Pot": 8078,
      "Ġvides": 8079,
      "Ġquale": 8080,
      "ĠJuda": 8081,
      "Ġultro": 8082,
      "Ġgraeci": 8083,
      "Ġsonet": 8084,
      "Ġnovit": 8085,
      "Ġpartiendo": 8086,
      "AR": 8087,
      "Ġanimalium": 8088,
      "Ġparc": 8089,
      "Ġrefrig": 8090,
      "ĠSacerd": 8091,
      "Ġdiscipuli": 8092,
      "Ġpassionis": 8093,
      "ĠMiss": 8094,
      "Ġfons": 8095,
      "Ġconson": 8096,
      "Hanc": 8097,
      "zon": 8098,
      "Ġris": 8099,
      "Ġspeciei": 8100,
      "Ġmetuo": 8101,
      "Ġconsist": 8102,
      "Ġglorific": 8103,
      "Ġcomit": 8104,
      "dific": 8105,
      "ĠComp": 8106,
      "Ġrevert": 8107,
      "Ġinferi": 8108,
      "Ġrespici": 8109,
      "Ġpoenas": 8110,
      "Ġfaciendum": 8111,
      "ĠGraecis": 8112,
      "Ġtriang": 8113,
      "Ġresponsum": 8114,
      "Ġnecnon": 8115,
      "Ġpersius": 8116,
      "ĠHil": 8117,
      "Ġlug": 8118,
      "ĠAlii": 8119,
      "Ġnobiscum": 8120,
      "Ġcongru": 8121,
      "Ġopinio": 8122,
      "Ġambig": 8123,
      "ãĢ": 8124,
      "Ġcell": 8125,
      "ĠPaulo": 8126,
      "Ġnuc": 8127,
      "Ġcerti": 8128,
      "Ġbonos": 8129,
      "tram": 8130,
      "Ġnoctur": 8131,
      "Ġepicuri": 8132,
      "AN": 8133,
      "Ġinest": 8134,
      "ĠJoannis": 8135,
      "Ġamicum": 8136,
      "Ġexpugn": 8137,
      "Ġcomplex": 8138,
      "edens": 8139,
      "ĠAri": 8140,
      "Ġsimus": 8141,
      "Ġpotuerunt": 8142,
      "Ġperfecte": 8143,
      "Ġtal": 8144,
      "ibern": 8145,
      "ative": 8146,
      "atorium": 8147,
      "ymp": 8148,
      "Ġsuperbia": 8149,
      "Ġmenandri": 8150,
      "amma": 8151,
      "Ġpossibile": 8152,
      "ĠCred": 8153,
      "ĠHuic": 8154,
      "Ġpraedi": 8155,
      "ĠPompe": 8156,
      "Ġsitu": 8157,
      "Ġfacete": 8158,
      "aeum": 8159,
      "ĠVIII": 8160,
      "Ġesca": 8161,
      "Ġinha": 8162,
      "Ġlignum": 8163,
      "Ġiunc": 8164,
      "Ġcontinetur": 8165,
      "Ġfamiliae": 8166,
      "Ġcaritas": 8167,
      "uriae": 8168,
      "ĠIanuarii": 8169,
      "pas": 8170,
      "Ġeverti": 8171,
      "Ġpersuas": 8172,
      "Ġfratri": 8173,
      "Ġoptima": 8174,
      "Ġfrui": 8175,
      "Ġcoqu": 8176,
      "ullum": 8177,
      "ĠCond": 8178,
      "Ġgemino": 8179,
      "Ġuocant": 8180,
      "Ġtimeam": 8181,
      "Ġalbucius": 8182,
      "ĠLaur": 8183,
      "ĠSequ": 8184,
      "Ġmorum": 8185,
      "Dicit": 8186,
      "Î¿Ïħ": 8187,
      "Ġtacimates": 8188,
      "Ġcanis": 8189,
      "pha": 8190,
      "Ġpraemia": 8191,
      "ĠTex": 8192,
      "ossa": 8193,
      "Ġresponde": 8194,
      "Ġqualitatem": 8195,
      "Ġping": 8196,
      "Ġimmin": 8197,
      "isa": 8198,
      "Ġutpote": 8199,
      "Ġinstituta": 8200,
      "Ġvn": 8201,
      "Ġ|": 8202,
      "ĠAlexander": 8203,
      "Ġmontibus": 8204,
      "ĠSagit": 8205,
      "Ġoffert": 8206,
      "Ġpens": 8207,
      "Ġspiritualis": 8208,
      "Ġmichi": 8209,
      "Ġvocent": 8210,
      "Ġmalign": 8211,
      "ĠJud": 8212,
      "Ġonus": 8213,
      "edia": 8214,
      "Ġmutare": 8215,
      "Ġvalidus": 8216,
      "ĠJudaeorum": 8217,
      "ĠCn": 8218,
      "Ġpassio": 8219,
      "ulat": 8220,
      "ĠAll": 8221,
      "Ġdomos": 8222,
      "Ġprincipum": 8223,
      "Ġmic": 8224,
      "Ġsubiecto": 8225,
      "Ġpecuniae": 8226,
      "Ġquodsi": 8227,
      "Ġscriptis": 8228,
      "Ġnotam": 8229,
      "Ġtestis": 8230,
      "erebatur": 8231,
      "ĠCyp": 8232,
      "Ġuia": 8233,
      "Ġinsinu": 8234,
      "Ġtela": 8235,
      "Ġarcus": 8236,
      "igur": 8237,
      "ĠAlia": 8238,
      "ĠOce": 8239,
      "Ġvoco": 8240,
      "Ġfaciant": 8241,
      "ibiles": 8242,
      "Ð°": 8243,
      "Ġconfid": 8244,
      "Ġpatriarch": 8245,
      "struc": 8246,
      "ĠLoc": 8247,
      "Ġconfic": 8248,
      "Ġutero": 8249,
      "aric": 8250,
      "Ġreprimique": 8251,
      "ĠAsc": 8252,
      "picere": 8253,
      "Ġpromov": 8254,
      "Ġspha": 8255,
      "Ġtenebras": 8256,
      "Ġconsequi": 8257,
      "Ġheres": 8258,
      "Ġoculorum": 8259,
      "Ġfasc": 8260,
      "Ġhumanam": 8261,
      "turam": 8262,
      "ĠIud": 8263,
      "Ġperfectio": 8264,
      "Ġunitas": 8265,
      "Ġordines": 8266,
      "Ġgaudia": 8267,
      "Ġcla": 8268,
      "ĠUltrices": 8269,
      "Ġdura": 8270,
      "hel": 8271,
      "Ġpoteris": 8272,
      "ĠRad": 8273,
      "ĠElementum": 8274,
      "Ġregula": 8275,
      "Ġfinit": 8276,
      "Ġcreditur": 8277,
      "Ġingenti": 8278,
      "Ġomnipotens": 8279,
      "ĠHerm": 8280,
      "eron": 8281,
      "ĠQuar": 8282,
      "Ġatqui": 8283,
      "Ġcarb": 8284,
      "Ġset": 8285,
      "uismod": 8286,
      "ĠProf": 8287,
      "Ġlapides": 8288,
      "enem": 8289,
      "Ġostium": 8290,
      "Ġredem": 8291,
      "Ġverear": 8292,
      "Ġfeliciter": 8293,
      "Ġmiracula": 8294,
      "Ġsumo": 8295,
      "ecerunt": 8296,
      "ĠVulp": 8297,
      "xxx": 8298,
      "Ġcau": 8299,
      "Ġresurrectionem": 8300,
      "Ġhyd": 8301,
      "Ġtritani": 8302,
      "ĠHug": 8303,
      "Ġprincipem": 8304,
      "Ġgar": 8305,
      "Ġobcaecati": 8306,
      "Ġnobilis": 8307,
      "Ġsubsequ": 8308,
      "icitur": 8309,
      "Ġinuicem": 8310,
      "itized": 8311,
      "Ġbeata": 8312,
      "ĠMulti": 8313,
      "Ġludos": 8314,
      "Ġemp": 8315,
      "Ġquaecumque": 8316,
      "Ġimpon": 8317,
      "Ġrecuper": 8318,
      "Ġconform": 8319,
      "Ġinfinita": 8320,
      "Ġpietas": 8321,
      "ĠOst": 8322,
      "auerunt": 8323,
      "Ġmeruit": 8324,
      "atr": 8325,
      "Ġcontrah": 8326,
      "etes": 8327,
      "Ġhe": 8328,
      "Ġintend": 8329,
      "ĠâĢº": 8330,
      "Ġquales": 8331,
      "Ġegredi": 8332,
      "ÎµÎ¹": 8333,
      "ven": 8334,
      "ht": 8335,
      "ĠMediol": 8336,
      "Ġquicumque": 8337,
      "Ġnonumes": 8338,
      "ptu": 8339,
      "Ġnumeros": 8340,
      "Ġdetr": 8341,
      "inii": 8342,
      "eratis": 8343,
      "Ġperp": 8344,
      "arturient": 8345,
      "ĠDauid": 8346,
      "Ġcomprob": 8347,
      "Ġincassum": 8348,
      "inque": 8349,
      "Ġvoluerit": 8350,
      "Ġuulg": 8351,
      "ĠÃĨ": 8352,
      "Ġtempli": 8353,
      "Ġeleemos": 8354,
      "ĠAnim": 8355,
      "Ġimmol": 8356,
      "Ġcepit": 8357,
      "ĠAequ": 8358,
      "Ġquidquam": 8359,
      "Ġpraefer": 8360,
      "Ġpagus": 8361,
      "Ġagric": 8362,
      "ĠAfrica": 8363,
      "Ġmortuum": 8364,
      "Ġvictoria": 8365,
      "Ġquisquis": 8366,
      "Ġdesiderio": 8367,
      "Deus": 8368,
      "ĠFacilisis": 8369,
      "ĠGener": 8370,
      "icio": 8371,
      "Ġdolo": 8372,
      "Ġfonte": 8373,
      "ĠPostquam": 8374,
      "Ġdiuit": 8375,
      "entrion": 8376,
      "ulch": 8377,
      "Ġprodest": 8378,
      "Ġinex": 8379,
      "Ġdivinam": 8380,
      "Ġraro": 8381,
      "Ġsenex": 8382,
      "ĠTertio": 8383,
      "Ġneo": 8384,
      "Ġlegum": 8385,
      "tinus": 8386,
      "Italiane": 8387,
      "Ġagros": 8388,
      "Ġpauci": 8389,
      "Ġfeci": 8390,
      "23": 8391,
      "Ġacta": 8392,
      "ĠFrancorum": 8393,
      "Ġdiffert": 8394,
      "Ġoperari": 8395,
      "Ġdimitt": 8396,
      "iculo": 8397,
      "Ð¸": 8398,
      "Ġvices": 8399,
      "Ġesc": 8400,
      "uissent": 8401,
      "aca": 8402,
      "Ġmurm": 8403,
      "Ġquadrum": 8404,
      "Ġoccidit": 8405,
      "ĠMir": 8406,
      "Ġmucius": 8407,
      "Ġsiti": 8408,
      "Ġsequenti": 8409,
      "Ġoppugn": 8410,
      "Ġsecundus": 8411,
      "Ġrequis": 8412,
      "Ġinterfic": 8413,
      "ĠVt": 8414,
      "Ġreus": 8415,
      "ultu": 8416,
      "Ġdenuo": 8417,
      "Ġpriusquam": 8418,
      "Ġcaecus": 8419,
      "ĠCicero": 8420,
      "Ġvino": 8421,
      "ĠIi": 8422,
      "ĠJob": 8423,
      "ĠApud": 8424,
      "Ġbrevis": 8425,
      "Ġnonnulli": 8426,
      "Ġtenuit": 8427,
      "ĠAngeli": 8428,
      "Ġlucidus": 8429,
      "idisse": 8430,
      "ĠDia": 8431,
      "Ġsecundam": 8432,
      "Ġsentire": 8433,
      "Ġope": 8434,
      "Ġdupliciter": 8435,
      "Ġnutus": 8436,
      "Ġuener": 8437,
      "ĠMarcus": 8438,
      "Ġaccepta": 8439,
      "Ġbasil": 8440,
      "Ġcort": 8441,
      "ĠTurc": 8442,
      "ĠNonne": 8443,
      "Ġimpetu": 8444,
      "Ġoperationem": 8445,
      "Ġsacramenta": 8446,
      "ĠAliquet": 8447,
      "ĠTit": 8448,
      "Ġcontrovers": 8449,
      "ĠGraece": 8450,
      "Par": 8451,
      "Ġsimilitudo": 8452,
      "Ġodium": 8453,
      "Ġpermitt": 8454,
      "gue": 8455,
      "Ġcursum": 8456,
      "Ġpapae": 8457,
      "anem": 8458,
      "Ġantiquis": 8459,
      "Ġpraecepit": 8460,
      "Ġredig": 8461,
      "Ġempt": 8462,
      "Ġdiaboli": 8463,
      "Ġaffer": 8464,
      "Ġrectum": 8465,
      "edes": 8466,
      "Ġoccasionem": 8467,
      "Ġnaturalem": 8468,
      "Ġiudices": 8469,
      "Ġamplex": 8470,
      "tarum": 8471,
      "ock": 8472,
      "Ġdebuit": 8473,
      "Ġleu": 8474,
      "Ġofferre": 8475,
      "Ġcarna": 8476,
      "Ġsaluto": 8477,
      "Ġualde": 8478,
      "Nulla": 8479,
      "Ġpublico": 8480,
      "ĠEuismod": 8481,
      "Ġlicentia": 8482,
      "Î¿Î½": 8483,
      "Ġperpend": 8484,
      "huc": 8485,
      "Ġ35": 8486,
      "Ġostenditur": 8487,
      "Ġsubsist": 8488,
      "Ġscop": 8489,
      "ĠSancto": 8490,
      "VIII": 8491,
      "Ġparentibus": 8492,
      "Ġrequiritur": 8493,
      "Ġattend": 8494,
      "Ġfacis": 8495,
      "ĠAliquip": 8496,
      "ĠUen": 8497,
      "Ġlax": 8498,
      "usum": 8499,
      "Ġvenerunt": 8500,
      "ĠChar": 8501,
      "Ġplebis": 8502,
      "Ġjugis": 8503,
      "Ġcharitate": 8504,
      "Ġdivino": 8505,
      "Ġmagnae": 8506,
      "Ġlog": 8507,
      "athem": 8508,
      "Ġhebdom": 8509,
      "ĠMach": 8510,
      "ellarum": 8511,
      "Ġfugam": 8512,
      "Ġfui": 8513,
      "Ġcontrario": 8514,
      "Ġrecipere": 8515,
      "Ġcondita": 8516,
      "ĠPretium": 8517,
      "ĠVidetur": 8518,
      "Ġquinquaginta": 8519,
      "ilitate": 8520,
      "Ġjumentum": 8521,
      "Ġplene": 8522,
      "Ġdixerat": 8523,
      "ĠApt": 8524,
      "mate": 8525,
      "Ġconsuetudinem": 8526,
      "Ġprodig": 8527,
      "itii": 8528,
      "ns": 8529,
      "ĠMicha": 8530,
      "Ġhabebit": 8531,
      "ĠJo": 8532,
      "Ġmontis": 8533,
      "Ġerrorem": 8534,
      "Ġmetrop": 8535,
      "vii": 8536,
      "Ġofficii": 8537,
      "Ġnosse": 8538,
      "Ġuim": 8539,
      "ĠLudov": 8540,
      "Ġsagaciter": 8541,
      "Ġdepend": 8542,
      "Ġproxime": 8543,
      "Ġincip": 8544,
      "Ġhabebant": 8545,
      "Ġsentit": 8546,
      "Ġaliquibus": 8547,
      "Ġexcog": 8548,
      "Ġmovetur": 8549,
      "ĠCont": 8550,
      "odiern": 8551,
      "Ġdabo": 8552,
      "Ġcognitione": 8553,
      "Ġmere": 8554,
      "Ġses": 8555,
      "Ġcoept": 8556,
      "Ġcase": 8557,
      "andiu": 8558,
      "Ġhomero": 8559,
      "ĠCaesare": 8560,
      "Ġlapide": 8561,
      "Ġoss": 8562,
      "orn": 8563,
      "Ġeth": 8564,
      "Ġapostolicae": 8565,
      "otos": 8566,
      "Ġforti": 8567,
      "Ġregionem": 8568,
      "Ġconjunc": 8569,
      "Ġlas": 8570,
      "Ġdidic": 8571,
      "Ġmaximam": 8572,
      "Ġfortiter": 8573,
      "Ġdii": 8574,
      "Ġargenti": 8575,
      "Ġavar": 8576,
      "Ġminorem": 8577,
      "Ġsidera": 8578,
      "Ġnullius": 8579,
      "Ġeft": 8580,
      "rarum": 8581,
      "aculi": 8582,
      "upat": 8583,
      "Ð¾": 8584,
      "Ġhar": 8585,
      "habeo": 8586,
      "Ġipsas": 8587,
      "Ġsubtil": 8588,
      "Ġdolus": 8589,
      "adit": 8590,
      "Dum": 8591,
      "Ġverto": 8592,
      "Ġexamin": 8593,
      "Ġprincipibus": 8594,
      "anes": 8595,
      "Ġerrem": 8596,
      "Ġredire": 8597,
      "Ġseptimo": 8598,
      "imini": 8599,
      "Ġagendum": 8600,
      "Ġtorqueo": 8601,
      "ĠRhod": 8602,
      "ĠHieronymus": 8603,
      "Ġreque": 8604,
      "ĠTo": 8605,
      "ĠFer": 8606,
      "Ġmortuis": 8607,
      "undis": 8608,
      "Ġquilibet": 8609,
      "Th": 8610,
      "ĠMedic": 8611,
      "Ġaiunt": 8612,
      "Ġdebita": 8613,
      "Ġremans": 8614,
      "Ġconl": 8615,
      "ĠOpp": 8616,
      "utionis": 8617,
      "Ġcibus": 8618,
      "Ġregia": 8619,
      "vol": 8620,
      "ago": 8621,
      "Ġaequalis": 8622,
      "Ġreligione": 8623,
      "Ġnecessitatem": 8624,
      "Ġretrib": 8625,
      "Ġplenum": 8626,
      "ren": 8627,
      "aeo": 8628,
      "Ġaccedere": 8629,
      "ĠCruc": 8630,
      "Ġaquil": 8631,
      "omus": 8632,
      "igil": 8633,
      "Ġpertineo": 8634,
      "ĠÏĢ": 8635,
      "Ġlitterae": 8636,
      "Ġexclud": 8637,
      "Ġnerv": 8638,
      "ifer": 8639,
      "ĠPostea": 8640,
      "ĠEcclesias": 8641,
      "burg": 8642,
      "vel": 8643,
      "ĠRo": 8644,
      "Ġauctore": 8645,
      "ĠNa": 8646,
      "Ġnovus": 8647,
      "äº": 8648,
      "Ġcontig": 8649,
      "ulerit": 8650,
      "Ġcuc": 8651,
      "Ġpectora": 8652,
      "Ġintellex": 8653,
      "itr": 8654,
      "ĠVita": 8655,
      "aldus": 8656,
      "Ġexsult": 8657,
      "livy": 8658,
      "entii": 8659,
      "ĠEros": 8660,
      "Ġindicat": 8661,
      "ĠJusto": 8662,
      "ibit": 8663,
      "Ġhonores": 8664,
      "zech": 8665,
      "Ġgenerat": 8666,
      "Ġdupl": 8667,
      "ĠAmbros": 8668,
      "Ġfratern": 8669,
      "Ġlevis": 8670,
      "Ġvindico": 8671,
      "Ġrespondere": 8672,
      "Ġymo": 8673,
      "Ġconse": 8674,
      "Ġtransire": 8675,
      "Ġbeneficio": 8676,
      "Ġobnox": 8677,
      "Ġortum": 8678,
      "Ġdissol": 8679,
      "Ġmisericordiae": 8680,
      "abilibus": 8681,
      "Ġculpam": 8682,
      "ĠProp": 8683,
      "Ġsimilem": 8684,
      "Ġpaucos": 8685,
      "IN": 8686,
      "Ġiung": 8687,
      "Ġpesti": 8688,
      "ilvus": 8689,
      "ĠHung": 8690,
      "uid": 8691,
      "Ġjustus": 8692,
      "Ġhomic": 8693,
      "toribus": 8694,
      "Ġaj": 8695,
      "Ġterg": 8696,
      "Ġulciscor": 8697,
      "Ġsuperioribus": 8698,
      "Ġredim": 8699,
      "Ġobruo": 8700,
      "Ġrite": 8701,
      "Ġvisa": 8702,
      "Ġerrore": 8703,
      "Ġiuss": 8704,
      "Ġnegat": 8705,
      "Ġiisdem": 8706,
      "Ġredemp": 8707,
      "ĠDignissim": 8708,
      "allo": 8709,
      "Ġletalis": 8710,
      "Ġsudo": 8711,
      "Ġvisc": 8712,
      "ĠLond": 8713,
      "Ġdisplic": 8714,
      "Ġpraesentis": 8715,
      "Ġusitas": 8716,
      "Ġsermonis": 8717,
      "Ġconcilio": 8718,
      "arae": 8719,
      "Ġmittere": 8720,
      "ES": 8721,
      "eriis": 8722,
      "Ġiustitiae": 8723,
      "ĠMC": 8724,
      "Ġsuperfl": 8725,
      "Ġsenatu": 8726,
      "ĠUnum": 8727,
      "Ġagunt": 8728,
      "Ġreferre": 8729,
      "Ġlapidem": 8730,
      "Ġveteres": 8731,
      "Ġdisser": 8732,
      "Ġnullis": 8733,
      "Ġmortui": 8734,
      "Ġrefoveo": 8735,
      "Ġcapitulo": 8736,
      "Ġtypicus": 8737,
      "Ġnesc": 8738,
      "Ġoccident": 8739,
      "Ġscisco": 8740,
      "Ġamico": 8741,
      "ensionem": 8742,
      "Ġdeprehend": 8743,
      "Ġdisting": 8744,
      "Ġregina": 8745,
      "ĠEadem": 8746,
      "Ġoritur": 8747,
      "Î³": 8748,
      "Ġadest": 8749,
      "Ġerub": 8750,
      "Ġtestes": 8751,
      "Ġsexto": 8752,
      "Ġpraeterm": 8753,
      "Ġaddere": 8754,
      "Ġreserv": 8755,
      "Ġprophetae": 8756,
      "Ġfuere": 8757,
      "Ġrab": 8758,
      "Ġpraemitto": 8759,
      "Ġoriginem": 8760,
      "hinc": 8761,
      "Ġproxima": 8762,
      "Ġhoram": 8763,
      "Ġabsur": 8764,
      "Ġflumina": 8765,
      "Ġideoque": 8766,
      "Ġforsitan": 8767,
      "Ġincludit": 8768,
      "Ġludum": 8769,
      "ĠAlt": 8770,
      "Ġcadit": 8771,
      "Ġcultus": 8772,
      "Ġanimalibus": 8773,
      "Ġcreata": 8774,
      "ellit": 8775,
      "ĠFranciae": 8776,
      "Ġcaritate": 8777,
      "Ġvelis": 8778,
      "Ġhonoris": 8779,
      "Ġregiones": 8780,
      "rique": 8781,
      "Ġcircumst": 8782,
      "IS": 8783,
      "Ġpraedicta": 8784,
      "Ġuiol": 8785,
      "olim": 8786,
      "Ġappellat": 8787,
      "Ġpersonarum": 8788,
      "Ġappos": 8789,
      "ĠIN": 8790,
      "eunte": 8791,
      "Ġroto": 8792,
      "Ġmalus": 8793,
      "AT": 8794,
      "Ġobiectum": 8795,
      "Ġdicamus": 8796,
      "Ġmolior": 8797,
      "Ġconter": 8798,
      "ĠOrn": 8799,
      "Ġmoritur": 8800,
      "Ġvisit": 8801,
      "Ġproficisc": 8802,
      "ĠEvangelium": 8803,
      "ĠSym": 8804,
      "Ġvarias": 8805,
      "ĠVi": 8806,
      "Ġtantis": 8807,
      "lim": 8808,
      "Ġnegotiis": 8809,
      "Mat": 8810,
      "noc": 8811,
      "iretur": 8812,
      "ĠBonum": 8813,
      "Ġultimo": 8814,
      "Ġunitate": 8815,
      "iculis": 8816,
      "Ġcaritatis": 8817,
      "Ġvap": 8818,
      "uribus": 8819,
      "Ġquoties": 8820,
      "Ġcrucem": 8821,
      "Ġcalig": 8822,
      "Ġreconcili": 8823,
      "Ġtenebr": 8824,
      "Ġnobili": 8825,
      "Ġplum": 8826,
      "roid": 8827,
      "Ġtego": 8828,
      "Ġdistric": 8829,
      "Ġdebeant": 8830,
      "erog": 8831,
      "Ġintegrum": 8832,
      "Ġactiv": 8833,
      "Ġchart": 8834,
      "ĠMulta": 8835,
      "acu": 8836,
      "Ġdecre": 8837,
      "Ġnep": 8838,
      "onos": 8839,
      "Ġpositus": 8840,
      "ĠSS": 8841,
      "Ġpuella": 8842,
      "ĠOctobris": 8843,
      "Ġcommuniter": 8844,
      "Ġstric": 8845,
      "Ġconsilii": 8846,
      "ĠJam": 8847,
      "Ġpluv": 8848,
      "VII": 8849,
      "Ġpremo": 8850,
      "Ġcorrump": 8851,
      "ularia": 8852,
      "Ġegit": 8853,
      "Ġquidne": 8854,
      "ĠNil": 8855,
      "ĠBen": 8856,
      "Ġphantas": 8857,
      "Ġortus": 8858,
      "Ġintelligendum": 8859,
      "ordia": 8860,
      "Ġconfl": 8861,
      "Ġpingu": 8862,
      "ĠBelg": 8863,
      "Ġterrib": 8864,
      "Ġattinet": 8865,
      "Ġuari": 8866,
      "Ġspectat": 8867,
      "Ġben": 8868,
      "ĠSig": 8869,
      "Ġducere": 8870,
      "ĠPlinius": 8871,
      "Ġterminos": 8872,
      "ĠIoseph": 8873,
      "ĠCing": 8874,
      "eniens": 8875,
      "Ġconsuetudine": 8876,
      "Ġcathed": 8877,
      "ĠSion": 8878,
      "Ġpersto": 8879,
      "ectos": 8880,
      "Ġbrute": 8881,
      "Ġmatrimonium": 8882,
      "Ġlibertate": 8883,
      "ĠEtenim": 8884,
      "Ġmorem": 8885,
      "Ġsinus": 8886,
      "Ġgn": 8887,
      "ifice": 8888,
      "Ġdefl": 8889,
      "Ġdetrah": 8890,
      "Fac": 8891,
      "alla": 8892,
      "Ġmittit": 8893,
      "Ġvast": 8894,
      "Ġrecepit": 8895,
      "Ġseptu": 8896,
      "ĠLuna": 8897,
      "Ġsacramento": 8898,
      "Ġquinta": 8899,
      "Ġoccuro": 8900,
      "Ġcognoscit": 8901,
      "Ġmemin": 8902,
      "Ġinspir": 8903,
      "Ġpeccatores": 8904,
      "Ġtabula": 8905,
      "ĠEpiscopi": 8906,
      "Ġmacto": 8907,
      ".--": 8908,
      "Ġusers": 8909,
      "ixa": 8910,
      "Ġefficit": 8911,
      "Ġpraemium": 8912,
      "ĠCast": 8913,
      "Ġsimulac": 8914,
      "Ġstomach": 8915,
      "fa": 8916,
      "Ġfideliter": 8917,
      "Ġfate": 8918,
      "Ġintegra": 8919,
      "Ġintentione": 8920,
      "ĠSh": 8921,
      "ĠMaii": 8922,
      "etu": 8923,
      "Ġsecutus": 8924,
      "24": 8925,
      "Ġsolam": 8926,
      "Ġquaestiones": 8927,
      "Ġinterdico": 8928,
      "Ġsaeculum": 8929,
      "ated": 8930,
      "ensione": 8931,
      "ĠIndi": 8932,
      "Ġimmedi": 8933,
      "Ġtriplic": 8934,
      "ĠHannib": 8935,
      "Ġtransc": 8936,
      "site": 8937,
      "Ġproximi": 8938,
      "icium": 8939,
      "Ġanx": 8940,
      "Î±Î¹": 8941,
      "Ġ100": 8942,
      "tib": 8943,
      "Ġenum": 8944,
      "28": 8945,
      "ĠRub": 8946,
      "Ġsomno": 8947,
      "ĠMattis": 8948,
      "Ġero": 8949,
      "Ġcommerci": 8950,
      "Ġlaus": 8951,
      "Ġsumptus": 8952,
      "Ġconatus": 8953,
      "Ġpedum": 8954,
      "Ġuoce": 8955,
      "ĠPharetra": 8956,
      "ĠRev": 8957,
      "Ġipsae": 8958,
      "Ġsuscep": 8959,
      "Ġpartum": 8960,
      "Etiam": 8961,
      "Ġå": 8962,
      "ĠNicola": 8963,
      "ĠTri": 8964,
      "Ġconver": 8965,
      "rehendo": 8966,
      "Ġpenes": 8967,
      "Ġdives": 8968,
      "ĠSeptembris": 8969,
      "ĠVulputate": 8970,
      "Ġdiri": 8971,
      "Ġauctores": 8972,
      "Ġagg": 8973,
      "Ġcic": 8974,
      "ĠMartii": 8975,
      "Ġdenomin": 8976,
      "Ġsop": 8977,
      "Ġtristi": 8978,
      "Ġcultu": 8979,
      "Ġproinde": 8980,
      "Ġdudum": 8981,
      "Ġdirecte": 8982,
      "Ġincrep": 8983,
      "Ġacquis": 8984,
      "Ġobiit": 8985,
      "Ġconsor": 8986,
      "Ġpulchra": 8987,
      "ĠRos": 8988,
      "ĠAugust": 8989,
      "elum": 8990,
      "Ġvestro": 8991,
      "Ġulc": 8992,
      "Ġpotuerit": 8993,
      "Ġmeth": 8994,
      "load": 8995,
      "Ġaetatem": 8996,
      "ĠUna": 8997,
      "erare": 8998,
      "ece": 8999,
      "Ġmoenia": 9000,
      "ularium": 9001,
      "Ġelectus": 9002,
      "Ġdiscord": 9003,
      "Ġannus": 9004,
      "Ġiaceo": 9005,
      "Ġpersonis": 9006,
      "Ġpotestatis": 9007,
      "ĠEuropa": 9008,
      "Ðµ": 9009,
      "Ġverus": 9010,
      "ĠChristiani": 9011,
      "ĠPotest": 9012,
      "riam": 9013,
      "Ġorbit": 9014,
      "Ġmentes": 9015,
      "ĠMalesuada": 9016,
      "Ġpuerum": 9017,
      "Ġlaudibus": 9018,
      "vas": 9019,
      "Ġmarm": 9020,
      "Ġpercipi": 9021,
      "Ġferme": 9022,
      "Ġexac": 9023,
      "Ġsingulorum": 9024,
      "Ġvelim": 9025,
      "ĠTristique": 9026,
      "ĠSanctorum": 9027,
      "Ġdextera": 9028,
      "Quin": 9029,
      "Ġpetere": 9030,
      "Ġimportunus": 9031,
      "Ġip": 9032,
      "Ġqualibet": 9033,
      "mae": 9034,
      "Ġmerita": 9035,
      "Ġflamma": 9036,
      "Ġpraesidio": 9037,
      "Ġveram": 9038,
      "Ġlae": 9039,
      "ĠPtol": 9040,
      "Ġexitus": 9041,
      "Ġquamdam": 9042,
      "ĠOcta": 9043,
      "Ġprovis": 9044,
      "Ġcrucifix": 9045,
      "Ġapprehend": 9046,
      "Ġliberis": 9047,
      "Ġincrementum": 9048,
      "Ġinhibeo": 9049,
      "Ġzril": 9050,
      "Ġmysterium": 9051,
      "epi": 9052,
      "Cl": 9053,
      "edunt": 9054,
      "ĠMMX": 9055,
      "ĠDani": 9056,
      "Ġerum": 9057,
      "Ġsanctos": 9058,
      "70": 9059,
      "inatio": 9060,
      "Ġfundamentum": 9061,
      "ĠNovi": 9062,
      "ĠHispania": 9063,
      "ĠLitter": 9064,
      "ĠPatrum": 9065,
      "ĠXI": 9066,
      "Ġcivium": 9067,
      "ks": 9068,
      "encia": 9069,
      "olet": 9070,
      "ĠHistor": 9071,
      "Ġpoeta": 9072,
      "lii": 9073,
      "Ġbreviter": 9074,
      "ĠprÃ¦dic": 9075,
      "Ġcoloris": 9076,
      "icias": 9077,
      "Ġirasc": 9078,
      "ĠJudaei": 9079,
      "Ġpulcherrim": 9080,
      "ï¼": 9081,
      "ovit": 9082,
      "ĠJul": 9083,
      "Ġsicuti": 9084,
      "Ġpervers": 9085,
      "Ġdulced": 9086,
      "Ġlegati": 9087,
      "Ġfacinus": 9088,
      "Ġreuer": 9089,
      "ĠGrati": 9090,
      "Ġari": 9091,
      "Ġtecta": 9092,
      "Ġinferius": 9093,
      "Ġfemina": 9094,
      "Cujus": 9095,
      "Ġuestra": 9096,
      "Ġcreare": 9097,
      "aturam": 9098,
      "Ġhodiern": 9099,
      "Ġliteris": 9100,
      "cium": 9101,
      "aram": 9102,
      "Ġuert": 9103,
      "ĠPen": 9104,
      "Ġnubes": 9105,
      "Ġdeform": 9106,
      "Ġserui": 9107,
      "Ġremedium": 9108,
      "risque": 9109,
      "ĠWill": 9110,
      "Ġsignificant": 9111,
      "itteret": 9112,
      "anica": 9113,
      "Ġpatientia": 9114,
      "Ġsolid": 9115,
      "Ġpassione": 9116,
      "ĠIX": 9117,
      "Ġactibus": 9118,
      "Ġseduc": 9119,
      "aly": 9120,
      "Ġconsent": 9121,
      "verat": 9122,
      "Ġcarmen": 9123,
      "Ġinesse": 9124,
      "Ġhabuerit": 9125,
      "Ġcense": 9126,
      "Ġpersuad": 9127,
      "Ġdisciplinam": 9128,
      "Ġoppeto": 9129,
      "Ġfuturi": 9130,
      "Ġpericulos": 9131,
      "Ġfecerat": 9132,
      "Ġmulierem": 9133,
      "ÃŁ": 9134,
      "ĠQuantum": 9135,
      "Ġlocup": 9136,
      "Ġtestimonio": 9137,
      "Ġrecenti": 9138,
      "Ġdicas": 9139,
      "unis": 9140,
      "Ġcommoda": 9141,
      "ĠMunicipia": 9142,
      "Ġcecidit": 9143,
      "ĠUllamcorper": 9144,
      "iosum": 9145,
      "Ġattr": 9146,
      "Ġopem": 9147,
      "Ġsummi": 9148,
      "Ġappellant": 9149,
      "ebi": 9150,
      "Ġ@#": 9151,
      "Ġaccipitur": 9152,
      "assent": 9153,
      "Ġoccis": 9154,
      "Ġiustitiam": 9155,
      "Ġdono": 9156,
      "Ġ33": 9157,
      "Ġoppido": 9158,
      "Ġcrimine": 9159,
      "Ġigni": 9160,
      "ĠCausa": 9161,
      "Alii": 9162,
      "Ġprovinciae": 9163,
      "uunt": 9164,
      "Ġalleg": 9165,
      "Ġforas": 9166,
      "put": 9167,
      "Ġistorum": 9168,
      "Ġangelis": 9169,
      "45": 9170,
      "ĠHieros": 9171,
      "Ang": 9172,
      "Ġcultum": 9173,
      "criptum": 9174,
      "Ġlaudis": 9175,
      "Ġlaetitia": 9176,
      "ĠCongreg": 9177,
      "Ġfrequent": 9178,
      "Ġlibere": 9179,
      "Ġlus": 9180,
      "tiae": 9181,
      "Ġstra": 9182,
      "ĠConc": 9183,
      "aptis": 9184,
      "Ġpersonas": 9185,
      "Ġsacerdotum": 9186,
      "Ġquasdam": 9187,
      "Ġcruce": 9188,
      "illos": 9189,
      "ennium": 9190,
      "elas": 9191,
      "Ġaperta": 9192,
      "eriter": 9193,
      "Ġimpiet": 9194,
      "Ġrepos": 9195,
      "Ġnichil": 9196,
      "Ġadversum": 9197,
      "Di": 9198,
      "Ġoculus": 9199,
      "Ġsatur": 9200,
      "Iam": 9201,
      "Ibi": 9202,
      "ĠPyth": 9203,
      "isses": 9204,
      "Ġcry": 9205,
      "turum": 9206,
      "ilit": 9207,
      "Ġmercedem": 9208,
      "Ġcustodia": 9209,
      "Ġgraviter": 9210,
      "rud": 9211,
      "Ġmeliorem": 9212,
      "Ġscelus": 9213,
      "axat": 9214,
      "wnload": 9215,
      "Ġsemina": 9216,
      "Ġgente": 9217,
      "ĠSanctum": 9218,
      "asit": 9219,
      "Ġclara": 9220,
      "Ġhabuisse": 9221,
      "Ġlaed": 9222,
      "Ġpraen": 9223,
      "Ġstren": 9224,
      "aba": 9225,
      "Ġrup": 9226,
      "Ġinl": 9227,
      "Ġnefas": 9228,
      "Ġscrut": 9229,
[...]
