{
  "version": "1.0",
  "truncation": null,
  "padding": null,
  "added_tokens": [
    {
      "id": 0,
      "content": "<pad>",
      "single_word": false,
      "lstrip": false,
      "rstrip": false,
      "normalized": false,
      "special": true
    },
    {
      "id": 1,
      "content": "<s>",
      "single_word": false,
      "lstrip": false,
      "rstrip": false,
      "normalized": false,
      "special": true
    },
    {
      "id": 2,
      "content": "</s>",
      "single_word": false,
      "lstrip": false,
      "rstrip": false,
      "normalized": false,
      "special": true
    },
    {
      "id": 3,
      "content": "<unk>",
      "single_word": false,
      "lstrip": false,
      "rstrip": false,
      "normalized": false,
      "special": true
    },
    {
      "id": 4,
      "content": "<mask>",
      "single_word": false,
      "lstrip": false,
      "rstrip": false,
      "normalized": false,
      "special": true
    }
  ],
  "normalizer": null,
  "pre_tokenizer": {
    "type": "ByteLevel",
    "add_prefix_space": false,
    "trim_offsets": true,
    "use_regex": true
  },
  "post_processor": {
    "type": "ByteLevel",
    "add_prefix_space": true,
    "trim_offsets": false,
    "use_regex": true
  },
  "decoder": null,
  "model": {
    "type": "BPE",
    "dropout": null,
    "unk_token": "<unk>",
    "continuing_subword_prefix": null,
    "end_of_word_suffix": null,
    "fuse_unk": false,
    "byte_fallback": false,
    "ignore_merges": false,
    "vocab": {
      "<pad>": 0,
      "<s>": 1,
      "</s>": 2,
      "<unk>": 3,
      "<mask>": 4,
      "!": 5,
      "\"": 6,
      "#": 7,
      "$": 8,
      "%": 9,
      "&": 10,
      "'": 11,
      "(": 12,
      ")": 13,
      "*": 14,
      "+": 15,
      ",": 16,
      "-": 17,
      ".": 18,
      "/": 19,
      "0": 20,
      "1": 21,
      "2": 22,
      "3": 23,
      "4": 24,
      "5": 25,
      "6": 26,
      "7": 27,
      "8": 28,
      "9": 29,
      ":": 30,
      ";": 31,
      "<": 32,
      "=": 33,
      ">": 34,
      "?": 35,
      "@": 36,
      "A": 37,
      "B": 38,
      "C": 39,
      "D": 40,
      "E": 41,
      "F": 42,
      "G": 43,
      "H": 44,
      "I": 45,
      "J": 46,
      "K": 47,
      "L": 48,
      "M": 49,
      "N": 50,
      "O": 51,
      "P": 52,
      "Q": 53,
      "R": 54,
      "S": 55,
      "T": 56,
      "U": 57,
      "V": 58,
      "W": 59,
      "X": 60,
      "Y": 61,
      "Z": 62,
      "[": 63,
      "\\": 64,
      "]": 65,
      "^": 66,
      "a": 67,
      "b": 68,
      "c": 69,
      "d": 70,
      "e": 71,
      "f": 72,
      "g": 73,
      "h": 74,
      "i": 75,
      "j": 76,
      "k": 77,
      "l": 78,
      "m": 79,
      "n": 80,
      "o": 81,
      "p": 82,
      "q": 83,
      "r": 84,
      "s": 85,
      "t": 86,
      "u": 87,
      "v": 88,
      "w": 89,
      "x": 90,
      "y": 91,
      "z": 92,
      "{": 93,
      "|": 94,
      "}": 95,
      "~": 96,
      "¡": 97,
      "¢": 98,
      "£": 99,
      "¤": 100,
      "¥": 101,
      "¦": 102,
      "§": 103,
      "¨": 104,
      "©": 105,
      "ª": 106,
      "«": 107,
      "¬": 108,
      "®": 109,
      "¯": 110,
      "°": 111,
      "±": 112,
      "²": 113,
      "³": 114,
      "´": 115,
      "µ": 116,
      "¶": 117,
      "·": 118,
      "¸": 119,
      "¹": 120,
      "º": 121,
      "»": 122,
      "¼": 123,
      "½": 124,
      "¾": 125,
      "¿": 126,
      "Â": 127,
      "Ã": 128,
      "Ä": 129,
      "Å": 130,
      "Æ": 131,
      "Ç": 132,
      "È": 133,
      "É": 134,
      "Ê": 135,
      "Ë": 136,
      "Ì": 137,
      "Í": 138,
      "Î": 139,
      "Ï": 140,
      "Ð": 141,
      "Ñ": 142,
      "Ò": 143,
      "Ó": 144,
      "Ô": 145,
      "Õ": 146,
      "Ö": 147,
      "×": 148,
      "Ø": 149,
      "Ù": 150,
      "Ú": 151,
      "Û": 152,
      "Ü": 153,
      "Ý": 154,
      "Þ": 155,
      "ß": 156,
      "à": 157,
      "á": 158,
      "â": 159,
      "ã": 160,
      "ä": 161,
      "å": 162,
      "æ": 163,
      "ç": 164,
      "è": 165,
      "é": 166,
      "ê": 167,
      "î": 168,
      "ï": 169,
      "ð": 170,
      "ą": 171,
      "Ġ": 172,
      "Ģ": 173,
      "ģ": 174,
      "Ĥ": 175,
      "ĥ": 176,
      "Ħ": 177,
      "ħ": 178,
      "Ĩ": 179,
      "ĩ": 180,
      "Ī": 181,
      "ī": 182,
      "Ĭ": 183,
      "ĭ": 184,
      "Į": 185,
      "į": 186,
      "İ": 187,
      "ı": 188,
      "Ĳ": 189,
      "ĳ": 190,
      "Ĵ": 191,
      "ĵ": 192,
      "Ķ": 193,
      "ķ": 194,
      "ĸ": 195,
      "Ĺ": 196,
      "ĺ": 197,
      "Ļ": 198,
      "ļ": 199,
      "Ľ": 200,
      "ľ": 201,
      "Ŀ": 202,
      "ŀ": 203,
      "Ł": 204,
      "ł": 205,
      "Ń": 206,
      "er": 207,
      "is": 208,
      "Ġe": 209,
      "um": 210,
      "us": 211,
      "Ġa": 212,
      "it": 213,
      "in": 214,
      "qu": 215,
      "Ġs": 216,
      "en": 217,
      "at": 218,
      "Ġp": 219,
      "or": 220,
      "on": 221,
      "Ġc": 222,
      "es": 223,
      "Ġd": 224,
      "am": 225,
      "em": 226,
      "Ġn": 227,
      "Ġm": 228,
      "Ġqu": 229,
      "ur": 230,
      "ti": 231,
      "Ġin": 232,
      "ic": 233,
      "an": 234,
      "Ġv": 235,
      "et": 236,
      "Ġt": 237,
      "li": 238,
      "ec": 239,
      "ar": 240,
      "Ġf": 241,
      "un": 242,
      "ul": 243,
      "os": 244,
      "im": 245,
      "ut": 246,
      "Ġet": 247,
      "ae": 248,
      "Ġi": 249,
      "el": 250,
      "ol": 251,
      "as": 252,
      "Ġr": 253,
      "Ġl": 254,
      "Ġpr": 255,
      "ent": 256,
      "om": 257,
      "que": 258,
      "Ġh": 259,
      "st": 260,
      "id": 261,
      "od": 262,
      "ac": 263,
      "ed": 264,
      "Ġcon": 265,
      "ib": 266,
      "al": 267,
      "Ġad": 268,
      "Ġest": 269,
      "unt": 270,
      "ia": 271,
      "..": 272,
      "oc": 273,
      "ĠS": 274,
      "ĠA": 275,
      "end": 276,
      "ra": 277,
      "Ġex": 278,
      "ati": 279,
      "ab": 280,
      "il": 281,
      "per": 282,
      "ibus": 283,
      "ĠC": 284,
      "Ġnon": 285,
      "ĠP": 286,
      "ĠD": 287,
      "ud": 288,
      "Ġut": 289,
      "ant": 290,
      "ere": 291,
      "se": 292,
      "Ġsu": 293,
      "Ġde": 294,
      "ĠE": 295,
      "Ġu": 296,
      "gn": 297,
      "ĠI": 298,
      "Ġper": 299,
      "uc": 300,
      "ect": 301,
      "ir": 302,
      "op": 303,
      "ip": 304,
      "ter": 305,
      "Ġdi": 306,
      "tr": 307,
      "Ġac": 308,
      "ĠN": 309,
      "ĠM": 310,
      "ot": 311,
      "Ġre": 312,
      "Ġma": 313,
      "orum": 314,
      "Ġan": 315,
      "Ġb": 316,
      "Ġg": 317,
      "Ġali": 318,
      "ens": 319,
      "enti": 320,
      "ell": 321,
      "Qu": 322,
      "ius": 323,
      "ort": 324,
      "ob": 325,
      "itur": 326,
      "ps": 327,
      "est": 328,
      "io": 329,
      "Ġquod": 330,
      "Ġer": 331,
      "and": 332,
      "ation": 333,
      "atur": 334,
      "Ġvel": 335,
      "pt": 336,
      "Ġdic": 337,
      "eg": 338,
      "Ġsed": 339,
      "la": 340,
      "Ġsit": 341,
      "Ġaut": 342,
      "itat": 343,
      "Ġam": 344,
      "iss": 345,
      "Ġqui": 346,
      "Ġcum": 347,
      "Ġips": 348,
      "ap": 349,
      "Ġpos": 350,
      "ĠQu": 351,
      "Ġid": 352,
      "ore": 353,
      "Ġil": 354,
      "ium": 355,
      "ili": 356,
      "Ġel": 357,
      "ĠV": 358,
      "emp": 359,
      "ta": 360,
      "Ġom": 361,
      "Ġen": 362,
      "Ġfac": 363,
      "omin": 364,
      "Ġdol": 365,
      "Ġse": 366,
      "Ġli": 367,
      "te": 368,
      "fic": 369,
      "Ġcons": 370,
      "Ġcom": 371,
      "unc": 372,
      "iv": 373,
      "Ġomn": 374,
      "etur": 375,
      "Ġat": 376,
      "ing": 377,
      "are": 378,
      "und": 379,
      "quam": 380,
      "ug": 381,
      "orem": 382,
      "esti": 383,
      "ĠT": 384,
      "Ġnec": 385,
      "Ġim": 386,
      "Ġes": 387,
      "Ġpro": 388,
      "isc": 389,
      "Ġor": 390,
      "eb": 391,
      "ion": 392,
      "Ġenim": 393,
      "bi": 394,
      "Ġvol": 395,
      "ĠH": 396,
      "ĠL": 397,
      "inc": 398,
      "ris": 399,
      "Ġquam": 400,
      "Ġsc": 401,
      "Ġar": 402,
      "Ġpar": 403,
      "Ġeg": 404,
      "Ġtemp": 405,
      "tum": 406,
      "re": 407,
      "ĠIn": 408,
      "Ġsi": 409,
      "uit": 410,
      "iam": 411,
      "ad": 412,
      "Ġpl": 413,
      "Ġab": 414,
      "Ġhab": 415,
      "ero": 416,
      "Ġquae": 417,
      "Ġul": 418,
      "erit": 419,
      "tus": 420,
      "Ġill": 421,
      "ĠF": 422,
      "ĠR": 423,
      "to": 424,
      "tis": 425,
      "entum": 426,
      "Ġne": 427,
      "ĠDe": 428,
      "Ġme": 429,
      "ess": 430,
      "Ġeu": 431,
      "tiam": 432,
      "aec": 433,
      "Ġquis": 434,
      "Ġo": 435,
      "Ġnos": 436,
      "Ġamet": 437,
      "Ġsunt": 438,
      "ĠU": 439,
      "Ġvit": 440,
      "Ġnis": 441,
      "lic": 442,
      "jus": 443,
      "ui": 444,
      "Ġinter": 445,
      "Ġdolor": 446,
      "ari": 447,
      "mod": 448,
      "Ġsol": 449,
      "imus": 450,
      "entes": 451,
      "ri": 452,
      "bus": 453,
      "arum": 454,
      "atis": 455,
      "ine": 456,
      "Ġipsum": 457,
      "Ġlib": 458,
      "Ġsem": 459,
      "Ġ&": 460,
      "Ġacc": 461,
      "ue": 462,
      "ita": 463,
      "Ġmagn": 464,
      "ro": 465,
      "Ġaliqu": 466,
      "Ġcor": 467,
      "ula": 468,
      "Ġautem": 469,
      "Ġquo": 470,
      "Ġesse": 471,
      "ĠB": 472,
      "ate": 473,
      "ub": 474,
      "issim": 475,
      "ag": 476,
      "lam": 477,
      "tion": 478,
      "Ġap": 479,
      "ĠG": 480,
      "Ġun": 481,
      "Ġsp": 482,
      "eo": 483,
      "uer": 484,
      "anc": 485,
      "ĠEt": 486,
      "Ġpot": 487,
      "upt": 488,
      "iter": 489,
      "Ġmol": 490,
      "ulum": 491,
      "av": 492,
      "Ġnul": 493,
      "uis": 494,
      "Ġquid": 495,
      "Ġtr": 496,
      "ales": 497,
      "ce": 498,
      "Ġhoc": 499,
      "Ġquia": 500,
      "Ġetiam": 501,
      "ici": 502,
      "atus": 503,
      "ass": 504,
      "ĠSed": 505,
      "Ġop": 506,
      "Ġco": 507,
      "tra": 508,
      "ĠO": 509,
      "Ġ(": 510,
      "ci": 511,
      "Ġprop": 512,
      "Ġvitae": 513,
      "rum": 514,
      "ata": 515,
      "tor": 516,
      "Ġcur": 517,
      "Ã¦": 518,
      "Ġal": 519,
      "ectus": 520,
      "Ġob": 521,
      "ig": 522,
      "ff": 523,
      "Ġlac": 524,
      "lis": 525,
      "eris": 526,
      "de": 527,
      "Ġsub": 528,
      "Ġelit": 529,
      "ffic": 530,
      "atum": 531,
      "Ġpra": 532,
      "Ġfr": 533,
      "ali": 534,
      "Ġmi": 535,
      "uris": 536,
      "sequ": 537,
      "ers": 538,
      ",.": 539,
      "erum": 540,
      "eri": 541,
      "Ġnisi": 542,
      "endum": 543,
      "ilis": 544,
      "Ġ1": 545,
      "Ġeget": 546,
      "itud": 547,
      "erat": 548,
      "Ġter": 549,
      "Ġint": 550,
      "ellus": 551,
      "Ġante": 552,
      "Ġla": 553,
      "Ġven": 554,
      "Ġerat": 555,
      "di": 556,
      "tium": 557,
      "Ġtu": 558,
      "idunt": 559,
      "Ġinc": 560,
      "Ġsic": 561,
      "up": 562,
      "Ġsus": 563,
      "ans": 564,
      "Ġvolupt": 565,
      "lig": 566,
      "ov": 567,
      "Ġconsect": 568,
      "Ġtam": 569,
      "Ġsec": 570,
      "ene": 571,
      "Ġport": 572,
      "oris": 573,
      "iti": 574,
      "Ġmod": 575,
      "amus": 576,
      "go": 577,
      "atio": 578,
      "Ġposs": 579,
      "Ġnunc": 580,
      "Ġte": 581,
      "iat": 582,
      "ist": 583,
      "cc": 584,
      "ores": 585,
      "Ġcr": 586,
      "api": 587,
      "Ġmin": 588,
      "Ġconsectetur": 589,
      "Ġneque": 590,
      "Ġur": 591,
      "tim": 592,
      "ulis": 593,
      "Ġvid": 594,
      "Ġod": 595,
      "Ġst": 596,
      "Ìģ": 597,
      "Ġultr": 598,
      "erm": 599,
      "Ġqua": 600,
      "le": 601,
      "erunt": 602,
      "Ġprim": 603,
      "Ġgra": 604,
      "antur": 605,
      "atione": 606,
      "Ġea": 607,
      "Ġanim": 608,
      "hil": 609,
      "alis": 610,
      "Ġas": 611,
      "etus": 612,
      "Ġres": 613,
      "int": 614,
      "Ġtur": 615,
      "Ġconsequ": 616,
      "Ġoc": 617,
      "Ġca": 618,
      "risti": 619,
      "Ġarc": 620,
      "ĠCh": 621,
      "ii": 622,
      "Ġsuper": 623,
      "na": 624,
      "Ġimp": 625,
      "onec": 626,
      "Ġnulla": 627,
      "estib": 628,
      "ei": 629,
      "Ġmat": 630,
      "estibulum": 631,
      "cip": 632,
      "Ġsim": 633,
      "tio": 634,
      "itate": 635,
      "Ġrep": 636,
      "itas": 637,
      "Ġnostr": 638,
      "Ġmul": 639,
      "iae": 640,
      "entesque": 641,
      "incidunt": 642,
      "Ġadip": 643,
      "ellentesque": 644,
      "Ġsapi": 645,
      "Ġvir": 646,
      "Ġtempor": 647,
      "ationem": 648,
      "entia": 649,
      "Ġprae": 650,
      "isse": 651,
      "Ġdes": 652,
      "Ġtincidunt": 653,
      "Ġexp": 654,
      "Ġvelit": 655,
      "Ġmagna": 656,
      "Ġjus": 657,
      "tin": 658,
      "ost": 659,
      "itus": 660,
      "Ġconv": 661,
      "rip": 662,
      "Ġj": 663,
      "Ġann": 664,
      "obis": 665,
      "Ġver": 666,
      "Ġloc": 667,
      "eni": 668,
      "Ġeum": 669,
      "aret": 670,
      "Ġviv": 671,
      "Ġus": 672,
      "Ġpotest": 673,
      "ina": 674,
      "Ġimper": 675,
      "Ġpat": 676,
      "sus": 677,
      "Ġadipisc": 678,
      "hi": 679,
      "ĠDomin": 680,
      "vid": 681,
      "Ġpur": 682,
      "inis": 683,
      "Ġsum": 684,
      "tit": 685,
      "Ġeius": 686,
      "Ġreg": 687,
      "auc": 688,
      "itum": 689,
      "untur": 690,
      "uli": 691,
      "Ġsemper": 692,
      "ĠAn": 693,
      "Ġinf": 694,
      "itatem": 695,
      "Ġcorp": 696,
      "Ġlab": 697,
      "pis": 698,
      "Ġdign": 699,
      "dum": 700,
      "Ġdu": 701,
      "Ġluc": 702,
      "Ġcomm": 703,
      "eat": 704,
      "Ġhomin": 705,
      "Ġapp": 706,
      "Ġcomp": 707,
      "les": 708,
      "ulp": 709,
      "Ġbon": 710,
      "Ġ\"": 711,
      "Ġgen": 712,
      "ep": 713,
      "Ġodio": 714,
      "elis": 715,
      "ori": 716,
      "Ġleg": 717,
      "ĠNul": 718,
      "ĠJ": 719,
      "Ġmax": 720,
      "uere": 721,
      "anti": 722,
      "Ġplac": 723,
      "Ġdictum": 724,
      "Ġaug": 725,
      "Ġph": 726,
      "orm": 727,
      "Ġrec": 728,
      "Ġatque": 729,
      "Ġauc": 730,
      "itatis": 731,
      "Ġita": 732,
      "atem": 733,
      "Ġmolesti": 734,
      "Ġcond": 735,
      "Ġdeb": 736,
      "Ġpul": 737,
      "Ġman": 738,
      "Ġsecund": 739,
      "eret": 740,
      "og": 741,
      "ĠUt": 742,
      "itudin": 743,
      "ch": 744,
      "Ġaliquam": 745,
      "Ġadipiscing": 746,
      "ĠMa": 747,
      "Ġdiam": 748,
      "cus": 749,
      "isus": 750,
      "Ġlibero": 751,
      "Ġturpis": 752,
      "Ġcommod": 753,
      "land": 754,
      "Ġsanc": 755,
      "Ġdec": 756,
      "Ġag": 757,
      "ern": 758,
      "ihil": 759,
      "Ġgr": 760,
      "ando": 761,
      "ibh": 762,
      "Ġquas": 763,
      "Ġtamen": 764,
      "ices": 765,
      "ĠDonec": 766,
      "erv": 767,
      "Ġpo": 768,
      "iis": 769,
      "arius": 770,
      "ert": 771,
      "Ġfacilis": 772,
      "entur": 773,
      "ente": 774,
      "Ġorci": 775,
      "ex": 776,
      "Ġauctor": 777,
      "Ġnibh": 778,
      "Ġis": 779,
      "Ġquibus": 780,
      "Ġtellus": 781,
      "assa": 782,
      "Ġinv": 783,
      "ĠCon": 784,
      "ĠPr": 785,
      "Ġpre": 786,
      "dic": 787,
      "Ġtempus": 788,
      "Ġpost": 789,
      "ora": 790,
      "Ġmauris": 791,
      "Ġlorem": 792,
      "Ġ2": 793,
      "Ġeos": 794,
      "vin": 795,
      "Ġcol": 796,
      "ÌĦ": 797,
      "ugiat": 798,
      "Ġleo": 799,
      "Ġullam": 800,
      "Ġnisl": 801,
      "era": 802,
      "Ġlacus": 803,
      "Ġpec": 804,
      "Ġarcu": 805,
      "Ġpraes": 806,
      "irc": 807,
      "cipit": 808,
      "Ġquidem": 809,
      "ortor": 810,
      "Ġlig": 811,
      "Ġcu": 812,
      "Ġlectus": 813,
      "hon": 814,
      "Ġjusto": 815,
      "ulo": 816,
      "Ġaugue": 817,
      "Ġrisus": 818,
      "ĠNam": 819,
      "antum": 820,
      "Ġcar": 821,
      "Ġmon": 822,
      "Ġpurus": 823,
      "estas": 824,
      "Ġmassa": 825,
      "itu": 826,
      "Ġcong": 827,
      "ang": 828,
      "tem": 829,
      "ition": 830,
      "Ġmed": 831,
      "ada": 832,
      "cor": 833,
      "Ġtot": 834,
      "erc": 835,
      "ccles": 836,
      "Ġfili": 837,
      "Ġurna": 838,
      "endi": 839,
      "Ġtortor": 840,
      "Ġvero": 841,
      "Ġmetus": 842,
      "Ġfe": 843,
      "Ġoper": 844,
      "Ġins": 845,
      "ortis": 846,
      "aucibus": 847,
      "Ġdui": 848,
      "entis": 849,
      "Ġfelis": 850,
      "tic": 851,
      "Ġbland": 852,
      "pat": 853,
      "ux": 854,
      "ĠAli": 855,
      "Ġeros": 856,
      "dam": 857,
      "Ġfid": 858,
      "Ġfaucibus": 859,
      "Ġsapien": 860,
      "Ġligula": 861,
      "ras": 862,
      "Ġconf": 863,
      "esc": 864,
      "Ġsal": 865,
      "eli": 866,
      "alesu": 867,
      "abitur": 868,
      "Ġhis": 869,
      "Ġnum": 870,
      "eh": 871,
      "alesuada": 872,
      "ire": 873,
      "icet": 874,
      "Ġdel": 875,
      "tur": 876,
      "Ġnobis": 877,
      "lum": 878,
      "Ġnihil": 879,
      "Ġmalesuada": 880,
      "Ġegestas": 881,
      "Ġei": 882,
      "Ġti": 883,
      "Ġocc": 884,
      "Ġfin": 885,
      "Et": 886,
      "ix": 887,
      "Ġred": 888,
      "Ġnatur": 889,
      "Ġsicut": 890,
      "isque": 891,
      "ĠAd": 892,
      "Ġsuscipit": 893,
      "ica": 894,
      "utpat": 895,
      "Ġscel": 896,
      "Ġrem": 897,
      "Ġius": 898,
      "pend": 899,
      "Ġorn": 900,
      "Ġcap": 901,
      "Ġiac": 902,
      "itis": 903,
      "Ġcaus": 904,
      "Ġess": 905,
      "qui": 906,
      "orbi": 907,
      "Ġeo": 908,
      "ĠPh": 909,
      "sum": 910,
      "ĠDei": 911,
      "Ġejus": 912,
      "ĠPra": 913,
      "Ġvolutpat": 914,
      "Ġelem": 915,
      "Ġconc": 916,
      "Ġdis": 917,
      "Ġsac": 918,
      "oribus": 919,
      "Ġbib": 920,
      "Ġmal": 921,
      "Ġcommodo": 922,
      "Ġten": 923,
      "Ġhum": 924,
      "illa": 925,
      "ato": 926,
      "ĠPro": 927,
      "lo": 928,
      "Ġdignissim": 929,
      "Ġconst": 930,
      "pon": 931,
      "ebat": 932,
      "Ġconsequat": 933,
      "ums": 934,
      "Ġep": 935,
      "erisque": 936,
      "Ġpretium": 937,
      "Ġsag": 938,
      "enas": 939,
      "ani": 940,
      "Ġultrices": 941,
      "Ġposuere": 942,
      "fend": 943,
      "Ġtristi": 944,
      "ua": 945,
      "corper": 946,
      "erra": 947,
      "ĠCur": 948,
      "Ġluctus": 949,
      "Ġsecundum": 950,
      "entem": 951,
      "ationis": 952,
      "Ġsollic": 953,
      "utate": 954,
      "allis": 955,
      "Ġaud": 956,
      "icula": 957,
      "ibi": 958,
      "ulputate": 959,
      "gitur": 960,
      "enean": 961,
      "Ġullamcorper": 962,
      "Ġcirc": 963,
      "ios": 964,
      "Ġcursus": 965,
      "Ġvestibulum": 966,
      "Ġpellentesque": 967,
      "ile": 968,
      "gis": 969,
      "Ġtristique": 970,
      "entiam": 971,
      "Ġomnes": 972,
      "Ġfeugiat": 973,
      "Ġhaec": 974,
      "Ġmodo": 975,
      "imentum": 976,
      "Ġinterdum": 977,
      "Ġnomin": 978,
      "Ġsagit": 979,
      "gr": 980,
      "ĠNon": 981,
      "Ġergo": 982,
      "Ġvulputate": 983,
      "Ġveh": 984,
      "Ġpers": 985,
      "Ġdisc": 986,
      "umsan": 987,
      "ie": 988,
      "Ġferm": 989,
      "obortis": 990,
      "Ġno": 991,
      "diet": 992,
      "Ġvarius": 993,
      "pe": 994,
      "icies": 995,
      "Ġeffic": 996,
      "Ġscelerisque": 997,
      "Ġmollis": 998,
      "vida": 999,
      "Ġtibi": 1000,
      "Ġblandit": 1001,
      "Ġeuis": 1002,
      "Ġelementum": 1003,
      "inia": 1004,
      "ific": 1005,
      "rerit": 1006,
      "Ġeuismod": 1007,
      "titor": 1008,
      "edit": 1009,
      "vinar": 1010,
      "Ġaliquet": 1011,
      "ĠEx": 1012,
      "Ġfacilisis": 1013,
      "endrerit": 1014,
      "Ġnam": 1015,
      "Ġlobortis": 1016,
      "Ġimperdiet": 1017,
      "eger": 1018,
      "Ġaccumsan": 1019,
      "ann": 1020,
      "Ġviverra": 1021,
      "Ġplacerat": 1022,
      "tu": 1023,
      "Ġsagittis": 1024,
      "ini": 1025,
      "aretra": 1026,
      "Ġvenen": 1027,
      "Ġquem": 1028,
      "pse": 1029,
      "entibus": 1030,
      "Ġporttitor": 1031,
      "Ġporta": 1032,
      "Ġhendrerit": 1033,
      "lius": 1034,
      "oreet": 1035,
      "avit": 1036,
      "Ġinst": 1037,
      "ime": 1038,
      "Ġcongue": 1039,
      "Ġpulvinar": 1040,
      "honcus": 1041,
      "Ġultricies": 1042,
      "Ġuel": 1043,
      "Ġgravida": 1044,
      "Ġsign": 1045,
      "apibus": 1046,
      "Ġsup": 1047,
      "Ġfermentum": 1048,
      "Ġmattis": 1049,
      "utrum": 1050,
      "Ġsod": 1051,
      "Ġoffic": 1052,
      "Ġbibendum": 1053,
      "Ġpharetra": 1054,
      "ingilla": 1055,
      "Ġdix": 1056,
      "Ġpecc": 1057,
      "incip": 1058,
      "ite": 1059,
      "ram": 1060,
      "Ġmolestie": 1061,
      "Ġlaoreet": 1062,
      "Ġdapibus": 1063,
      "Ġrhoncus": 1064,
      "Ġconvallis": 1065,
      "Ġdoc": 1066,
      "he": 1067,
      "Ġomnia": 1068,
      "endo": 1069,
      "Ġind": 1070,
      "Ġfam": 1071,
      "Ġelei": 1072,
      "ulus": 1073,
      "Ġmagis": 1074,
      "Ġeleifend": 1075,
      "Ġsollicitudin": 1076,
      "Ġvenenatis": 1077,
      "Ġlacinia": 1078,
      "Ġornare": 1079,
      "udic": 1080,
      "tius": 1081,
      "Ġfringilla": 1082,
      "emus": 1083,
      "Ġiaculis": 1084,
      "Ġhu": 1085,
      "pendisse": 1086,
      "ale": 1087,
      "Ġcondimentum": 1088,
      "ĠAt": 1089,
      "ĠSi": 1090,
      "Ġsint": 1091,
      "Ġsodales": 1092,
      "dem": 1093,
      "Ġrutrum": 1094,
      "rim": 1095,
      "ione": 1096,
      "fer": 1097,
      "Ġcl": 1098,
      "In": 1099,
      "Ġfuit": 1100,
      "oli": 1101,
      "irm": 1102,
      "Ġrerum": 1103,
      "Ġmihi": 1104,
      "usce": 1105,
      "Ġscrip": 1106,
      "iscop": 1107,
      "Ġvehicula": 1108,
      "Ġpon": 1109,
      "Ġpraec": 1110,
      "asellus": 1111,
      "ilia": 1112,
      "tionem": 1113,
      "Ġsibi": 1114,
      "Ġeam": 1115,
      "Ġubi": 1116,
      "ph": 1117,
      "si": 1118,
      "Ġomnis": 1119,
      "Ġpop": 1120,
      "quit": 1121,
      "Ġvoc": 1122,
      "enda": 1123,
      "Ġduc": 1124,
      "iet": 1125,
      "ionem": 1126,
      "cept": 1127,
      "isset": 1128,
      "Ġhic": 1129,
      "ĠAliquam": 1130,
      "@#": 1131,
      "Ġdomin": 1132,
      "ĠNunc": 1133,
      "Ġdiv": 1134,
      "ure": 1135,
      "Ġalter": 1136,
      "ĠRom": 1137,
      "aris": 1138,
      "Ġsoc": 1139,
      "Ġigitur": 1140,
      "Ġmort": 1141,
      "ĠX": 1142,
      "tes": 1143,
      "Ġeorum": 1144,
      "Ġ-": 1145,
      "ĠVestibulum": 1146,
      "Ġign": 1147,
      "Ġexc": 1148,
      "Ġquoque": 1149,
      "enta": 1150,
      "Ġipse": 1151,
      "ĠDeus": 1152,
      "itt": 1153,
      "Ġspec": 1154,
      "Ġhac": 1155,
      "Ġcontra": 1156,
      "Ġprincip": 1157,
      "Ġfug": 1158,
      "Ġdef": 1159,
      "ept": 1160,
      "ong": 1161,
      "ret": 1162,
      "ura": 1163,
      "estr": 1164,
      "uerit": 1165,
      "Ġform": 1166,
      "Ġdom": 1167,
      "Ġnov": 1168,
      "Ġsine": 1169,
      "tione": 1170,
      "ino": 1171,
      "ĠChris": 1172,
      "esent": 1173,
      "Ġund": 1174,
      "Ġvis": 1175,
      "Ġtrans": 1176,
      "Ġmem": 1177,
      "rem": 1178,
      "Ġquasi": 1179,
      "ĠPellentesque": 1180,
      "ĠCum": 1181,
      "Ġproc": 1182,
      "ĠEtiam": 1183,
      "uper": 1184,
      "Ġapud": 1185,
      "uo": 1186,
      "Ġch": 1187,
      "Ġhabet": 1188,
      "Ġord": 1189,
      "Ġcont": 1190,
      "tibus": 1191,
      "eter": 1192,
      "Ġlit": 1193,
      "ĠInt": 1194,
      "Ġilla": 1195,
      "ito": 1196,
      "ĠNulla": 1197,
      "Ġfi": 1198,
      "ult": 1199,
      "rib": 1200,
      "ĠQuod": 1201,
      "ric": 1202,
      "aria": 1203,
      "Ġmis": 1204,
      "ĠViv": 1205,
      "Ġneg": 1206,
      "aud": 1207,
      "Ġquos": 1208,
      "atu": 1209,
      "Ġdicit": 1210,
      "ĠSus": 1211,
      "Ġk": 1212,
      "entium": 1213,
      "Ġcogn": 1214,
      "quid": 1215,
      "rae": 1216,
      "ma": 1217,
      "II": 1218,
      "Ġomnibus": 1219,
      "uta": 1220,
      "Ġnecess": 1221,
      "Ġtempore": 1222,
      "Ġfort": 1223,
      "reh": 1224,
      "enit": 1225,
      "alem": 1226,
      "Ġfec": 1227,
      "Ġprod": 1228,
      "Ġspir": 1229,
      "Sed": 1230,
      "Ġsua": 1231,
      "ias": 1232,
      "pos": 1233,
      "Ġipsa": 1234,
      "ationes": 1235,
      "ensis": 1236,
      "Ġgl": 1237,
      "Ġpa": 1238,
      "Ġcas": 1239,
      "Ġmund": 1240,
      "ima": 1241,
      "Ġnot": 1242,
      "ĠDuis": 1243,
      "Ġdicitur": 1244,
      "ĠChristi": 1245,
      "Ġaliquid": 1246,
      "Ġev": 1247,
      "ana": 1248,
      "ne": 1249,
      "Ġtra": 1250,
      "Ġfl": 1251,
      "Ġiam": 1252,
      "Ġdie": 1253,
      "Ġille": 1254,
      "lus": 1255,
      "aecenas": 1256,
      "ĠNullam": 1257,
      "ĠAr": 1258,
      "ĠAenean": 1259,
      "equ": 1260,
      "Ġserv": 1261,
      "ĠAp": 1262,
      "Ġimm": 1263,
      "crip": 1264,
      "ĠCurabitur": 1265,
      "uisse": 1266,
      "ym": 1267,
      "Ġfer": 1268,
      "ĠMauris": 1269,
      "Ġ3": 1270,
      "ĠQui": 1271,
      "ane": 1272,
      "ĠMaecenas": 1273,
      "ĠVivamus": 1274,
      "ĠEccles": 1275,
      "Ġillud": 1276,
      "Ġuid": 1277,
      "Ġem": 1278,
      "ĠMorbi": 1279,
      "ĠPraesent": 1280,
      "Ġverb": 1281,
      "anus": 1282,
      "ĠQuisque": 1283,
      "Ġlaud": 1284,
      "ĠProin": 1285,
      "Ġcommun": 1286,
      "vis": 1287,
      "Ġuti": 1288,
      "ĠFusce": 1289,
      "hib": 1290,
      "tut": 1291,
      "Ġ<": 1292,
      "Ġprob": 1293,
      ":.": 1294,
      "oqu": 1295,
      "Ġexerc": 1296,
      "ĠMar": 1297,
      "ĠPhasellus": 1298,
      "ĠInteger": 1299,
      "ĠCras": 1300,
      "Ġsens": 1301,
      "Ġmai": 1302,
      "endis": 1303,
      "ach": 1304,
      "atibus": 1305,
      "Ġtantum": 1306,
      "plic": 1307,
      "ĠSuspendisse": 1308,
      "Ġhon": 1309,
      "Ġpropter": 1310,
      "ectum": 1311,
      "Ġcred": 1312,
      "Ġsae": 1313,
      "one": 1314,
      "Ġmil": 1315,
      "Ġvoluptatem": 1316,
      "Ġprof": 1317,
      "Ġaff": 1318,
      "Ġintell": 1319,
      "Ġperf": 1320,
      "ord": 1321,
      "antes": 1322,
      "rat": 1323,
      "asc": 1324,
      "Ġuir": 1325,
      "umque": 1326,
      "ĠPat": 1327,
      "entiae": 1328,
      "Ġanno": 1329,
      "Ġput": 1330,
      "ĠDeo": 1331,
      "Ġfrat": 1332,
      "Ġillum": 1333,
      "oph": 1334,
      "Ġesset": 1335,
      "Lorem": 1336,
      "enter": 1337,
      "Ġfaci": 1338,
      "uum": 1339,
      "Ġlong": 1340,
      "ecto": 1341,
      "uti": 1342,
      "itia": 1343,
      "?.": 1344,
      "Ġeff": 1345,
      "uri": 1346,
      "osc": 1347,
      "ellig": 1348,
      "Ġnostra": 1349,
      "erb": 1350,
      "ator": 1351,
      "sa": 1352,
      "Ġaccus": 1353,
      "Ġdum": 1354,
      "Ġusque": 1355,
      "ĠUn": 1356,
      "ilium": 1357,
      "andum": 1358,
      "endit": 1359,
      "oll": 1360,
      "ĠAl": 1361,
      "ĠLorem": 1362,
      "Ġsen": 1363,
      "Ġto": 1364,
      "th": 1365,
      "Ġmor": 1366,
      "Ġabs": 1367,
      "ider": 1368,
      "git": 1369,
      "Ġaper": 1370,
      "Ġsequ": 1371,
      "Ġciv": 1372,
      "lex": 1373,
      "inus": 1374,
      "Ġregn": 1375,
      "Ġfinibus": 1376,
      "Ġinquit": 1377,
      "ÌĢ": 1378,
      "iu": 1379,
      "Ġurb": 1380,
      "Ġduo": 1381,
      "Ġtum": 1382,
      "inem": 1383,
      "Ġmea": 1384,
      "Ġaqu": 1385,
      "Ġbene": 1386,
      "Ġdolorem": 1387,
      "uerunt": 1388,
      "inde": 1389,
      "Ġerit": 1390,
      "Ġsuis": 1391,
      "Ġmaximus": 1392,
      "Ġdist": 1393,
      "Ġaet": 1394,
      "omen": 1395,
      "Ġunum": 1396,
      "ign": 1397,
      "Ġsing": 1398,
      "Ġefficitur": 1399,
      "omo": 1400,
      "Ġcer": 1401,
      "urr": 1402,
      "inum": 1403,
      "Ġcre": 1404,
      "Ġintellig": 1405,
      "Ġsuo": 1406,
      "edic": 1407,
      "Ġsolum": 1408,
      "Ġplur": 1409,
      "ano": 1410,
      "antium": 1411,
      "Ġfor": 1412,
      "aliter": 1413,
      "odo": 1414,
      "Ġlat": 1415,
      "res": 1416,
      "emo": 1417,
      "Ġmaxime": 1418,
      "Ġobs": 1419,
      "ilicet": 1420,
      "Ġvic": 1421,
      "Ġeis": 1422,
      "ostol": 1423,
      "onis": 1424,
      "ĠAm": 1425,
      "00": 1426,
      "eque": 1427,
      "Ġminus": 1428,
      "edi": 1429,
      "Ġego": 1430,
      "oniam": 1431,
      "Ġeccles": 1432,
      "icus": 1433,
      "etr": 1434,
      "Ġtant": 1435,
      "ates": 1436,
      "Ġdolore": 1437,
      "Ġcal": 1438,
      "ublic": 1439,
      "Ġepiscop": 1440,
      "ust": 1441,
      "tionis": 1442,
      "De": 1443,
      "Ġ'": 1444,
      "Ġmun": 1445,
      "dit": 1446,
      "ĠQuid": 1447,
      "ĠIta": 1448,
      "Ġost": 1449,
      "nis": 1450,
      "Ġalia": 1451,
      "Ġcel": 1452,
      "Ġadv": 1453,
      "Ġadm": 1454,
      "Ġcausa": 1455,
      "if": 1456,
      "pic": 1457,
      "Ġrel": 1458,
      "Ġuero": 1459,
      "Ġref": 1460,
      "ento": 1461,
      "rig": 1462,
      "tific": 1463,
      "ulos": 1464,
      "Ġfacere": 1465,
      "Ġunde": 1466,
      "ĠSp": 1467,
      "ecta": 1468,
      "Ġilli": 1469,
      "ionis": 1470,
      "ena": 1471,
      "tam": 1472,
      "ies": 1473,
      "anis": 1474,
      "andi": 1475,
      "Ġval": 1476,
      "ive": 1477,
      "ev": 1478,
      "erent": 1479,
      "Ġdem": 1480,
      "Ġquando": 1481,
      "Ġscilicet": 1482,
      "inam": 1483,
      "ys": 1484,
      "Ġsumm": 1485,
      "Ġpen": 1486,
      "ai": 1487,
      ";.": 1488,
      "arium": 1489,
      "uv": 1490,
      "Ġmut": 1491,
      "anum": 1492,
      "Ġpri": 1493,
      "Ġillo": 1494,
      "Ġvos": 1495,
      "icis": 1496,
      "Ġerr": 1497,
      "Ġser": 1498,
      "Ġcontin": 1499,
      "Ġliber": 1500,
      "Ġque": 1501,
      "adem": 1502,
      "Ġsep": 1503,
      "Ġcup": 1504,
      "Ġ4": 1505,
      "andae": 1506,
      "Ġvoluptas": 1507,
      "Ġquin": 1508,
      "all": 1509,
      "idit": 1510,
      "Ġratione": 1511,
      "Ġhos": 1512,
      "yr": 1513,
      "ĠW": 1514,
      "ard": 1515,
      "Ġsimul": 1516,
      "Ġdiu": 1517,
      "erea": 1518,
      "ebant": 1519,
      "imum": 1520,
      "Ġmo": 1521,
      "ico": 1522,
      "Ġtac": 1523,
      "ni": 1524,
      "Ġsuum": 1525,
      "ĠEr": 1526,
      "Ġ#": 1527,
      "Ġang": 1528,
      "Ġsalut": 1529,
      "icum": 1530,
      "ĠCom": 1531,
      "Ġomnium": 1532,
      "Ġuna": 1533,
      "Ġsent": 1534,
      "ĠK": 1535,
      "Ġprom": 1536,
      "Ġcui": 1537,
      "Ġmar": 1538,
      "ante": 1539,
      "Ġaliis": 1540,
      "ĠPl": 1541,
      "Ġtor": 1542,
      "Ġpor": 1543,
      "Ġcorporis": 1544,
      "Ġsuam": 1545,
      "ĠEst": 1546,
      "Ġprimis": 1547,
      "Ġed": 1548,
      "act": 1549,
      "vit": 1550,
      "icae": 1551,
      "itio": 1552,
      "ustr": 1553,
      "ĠNec": 1554,
      "ath": 1555,
      "ĠPer": 1556,
      "ĠDominus": 1557,
      "ice": 1558,
      "inae": 1559,
      "Ġpet": 1560,
      "Ġloco": 1561,
      "udi": 1562,
      "ĠSic": 1563,
      "Ġdonec": 1564,
      "Ġass": 1565,
      "Ġmot": 1566,
      "onem": 1567,
      "ĠAb": 1568,
      "Ġmet": 1569,
      "Ġped": 1570,
      "Ġideo": 1571,
      "Ġvirtut": 1572,
      "Ġidem": 1573,
      "ĠId": 1574,
      "Ġing": 1575,
      "Ġtim": 1576,
      "Ġrespon": 1577,
      "Ġibi": 1578,
      "ĠIl": 1579,
      "Ġ:": 1580,
      "Ġiudic": 1581,
      "Ġcontr": 1582,
      "pere": 1583,
      "Ġadh": 1584,
      "ill": 1585,
      "quis": 1586,
      "Ġsui": 1587,
      "str": 1588,
      "ugn": 1589,
      "Ġsupra": 1590,
      "Ġhabit": 1591,
      "Ġhomo": 1592,
      "ĠHoc": 1593,
      "Ġparte": 1594,
      "Ġaequ": 1595,
      "Ġpertin": 1596,
      "rehend": 1597,
      "Ġappell": 1598,
      "eretur": 1599,
      "ĠDeum": 1600,
      "ax": 1601,
      "Ġpublic": 1602,
      "Ġopus": 1603,
      "enae": 1604,
      "ĠIm": 1605,
      "Ġmult": 1606,
      "Ġpraedic": 1607,
      "Ġlabore": 1608,
      "Ġprimum": 1609,
      "imo": 1610,
      "abo": 1611,
      "no": 1612,
      "Ġarg": 1613,
      "vi": 1614,
      "ĠFr": 1615,
      "Ġw": 1616,
      "Ġsci": 1617,
      "Ġtua": 1618,
      "Ġnoc": 1619,
      "ĠAc": 1620,
      "Ġillis": 1621,
      "ĠReg": 1622,
      "esse": 1623,
      "Ġstud": 1624,
      "oni": 1625,
      "lim": 1626,
      "Ġpac": 1627,
      "Ġvestr": 1628,
      "Ġcae": 1629,
      "abat": 1630,
      "ĠSanc": 1631,
      "ĠDomini": 1632,
      "Ġnomen": 1633,
      "Ġconsequatur": 1634,
      "antia": 1635,
      "peri": 1636,
      "ivers": 1637,
      "Ġdiss": 1638,
      "sit": 1639,
      "Ġsaepe": 1640,
      "Ġdet": 1641,
      "Ġsatis": 1642,
      "ecti": 1643,
      "ĠOr": 1644,
      "Ġhuius": 1645,
      "Ġnostrum": 1646,
      "Ġ5": 1647,
      "ide": 1648,
      "Ġloqu": 1649,
      "alia": 1650,
      "Ġnomine": 1651,
      "Ġmens": 1652,
      "Ġmei": 1653,
      "tia": 1654,
      "Ġexemp": 1655,
      "atim": 1656,
      "Ġait": 1657,
      "Ġcuius": 1658,
      "Ġpossit": 1659,
      "urg": 1660,
      "Ġtunc": 1661,
      "Ġadd": 1662,
      "abit": 1663,
      "ĠOm": 1664,
      "Ġmus": 1665,
      "Ġoport": 1666,
      "Ġsignific": 1667,
      "enus": 1668,
      "ationibus": 1669,
      "Ġgrat": 1670,
      "Ġcan": 1671,
      "Ġcorpus": 1672,
      "Ġbell": 1673,
      "ve": 1674,
      "itatibus": 1675,
      "Ġhanc": 1676,
      "Ġfuerit": 1677,
      "Ġapt": 1678,
      "ĠGra": 1679,
      "bet": 1680,
      "Ġmiser": 1681,
      "omodo": 1682,
      "lia": 1683,
      "Ġgrati": 1684,
      "idem": 1685,
      "angu": 1686,
      "iles": 1687,
      "Ġgener": 1688,
      "Ġpass": 1689,
      "iones": 1690,
      "Ġdilig": 1691,
      "idi": 1692,
      "Ġmorbi": 1693,
      "Ġproduc": 1694,
      "Ġjam": 1695,
      "Ġcorr": 1696,
      "Ġomni": 1697,
      "Ġdiff": 1698,
      "va": 1699,
      "estim": 1700,
      "Ġamp": 1701,
      "ĠAut": 1702,
      "Ġperm": 1703,
      "Ġdolores": 1704,
      "tae": 1705,
      "odem": 1706,
      "Ġuol": 1707,
      "ipi": 1708,
      "ario": 1709,
      "Si": 1710,
      "Ġfab": 1711,
      "itudinem": 1712,
      "Ġvix": 1713,
      "alibus": 1714,
      "Ġnim": 1715,
      "iliter": 1716,
      "Ġvolunt": 1717,
      "Ġanti": 1718,
      "ĠQuae": 1719,
      "Ġir": 1720,
      "Ġseu": 1721,
      "Quod": 1722,
      "pici": 1723,
      "ea": 1724,
      "Ġded": 1725,
      "Ġrev": 1726,
      "Ġquantum": 1727,
      "erd": 1728,
      "umb": 1729,
      "Ġreli": 1730,
      "ulg": 1731,
      "Ġquad": 1732,
      "Ġ19": 1733,
      "Ġiter": 1734,
      "Ġitaque": 1735,
      "ilio": 1736,
      "Ġoff": 1737,
      "Ġfieri": 1738,
      "Ġinu": 1739,
      "Ġsive": 1740,
      "icam": 1741,
      "Ġret": 1742,
      "Ġdicta": 1743,
      "Ġprimo": 1744,
      "Ġmater": 1745,
      "Ġrect": 1746,
      "Ġdil": 1747,
      "Ġaliqua": 1748,
      "Ġfames": 1749,
      "Ġtem": 1750,
      "Ġdixit": 1751,
      "Ġquisque": 1752,
      "Ġarb": 1753,
      "Ġhas": 1754,
      "ĠCa": 1755,
      "Ġaliud": 1756,
      "ĠTh": 1757,
      "Ġquant": 1758,
      "Ġcub": 1759,
      "Ġbeat": 1760,
      "ĠCor": 1761,
      "Ġaur": 1762,
      "hilos": 1763,
      "ota": 1764,
      "torum": 1765,
      "ĠVol": 1766,
      "Nam": 1767,
      "yn": 1768,
      "Ġelig": 1769,
      "ress": 1770,
      "oria": 1771,
      "Ġdies": 1772,
      "iri": 1773,
      "Ġpropri": 1774,
      "Ġnatura": 1775,
      "Ġoptim": 1776,
      "Ġhabere": 1777,
      "itionem": 1778,
      "ĠIs": 1779,
      "ola": 1780,
      "ona": 1781,
      "olog": 1782,
      "Ġopp": 1783,
      "ĠprÃ¦": 1784,
      "Ġexplic": 1785,
      "Ġbonum": 1786,
      "ÌĪ": 1787,
      "Ġpoter": 1788,
      "Non": 1789,
      "Ġpropr": 1790,
      "Ġterra": 1791,
      "Ġdim": 1792,
      "ones": 1793,
      "ecund": 1794,
      "rab": 1795,
      "Ġfit": 1796,
      "Ġadhuc": 1797,
      "ĠHis": 1798,
      "Ġquoniam": 1799,
      "Ġfuer": 1800,
      "tea": 1801,
      "ilius": 1802,
      "Ġipsam": 1803,
      "Ġculp": 1804,
      "Ġpossunt": 1805,
      "Ġtest": 1806,
      "ebr": 1807,
      "Ġmand": 1808,
      "Ġposse": 1809,
      "Ġfut": 1810,
      "num": 1811,
      "Ġhomines": 1812,
      "ĠSc": 1813,
      "Ġuoc": 1814,
      "atos": 1815,
      "Ġveniam": 1816,
      "Ġsucc": 1817,
      "Ġsex": 1818,
      "Ġha": 1819,
      "Ġtrib": 1820,
      "Ġterr": 1821,
      "ĠAug": 1822,
      "Ġrebus": 1823,
      "onum": 1824,
      "Ġbe": 1825,
      "Ġsubst": 1826,
      "lud": 1827,
      "utus": 1828,
      "yp": 1829,
      "Ġeadem": 1830,
      "uisset": 1831,
      "Ġtrad": 1832,
      "Ġâ": 1833,
      "Ġipso": 1834,
      "ĠEp": 1835,
      "eta": 1836,
      "Ġvobis": 1837,
      "Ġusu": 1838,
      "uers": 1839,
      "Ġrepell": 1840,
      "itudo": 1841,
      "Ġcoll": 1842,
      "Ġscrib": 1843,
      "ient": 1844,
      "ensi": 1845,
      "issime": 1846,
      "ruc": 1847,
      "Ġlitter": 1848,
      "ĠQuam": 1849,
      "itae": 1850,
      "Ġnun": 1851,
      "ĠAs": 1852,
      "erus": 1853,
      "xit": 1854,
      "Ġcla": 1855,
      "Ġsaec": 1856,
      "Ġcirca": 1857,
      "ĠSol": 1858,
      "rag": 1859,
      "Ġiste": 1860,
      "ĠPar": 1861,
      "tiones": 1862,
      "ĠCl": 1863,
      "Ġconsul": 1864,
      "Ġth": 1865,
      "ĠDol": 1866,
      "Ġmolestiae": 1867,
      "Ġassum": 1868,
      "anda": 1869,
      "erem": 1870,
      "reg": 1871,
      "Ġerant": 1872,
      "Ġpraet": 1873,
      "Ġdep": 1874,
      "dus": 1875,
      "Ġconi": 1876,
      "Ġanimi": 1877,
      "Ġini": 1878,
      "ĠCar": 1879,
      "itudine": 1880,
      "ĠPa": 1881,
      "Ġmir": 1882,
      "Ġpatr": 1883,
      "Ad": 1884,
      "ĠNos": 1885,
      ").": 1886,
      "isi": 1887,
      "andem": 1888,
      "Ġcop": 1889,
      "Ġexter": 1890,
      "Ġvim": 1891,
      "Ġinde": 1892,
      "umus": 1893,
      "Ġtorqu": 1894,
      "Ġratio": 1895,
      "Ġetc": 1896,
      "arii": 1897,
      "ectu": 1898,
      "Ġista": 1899,
      "Ġlud": 1900,
      "ĠVel": 1901,
      "pet": 1902,
      "Ġmulta": 1903,
      "Ġlicet": 1904,
      "Ġcupid": 1905,
      "Ġfacit": 1906,
      "Ġnumquam": 1907,
      "Ġipsius": 1908,
      "inqu": 1909,
      "ulit": 1910,
      ".@#": 1911,
      "ung": 1912,
      "endam": 1913,
      "ĠInter": 1914,
      "entus": 1915,
      "Ġnemo": 1916,
      "eres": 1917,
      "modi": 1918,
      "Ġapostol": 1919,
      "Ġexs": 1920,
      "Ġmulti": 1921,
      "ilem": 1922,
      "antibus": 1923,
      "Ġprius": 1924,
      "epit": 1925,
      "Ġillius": 1926,
      "Ġpal": 1927,
      "Ġpros": 1928,
      "Ġ6": 1929,
      "Ġgratia": 1930,
      "ĠSpir": 1931,
      "upti": 1932,
      "Ġos": 1933,
      "ĠGal": 1934,
      "Ġdebet": 1935,
      "ros": 1936,
      "ulc": 1937,
      "Ġalias": 1938,
      "uet": 1939,
      "Ġfal": 1940,
      "Ġhominum": 1941,
      "Ġrei": 1942,
      "ĠNe": 1943,
      "atam": 1944,
      "yl": 1945,
      "Ġeodem": 1946,
      "anae": 1947,
      "ber": 1948,
      "Ġcoel": 1949,
      "Ġit": 1950,
      "Ġipsi": 1951,
      "Ġredd": 1952,
      "hilosoph": 1953,
      "Ġnullam": 1954,
      "fac": 1955,
      "Ġvidetur": 1956,
      "quir": 1957,
      "Ġnasc": 1958,
      "itione": 1959,
      "Ġfuisse": 1960,
      "enis": 1961,
      "endus": 1962,
      "uus": 1963,
      "Ġvers": 1964,
      "ĠHaec": 1965,
      "Ġsuae": 1966,
      "Ġnatus": 1967,
      "Ġpraest": 1968,
      "asse": 1969,
      "Ġordin": 1970,
      "ÌĤ": 1971,
      "ara": 1972,
      "Ġdub": 1973,
      "ĠquÃ¦": 1974,
      "issimum": 1975,
      "Ġdam": 1976,
      "Ġprov": 1977,
      "issima": 1978,
      "ĠAng": 1979,
      "Ġtemporibus": 1980,
      "enire": 1981,
      "Ġhabent": 1982,
      "oti": 1983,
      "antem": 1984,
      "Ġcircum": 1985,
      "essus": 1986,
      "ons": 1987,
      "Ġduis": 1988,
      "Ġdiscip": 1989,
      "Ġstr": 1990,
      "ĠQuia": 1991,
      "fici": 1992,
      "ĠLat": 1993,
      "modum": 1994,
      "Ġbre": 1995,
      "Ġdivers": 1996,
      "),": 1997,
      "Ġfecit": 1998,
      "Ġmel": 1999,
      "Ġaetern": 2000,
      "ĠGraec": 2001,
      "ĠQuis": 2002,
      "Ġserm": 2003,
      "ĠLib": 2004,
      "Ġtab": 2005,
      "ĠTr": 2006,
      "Ġfund": 2007,
      "ida": 2008,
      "Ġplus": 2009,
      "Ġprima": 2010,
      "Ġmov": 2011,
      "rob": 2012,
      "Ġfig": 2013,
      "itasse": 2014,
      "Ġling": 2015,
      "Ġlocum": 2016,
      "Ġquidam": 2017,
      "Ġminis": 2018,
      "pit": 2019,
      "Ġcet": 2020,
      "Ġtuum": 2021,
      "Ġpartes": 2022,
      "Ġintr": 2023,
      "Ġprec": 2024,
      "Ġextr": 2025,
      "Ġplate": 2026,
      "Ġconstit": 2027,
      "Ġadvers": 2028,
      "Ġdivin": 2029,
      "ebatur": 2030,
      "atae": 2031,
      "Ġquaer": 2032,
      "ulas": 2033,
      "Ġdisp": 2034,
      "eti": 2035,
      "orios": 2036,
      "itam": 2037,
      "Ġpars": 2038,
      "Ġreprehend": 2039,
      "Ġgaud": 2040,
      "Ġunivers": 2041,
      "Ġhabitant": 2042,
      "Ġsangu": 2043,
      "Ġincept": 2044,
      "itiis": 2045,
      "Ġvul": 2046,
      "Ġaenean": 2047,
      "Ġjudic": 2048,
      "Ġdistinc": 2049,
      "uxta": 2050,
      "urum": 2051,
      "oann": 2052,
      "Ġquorum": 2053,
      "itates": 2054,
      "Ġrid": 2055,
      "ha": 2056,
      "Ġfacta": 2057,
      "Ġdesc": 2058,
      "Ġiure": 2059,
      "Ġexercit": 2060,
      "Ġnostri": 2061,
      "Ġamb": 2062,
      "Ġhujus": 2063,
      "ĠDic": 2064,
      "Ġon": 2065,
      "ulae": 2066,
      "Ġintelleg": 2067,
      "Ġpartem": 2068,
      "Ġlic": 2069,
      "utum": 2070,
      "qua": 2071,
      "Ġunus": 2072,
      "Ġquibusdam": 2073,
      "Ġsacerd": 2074,
      "Ġcul": 2075,
      "uam": 2076,
      "ĠFac": 2077,
      "Ġmuli": 2078,
      "Ġimag": 2079,
      "Ġofficia": 2080,
      "tas": 2081,
      "Ġsenectus": 2082,
      "Ġorb": 2083,
      "iatur": 2084,
      "Ġearum": 2085,
      "Ġbona": 2086,
      "Ġatt": 2087,
      "Un": 2088,
      "Ġprovid": 2089,
      "Ġpostea": 2090,
      "ĠUnde": 2091,
      "Ġvita": 2092,
      "Ġalii": 2093,
      "uius": 2094,
      "Ġquomodo": 2095,
      "Ġext": 2096,
      "ĠQuo": 2097,
      "Ġsocios": 2098,
      "Ġplatea": 2099,
      "Ġtotam": 2100,
      "Ġspiritu": 2101,
      "Ġpropos": 2102,
      "ulorum": 2103,
      "Ġdictumst": 2104,
      "Ġcujus": 2105,
      "ariis": 2106,
      "Ġhor": 2107,
      "Ġnob": 2108,
      "atorum": 2109,
      "Ġrelig": 2110,
      "ech": 2111,
      "pl": 2112,
      "Ġdir": 2113,
      "Ġsimili": 2114,
      "Ġpauc": 2115,
      "Ġtempora": 2116,
      "Ġcust": 2117,
      "Ġcunc": 2118,
      "eper": 2119,
      "Ġculpa": 2120,
      "Ġcognosc": 2121,
      "Ġrad": 2122,
      "esci": 2123,
      "Ġchar": 2124,
      "Ġgenus": 2125,
      "Ġhabitasse": 2126,
      "Ġnetus": 2127,
      "Ġperic": 2128,
      "ĠDomino": 2129,
      "ior": 2130,
      "atores": 2131,
      "Ġhunc": 2132,
      "ĠSt": 2133,
      "Ġlitora": 2134,
      "Ġmerit": 2135,
      "Ġmagni": 2136,
      "ox": 2137,
      "ulam": 2138,
      "au": 2139,
      "iens": 2140,
      "ubia": 2141,
      "ou": 2142,
      "ĠChristus": 2143,
      "Ġ7": 2144,
      "hit": 2145,
      "Ġcorpore": 2146,
      "Ġspeci": 2147,
      "Ġasper": 2148,
      "Ġindic": 2149,
      "Ġfugit": 2150,
      "etis": 2151,
      "erant": 2152,
      "Ġist": 2153,
      "Ġrex": 2154,
      "ĠHic": 2155,
      "ĠSal": 2156,
      "yst": 2157,
      "isti": 2158,
      "Ġprox": 2159,
      "da": 2160,
      "Ġcogit": 2161,
      "Ġmundi": 2162,
      "Ġvoluptate": 2163,
      "alium": 2164,
      "Ġvide": 2165,
      "Ex": 2166,
      "Ġlum": 2167,
      "Ġfirm": 2168,
      "Ġporro": 2169,
      "Ġpotius": 2170,
      "Ġmanu": 2171,
      "ebus": 2172,
      "Ġdicere": 2173,
      "Ġaptent": 2174,
      "Ġdo": 2175,
      "Ġmagnis": 2176,
      "ĠCons": 2177,
      "Ġiis": 2178,
      "Ġpol": 2179,
      "Ġmemor": 2180,
      "Ġterram": 2181,
      "Ġterm": 2182,
      "ĠVolupt": 2183,
      "Ġsea": 2184,
      "Ġ20": 2185,
      "Ġfactum": 2186,
      "ereb": 2187,
      "Ġfilius": 2188,
      "ĠRe": 2189,
      "Ġpraesent": 2190,
      "enique": 2191,
      "Ġrepudi": 2192,
      "Ġfruc": 2193,
      "Ġtorquent": 2194,
      "Ġmultis": 2195,
      "mo": 2196,
      "imi": 2197,
      "ĠFranc": 2198,
      "Ġtaciti": 2199,
      "Ġequ": 2200,
      "enaeos": 2201,
      "Ġpati": 2202,
      "issimi": 2203,
      "Ġanima": 2204,
      "uto": 2205,
      "ĠAugus": 2206,
      "ĠErgo": 2207,
      "Ġfur": 2208,
      "apt": 2209,
      "Ġpuer": 2210,
      "elli": 2211,
      "ĠEn": 2212,
      "Ä±": 2213,
      "enum": 2214,
      "Ġpartur": 2215,
      "Ġinceptos": 2216,
      "Ġconubia": 2217,
      "Ġcubilia": 2218,
      "Ġdeserunt": 2219,
      "ebit": 2220,
      "Ġharum": 2221,
      "ĠZ": 2222,
      "rop": 2223,
      ".,": 2224,
      "par": 2225,
      "Ġsociosqu": 2226,
      "ĠMagn": 2227,
      "onium": 2228,
      "ĠÎ": 2229,
      "Ġsept": 2230,
      "itr": 2231,
      "Ġarm": 2232,
      "oth": 2233,
      "Ġappar": 2234,
      "Ġquaedam": 2235,
      "Ġperv": 2236,
      "Ġcras": 2237,
      "Ġrecus": 2238,
      "ĠEcclesiae": 2239,
      "Ġsancti": 2240,
      "sc": 2241,
      "ĠBr": 2242,
      "Ġle": 2243,
      "Ġux": 2244,
      "odi": 2245,
      "lar": 2246,
      "itiae": 2247,
      "ĠSit": 2248,
      "Ġcurabitur": 2249,
      "...": 2250,
      "eru": 2251,
      "Ġdia": 2252,
      "Ġexcept": 2253,
      "oss": 2254,
      "Ġomnino": 2255,
      "lin": 2256,
      "Ġpraecip": 2257,
      "Ġphilosoph": 2258,
      "Ġerror": 2259,
      "Ġ8": 2260,
      "ular": 2261,
      "Ġz": 2262,
      "essit": 2263,
      "co": 2264,
      "eniti": 2265,
      "Ġhominis": 2266,
      "Ġaux": 2267,
      "Ġfidem": 2268,
      "lem": 2269,
      "eant": 2270,
      "Ġlabor": 2271,
      "ĠPet": 2272,
      "ga": 2273,
      "Ġiusto": 2274,
      "Ġillam": 2275,
      "urus": 2276,
      "mus": 2277,
      "ĠThe": 2278,
      "nes": 2279,
      "icem": 2280,
      "Ġinteg": 2281,
      "tos": 2282,
      "Ġuer": 2283,
      "Ġfo": 2284,
      "abant": 2285,
      "Ġmanus": 2286,
      "Qui": 2287,
      "Ġmontes": 2288,
      "Ġinterp": 2289,
      "Ġrest": 2290,
      "idum": 2291,
      "Ġmagnam": 2292,
      "Ġperd": 2293,
      "ond": 2294,
      "su": 2295,
      "Ġaed": 2296,
      "XX": 2297,
      "Ġuerb": 2298,
      "Ġforte": 2299,
      "Ġperpet": 2300,
      "Ġexped": 2301,
      "Ġhominem": 2302,
      "Ġinteger": 2303,
      "Ġperson": 2304,
      "udae": 2305,
      "Ġmodum": 2306,
      "cce": 2307,
      "quidem": 2308,
      "asti": 2309,
      "inta": 2310,
      "Ġparturient": 2311,
      "ĠChristo": 2312,
      "Unde": 2313,
      "trum": 2314,
      "Ġofficiis": 2315,
      "idis": 2316,
      "libet": 2317,
      "antis": 2318,
      "Ġdicendum": 2319,
      "ver": 2320,
      "enedic": 2321,
      "abilis": 2322,
      "Ġtota": 2323,
      "iunt": 2324,
      "Ġsequi": 2325,
      "Ġaqua": 2326,
      "Sic": 2327,
      "Ġmemb": 2328,
      "Ġpater": 2329,
      "Ġmiss": 2330,
      "Ġmanif": 2331,
      "Ġtotum": 2332,
      "Ġol": 2333,
      "Ġpraef": 2334,
      "obus": 2335,
      "imenaeos": 2336,
      "Ġasc": 2337,
      "Ġdiem": 2338,
      "Ġannos": 2339,
      "Ġuno": 2340,
      "ella": 2341,
      "Ġturb": 2342,
      "Ġmoll": 2343,
      "Ġveritatis": 2344,
      "Ġfinem": 2345,
      "Ġlap": 2346,
      "Ġostend": 2347,
      "Ġson": 2348,
      "An": 2349,
      "Ġvi": 2350,
      "eniet": 2351,
      "Ġnol": 2352,
      "Ġquisquam": 2353,
      "ĠTe": 2354,
      "Ġnesci": 2355,
      "Ġamic": 2356,
      "Ġlaborum": 2357,
      "Ġinn": 2358,
      "Ġpres": 2359,
      "Ġuen": 2360,
      "unti": 2361,
      "Ġfuga": 2362,
      "Ġsoli": 2363,
      "sal": 2364,
      "Ġsimplic": 2365,
      "Ġthe": 2366,
      "Cum": 2367,
      "Ġmer": 2368,
      "amp": 2369,
      "Ġalt": 2370,
      "Ġmelius": 2371,
      "Ġtres": 2372,
      "Ġsoluta": 2373,
      "Ġcaput": 2374,
      "rac": 2375,
      "dis": 2376,
      "aster": 2377,
      "Ġquar": 2378,
      "Ġvig": 2379,
      "Ġhimenaeos": 2380,
      "Ġof": 2381,
      "osa": 2382,
      "Ġmodi": 2383,
      "Ġsuspendisse": 2384,
      "Ġparti": 2385,
      "Ġimpedit": 2386,
      "Ġquat": 2387,
      "Ġmaj": 2388,
      "atoque": 2389,
      "Ġvitam": 2390,
      "anquam": 2391,
      "Ġpag": 2392,
      "Ġspect": 2393,
      "Ġclass": 2394,
      "ĠApostol": 2395,
      ",@#": 2396,
      "Ġutrum": 2397,
      "Ġdefin": 2398,
      "ĠIps": 2399,
      "Ġcompl": 2400,
      "Ġkai": 2401,
      "issimus": 2402,
      "auit": 2403,
      "Ġrefer": 2404,
      "Ġnecessitatibus": 2405,
      "ĠTemp": 2406,
      "ÌĨ": 2407,
      "Ġlibro": 2408,
      "ute": 2409,
      "Ġvest": 2410,
      "Ġrationem": 2411,
      "ectio": 2412,
      "Ġnostro": 2413,
      "Ġpugn": 2414,
      "aretur": 2415,
      "Ġcert": 2416,
      "red": 2417,
      "Ġdicens": 2418,
      "Ġtuo": 2419,
      "Ġingr": 2420,
      "Ġforma": 2421,
      "Ġsti": 2422,
      "Ġquaesti": 2423,
      "\".": 2424,
      "ĠVir": 2425,
      "Ġmen": 2426,
      "Ġalb": 2427,
      "ĠUl": 2428,
      "Ġtuam": 2429,
      "Ġprot": 2430,
      "Ġomne": 2431,
      "iculus": 2432,
      "Ġsubi": 2433,
      "Ġcruc": 2434,
      "Ġfugiat": 2435,
      "Ġvoluptatum": 2436,
      "Ġreprehenderit": 2437,
      "uae": 2438,
      "natur": 2439,
      "ique": 2440,
      "Ġsil": 2441,
      "Ġmanifest": 2442,
      "Ġextra": 2443,
      "oh": 2444,
      "ete": 2445,
      "Ġfere": 2446,
      "anorum": 2447,
      "odie": 2448,
      "Ġconsequuntur": 2449,
      "Ġaperiam": 2450,
      "Ġtract": 2451,
      "Ġpariatur": 2452,
      "ĠEa": 2453,
      "issent": 2454,
      "....": 2455,
      "erint": 2456,
      "Ġinim": 2457,
      "ĠHi": 2458,
      "ides": 2459,
      "Ġoportet": 2460,
      "Ġadipisci": 2461,
      "ĠTer": 2462,
      "Ġsuos": 2463,
      "ron": 2464,
      "iorum": 2465,
      "Ġdolorum": 2466,
      "Ġdedit": 2467,
      "ho": 2468,
      "Ġdeinde": 2469,
      "At": 2470,
      "Ġgrav": 2471,
      "Ġlo": 2472,
      "Ġeligendi": 2473,
      "Ġmeum": 2474,
      "Ġproin": 2475,
      "Ġau": 2476,
      "Ġfacile": 2477,
      "Ġnostris": 2478,
      "eterea": 2479,
      "Ġpraeter": 2480,
      "ĠChristum": 2481,
      "Ġspiritus": 2482,
      "ĠSecund": 2483,
      "eps": 2484,
      "ĠMat": 2485,
      "Ġaliquando": 2486,
      "Ġmeli": 2487,
      "Ġden": 2488,
      "Ġomnem": 2489,
      "Ġ9": 2490,
      "ites": 2491,
      "Ġalio": 2492,
      "enn": 2493,
      "isit": 2494,
      "Ġpotenti": 2495,
      "Ġsumus": 2496,
      "Ġfide": 2497,
      "Ut": 2498,
      "Ġmortem": 2499,
      "Ġdoctr": 2500,
      "unque": 2501,
      "Ġdev": 2502,
      "Ġ[": 2503,
      "Ġregis": 2504,
      "Ġopera": 2505,
      "ĠScrip": 2506,
      "ĠCap": 2507,
      "Ġdebitis": 2508,
      "una": 2509,
      "arch": 2510,
      "Ġproph": 2511,
      "ĠEcclesia": 2512,
      "Ġ18": 2513,
      "Ġverum": 2514,
      "Ġintra": 2515,
      "ĠCaes": 2516,
      "Ġhi": 2517,
      "Ġnatoque": 2518,
      "ocr": 2519,
      "Ġdeleniti": 2520,
      "Ġaccusamus": 2521,
      "edere": 2522,
      "Ġconstitu": 2523,
      "Ġvoluptatibus": 2524,
      "!.": 2525,
      "Ġconsider": 2526,
      "avi": 2527,
      "ectionem": 2528,
      "ĠLuc": 2529,
      "Ġultim": 2530,
      "Ġusus": 2531,
      "ido": 2532,
      "ionibus": 2533,
      "Ġline": 2534,
      "elic": 2535,
      "Ġsuas": 2536,
      "Ġnaturae": 2537,
      "rog": 2538,
      "Ġrepudiandae": 2539,
      "Ġverba": 2540,
      "Ġconfirm": 2541,
      "Ġrespond": 2542,
      "Ġcompos": 2543,
      "Ġannis": 2544,
      "Ġ*": 2545,
      "inistr": 2546,
      "uram": 2547,
      "Ġtui": 2548,
      "Ġsimilique": 2549,
      "-.": 2550,
      "Ġmotus": 2551,
      "Ġiterum": 2552,
      "Ġpenatibus": 2553,
      "Ġessent": 2554,
      "ĠEu": 2555,
      "umm": 2556,
      "Ġiuv": 2557,
      "Ġnoster": 2558,
      "Ġodit": 2559,
      "Ġsiue": 2560,
      "Ġeaque": 2561,
      "piciatis": 2562,
      "ines": 2563,
      "ĠJes": 2564,
      "Ġinquam": 2565,
      "Ġstat": 2566,
      "angeli": 2567,
      "Ġdex": 2568,
      "ecum": 2569,
      "Ġcib": 2570,
      "Ġ10": 2571,
      "Ġincid": 2572,
      "Ġdelectus": 2573,
      "ippe": 2574,
      "Ġtandem": 2575,
      "Ġipsis": 2576,
      "estig": 2577,
      "Ġmateria": 2578,
      "Ġdup": 2579,
      "Ġdon": 2580,
      "Ita": 2581,
      "Ġgem": 2582,
      "Ġ15": 2583,
      "pta": 2584,
      "emb": 2585,
      "Ġaudi": 2586,
      "Ġinterpret": 2587,
      "ecenas": 2588,
      "Ġpulch": 2589,
      "Ġ/": 2590,
      "Ġcarn": 2591,
      "amur": 2592,
      "tura": 2593,
      "andam": 2594,
      "entore": 2595,
      "Ġmaecenas": 2596,
      "Ġmulto": 2597,
      "Ġanimo": 2598,
      "Ġagn": 2599,
      "Ġpecun": 2600,
      "Ġfidei": 2601,
      "Ġav": 2602,
      "Ġvinc": 2603,
      "itati": 2604,
      "Ġadhib": 2605,
      "Ġmiseric": 2606,
      "Ġeas": 2607,
      "Ġpossimus": 2608,
      "Ġfilii": 2609,
      "ariae": 2610,
      "arent": 2611,
      "Ġposset": 2612,
      "ĠGerm": 2613,
      "pi": 2614,
      "Ġhinc": 2615,
      "Ġpraem": 2616,
      "Ġnav": 2617,
      "Ġmalum": 2618,
      "Ġnascetur": 2619,
      "Ġminima": 2620,
      "Ġy": 2621,
      "antiam": 2622,
      "Ġbeatae": 2623,
      "ĠPost": 2624,
      "Ġadi": 2625,
      "Ġdesider": 2626,
      "amen": 2627,
      "ĠNov": 2628,
      "ĠQua": 2629,
      "Ġsanctus": 2630,
      "ĠPon": 2631,
      "Ġui": 2632,
      "nia": 2633,
      "Ġquic": 2634,
      "atuor": 2635,
      "oriosam": 2636,
      "Ġdisput": 2637,
      "Ġnecesse": 2638,
      "Ġstatim": 2639,
      "Ġreper": 2640,
      "Ġsper": 2641,
      "anos": 2642,
      "Ġhistor": 2643,
      "Ġdiffic": 2644,
      "Ġmerc": 2645,
      "Ġridiculus": 2646,
      "Ġmaiores": 2647,
      "ipit": 2648,
      "ĠItem": 2649,
      "Ġarchit": 2650,
      "Ġelect": 2651,
      "itudinis": 2652,
      "Î¿": 2653,
      "ĠAcc": 2654,
      "Ġpeccatum": 2655,
      "Ġdiebus": 2656,
      "utis": 2657,
      "Ġopin": 2658,
      "eribus": 2659,
      "ese": 2660,
      "ĠLa": 2661,
      "onia": 2662,
      "issa": 2663,
      "Ġsenti": 2664,
      "aecati": 2665,
      "Ġsubs": 2666,
      "Ġtenetur": 2667,
      "inas": 2668,
      "Ġlev": 2669,
      "Ġcurae": 2670,
      "Ġdiffer": 2671,
      "Ġgenere": 2672,
      "Ġdemon": 2673,
      "arg": 2674,
      "Ġingen": 2675,
      "Ġcompar": 2676,
      "tica": 2677,
      "Ġinstit": 2678,
      "Ġnaturam": 2679,
      "Ġfre": 2680,
      "enam": 2681,
      "ered": 2682,
      "ĠNeque": 2683,
      "eros": 2684,
      "rist": 2685,
      "lium": 2686,
      "Quid": 2687,
      "ĠRes": 2688,
      "Ġcumque": 2689,
      "modo": 2690,
      "ĠSim": 2691,
      "ru": 2692,
      "do": 2693,
      "elicet": 2694,
      "atoris": 2695,
      "Ġminim": 2696,
      "Ġpauper": 2697,
      "itionis": 2698,
      "ast": 2699,
      "Ġnar": 2700,
      "Ġapplic": 2701,
      "ĠImper": 2702,
      "ĠMon": 2703,
      "lor": 2704,
      "Î¹": 2705,
      "Ġdistinctio": 2706,
      "Ġpriv": 2707,
      "III": 2708,
      "ationi": 2709,
      "Ġmedi": 2710,
      "Ġcali": 2711,
      "Ġqual": 2712,
      "Î±": 2713,
      "ĠUr": 2714,
      "Ġgraec": 2715,
      "Ġsacram": 2716,
      "Ġoptio": 2717,
      "issimo": 2718,
      "olum": 2719,
      "Ġargum": 2720,
      "och": 2721,
      "Ġpopulo": 2722,
      "Ġpere": 2723,
      "ĠDi": 2724,
      "Ġvere": 2725,
      "Ġsan": 2726,
      "tidi": 2727,
      "Ġphasellus": 2728,
      "ĠItaque": 2729,
      "ecit": 2730,
      "Ġinfirm": 2731,
      "Ġclam": 2732,
      "ĠIsrae": 2733,
      "Ġcorrupti": 2734,
      "Ġfamili": 2735,
      "inceps": 2736,
      "endere": 2737,
      "Ġtemporis": 2738,
      "Ġterrae": 2739,
      "Ġspecies": 2740,
      "Ġuic": 2741,
      "estin": 2742,
      "iciendis": 2743,
      "leg": 2744,
      "Ġabb": 2745,
      "Ġignor": 2746,
      "ĠTur": 2747,
      "ĠVen": 2748,
      "ĠOp": 2749,
      "Ġpatri": 2750,
      "Ġcad": 2751,
      "inibus": 2752,
      "Ġpraecept": 2753,
      "Ġlocis": 2754,
      "ĠNum": 2755,
      "Ġcausam": 2756,
      "Ġarbitr": 2757,
      "ĠEpiscop": 2758,
      "Ġdicunt": 2759,
      "Ġsuperi": 2760,
      "estis": 2761,
      "Ġcupiditate": 2762,
      "Ġhominibus": 2763,
      "Ġib": 2764,
      "Ġtamquam": 2765,
      "Ġtoll": 2766,
      "Ġrog": 2767,
      "xx": 2768,
      "ferendis": 2769,
      "Ġinstrum": 2770,
      "Ġpraesentium": 2771,
      "Ġplaceat": 2772,
      "nus": 2773,
      "Ġalios": 2774,
      "Ġsequitur": 2775,
      "ibile": 2776,
      "eu": 2777,
      "Ġquatuor": 2778,
      "ĠEv": 2779,
      "yc": 2780,
      "Ġvivamus": 2781,
      "Ġaccid": 2782,
      "Ġadeo": 2783,
      "Ġmonaster": 2784,
      "Ġperspiciatis": 2785,
      "Ġdici": 2786,
      "Ġdomum": 2787,
      "Ġaltera": 2788,
      "Ġnesciunt": 2789,
      "pect": 2790,
      "Ġfrig": 2791,
      "Ġlaudantium": 2792,
      "Ã¦c": 2793,
      "Ġsimil": 2794,
      "uas": 2795,
      "Ġcommodi": 2796,
      "Ġglor": 2797,
      "Ġplures": 2798,
      "Ġexper": 2799,
      "Ġconu": 2800,
      "Ġdoloribus": 2801,
      "ĠDominum": 2802,
      "nul": 2803,
      "periores": 2804,
      "ĠDec": 2805,
      "Ġard": 2806,
      "Ġdoloremque": 2807,
      "ote": 2808,
      "ism": 2809,
      "Ġmedio": 2810,
      "Ġgratiam": 2811,
      "ĠCo": 2812,
      "ania": 2813,
      "uro": 2814,
      "Ġpatet": 2815,
      "abatur": 2816,
      "ĠSpiritus": 2817,
      "Ġaccusantium": 2818,
      "Con": 2819,
      "Ġposter": 2820,
      "hor": 2821,
      "icorum": 2822,
      "Hoc": 2823,
      "Ġfusce": 2824,
      "Ġvoluptates": 2825,
      "Ġducimus": 2826,
      "Ġtestim": 2827,
      "Ġcustod": 2828,
      "Ġindi": 2829,
      "Ġcens": 2830,
      "Ġvt": 2831,
      "entorum": 2832,
      "athol": 2833,
      "ĠConst": 2834,
      "Ġaliquis": 2835,
      "averunt": 2836,
      "Ġprogr": 2837,
      "Ġfrequ": 2838,
      "Ġfactus": 2839,
      "ĠAtque": 2840,
      "Ġhonest": 2841,
      "Ġmultum": 2842,
      "Ġsom": 2843,
      "ich": 2844,
      "Nec": 2845,
      "Ġquaerat": 2846,
      "eth": 2847,
      "Ġincidunt": 2848,
      "Ġoccas": 2849,
      "Ġinventore": 2850,
      "Ġ12": 2851,
      "ilii": 2852,
      "Ġillos": 2853,
      "Ġtanquam": 2854,
      "Ġmori": 2855,
      "Ġverbis": 2856,
      "Ġblanditiis": 2857,
      "Ġmolestias": 2858,
      "Ġrecte": 2859,
      "eum": 2860,
      "Ġort": 2861,
      "Ġhodie": 2862,
      "Ġarchitecto": 2863,
      "Ġexplicabo": 2864,
      "etuer": 2865,
      "Ġexpedita": 2866,
      "Ġuni": 2867,
      "rah": 2868,
      "ursus": 2869,
      "Ġcog": 2870,
      "Ġvac": 2871,
      "Ġfacult": 2872,
      "Ġpossumus": 2873,
      "Ġcorpora": 2874,
      "Ġvenit": 2875,
      "Ġinven": 2876,
      "Ġcelebr": 2877,
      "Quia": 2878,
      "anam": 2879,
      "Ġalterum": 2880,
      "Ġhuic": 2881,
      "inos": 2882,
      "Ġsuffic": 2883,
      "Ġvell": 2884,
      "Ġregnum": 2885,
      "Ġlocus": 2886,
      "ittit": 2887,
      "ectis": 2888,
      "abili": 2889,
      "ca": 2890,
      "ĠEgo": 2891,
      "Ġore": 2892,
      "Ġvari": 2893,
      "Er": 2894,
      "Ġaedific": 2895,
      "Ġclar": 2896,
      "Ġlonge": 2897,
      "escit": 2898,
      "Ġextrem": 2899,
      "Ġdignissimos": 2900,
      "ebantur": 2901,
      "Ġpotuit": 2902,
      "nam": 2903,
      "ĠEl": 2904,
      "Ġcant": 2905,
      "Ì§": 2906,
      "Ġepist": 2907,
      "Id": 2908,
      "Ġta": 2909,
      "tores": 2910,
      "Ġaliquo": 2911,
      "erumque": 2912,
      "tro": 2913,
      "entius": 2914,
      "Ġtuae": 2915,
      "ectione": 2916,
      "erentur": 2917,
      "Ġeffici": 2918,
      "Ġlaboriosam": 2919,
      "Ġaspernatur": 2920,
      "Ġolim": 2921,
      "Ġexis": 2922,
      "arb": 2923,
      "ĠTu": 2924,
      "Ġexhib": 2925,
      "Ġtit": 2926,
      "Ġtuis": 2927,
      "itiones": 2928,
      "Ġannum": 2929,
      "Ġsingulis": 2930,
      "ĠMo": 2931,
      "Ġorig": 2932,
      "ĠPos": 2933,
      "Ġobl": 2934,
      "Ġrecusandae": 2935,
      "Ġmollitia": 2936,
      "Ġanimae": 2937,
      "itium": 2938,
      "Ġdico": 2939,
      "pir": 2940,
      "Ġuis": 2941,
      "Ġfilium": 2942,
      "ĠMax": 2943,
      "Ġprovident": 2944,
      "ton": 2945,
      "Quae": 2946,
      "Ġexcepturi": 2947,
      "Ġcurr": 2948,
      "uetud": 2949,
      "Ġrepellendus": 2950,
      "ĠNo": 2951,
      "Ġdelect": 2952,
      "Ġdomus": 2953,
      "Ġquodam": 2954,
      "Ġcrim": 2955,
      "aed": 2956,
      "ith": 2957,
      "Ġsociis": 2958,
      "Ġpostul": 2959,
      "Ġunius": 2960,
      "Ġpap": 2961,
      "Ġsapiente": 2962,
      "Ġeveniet": 2963,
      "atas": 2964,
      "Ġsor": 2965,
      "Ġdamn": 2966,
      "Ġassumenda": 2967,
      "ecim": 2968,
      "ĠAg": 2969,
      "Ġpiet": 2970,
      "Ġconsilio": 2971,
      "Ġmeus": 2972,
      "Ġmeo": 2973,
      "Ġpopuli": 2974,
      "Ġrequir": 2975,
      "onte": 2976,
      "Ġdelic": 2977,
      "men": 2978,
      "Ġalic": 2979,
      "ĠDuo": 2980,
      "Ġcerte": 2981,
      "Ġostendit": 2982,
      "ĠLe": 2983,
      "Ġconsilium": 2984,
      "Ġepiscopus": 2985,
      "Ġprohib": 2986,
      "Ġaliter": 2987,
      "ĠII": 2988,
      "Ġfla": 2989,
      "Ġsumma": 2990,
      "libus": 2991,
      "Ġ16": 2992,
      "Ġabsol": 2993,
      "Ġpotes": 2994,
      "Ġmala": 2995,
      "Ġnullo": 2996,
      "ĠSem": 2997,
      "Ġexercitationem": 2998,
      "Ġobi": 2999,
      "ativ": 3000,
      "itor": 3001,
      "Ġanimam": 3002,
      "Ġindustr": 3003,
      "Ġdenique": 3004,
      "rehens": 3005,
      "ĠPater": 3006,
      "Ġ11": 3007,
      "Ġdeser": 3008,
      "ĠAeg": 3009,
      "ĠOb": 3010,
      "Ġdicuntur": 3011,
      "ĠIsrael": 3012,
      "Î½": 3013,
      "Ġreliqu": 3014,
      "Ġcaet": 3015,
      "endas": 3016,
      "Ġsepar": 3017,
      "Ġnumero": 3018,
      "urae": 3019,
      "Ġquippe": 3020,
      "Ġfratres": 3021,
      "Ġadj": 3022,
      "ĠÃ¦": 3023,
      "eam": 3024,
      "Ġexist": 3025,
      "Ġlign": 3026,
      "Ġcreatur": 3027,
      "Ġrepellat": 3028,
      "so": 3029,
      "etum": 3030,
      "Ġvirtute": 3031,
      "icos": 3032,
      "Ġpu": 3033,
      "Ġpas": 3034,
      "Ġnostrae": 3035,
      "Ġreiciendis": 3036,
      "Ġsociet": 3037,
      "yd": 3038,
      "ĠAnti": 3039,
      "ĠComm": 3040,
      "Ġsummo": 3041,
      "ft": 3042,
      "Il": 3043,
      "Ġconsectetuer": 3044,
      "Ġdicat": 3045,
      "arc": 3046,
      "eph": 3047,
      "itatum": 3048,
      "bo": 3049,
      "Ġlux": 3050,
      "Ġquinque": 3051,
      "Ġcapit": 3052,
      "raph": 3053,
      "Ġtanto": 3054,
      "asi": 3055,
      "ĠGr": 3056,
      "ĠNihil": 3057,
      "Ġmale": 3058,
      "Ġregem": 3059,
      "Ġsin": 3060,
      "lend": 3061,
      "Ġprud": 3062,
      "ĠRep": 3063,
      "olis": 3064,
      "atorem": 3065,
      "Ġbenefic": 3066,
      "ĠHisp": 3067,
      "Ġmateri": 3068,
      "Ġsalutem": 3069,
      "Ġfem": 3070,
      "Ġmali": 3071,
      "ela": 3072,
      "Ġpotentia": 3073,
      "ationum": 3074,
      "Ġtribus": 3075,
      "Ġperferendis": 3076,
      "Ġconvers": 3077,
      "aci": 3078,
      "itiam": 3079,
      "Ġuirtut": 3080,
      "Ġdominus": 3081,
      "Haec": 3082,
      "Ġsch": 3083,
      "eno": 3084,
      "Ġquaes": 3085,
      "eles": 3086,
      "Ġton": 3087,
      "Ġconj": 3088,
      "ĠAlex": 3089,
      "Ġmox": 3090,
      "Ġpraeb": 3091,
      "Ġexig": 3092,
      "titia": 3093,
      "Ġbonorum": 3094,
      "Ġmach": 3095,
      "Ġual": 3096,
      "Ġnem": 3097,
      "Ġmeis": 3098,
      "Ġasperiores": 3099,
      "arem": 3100,
      "uu": 3101,
      "imis": 3102,
      "amentum": 3103,
      "ĠSunt": 3104,
      "usa": 3105,
      "Ġutil": 3106,
      "Ġexistim": 3107,
      "Ġda": 3108,
      "Ġtanta": 3109,
      "essum": 3110,
      "ustra": 3111,
      "ĠEur": 3112,
      "trib": 3113,
      "ins": 3114,
      "Ġprovinc": 3115,
      "uerat": 3116,
      "ĠMol": 3117,
      "tri": 3118,
      "Ġdissenti": 3119,
      "Ġflum": 3120,
      "Ġhabeat": 3121,
      "Ġgloria": 3122,
      "cum": 3123,
      "Ġconting": 3124,
      "Ġtoto": 3125,
      "Ġstatu": 3126,
      "Ġlibert": 3127,
      "Ġmeam": 3128,
      "Ġcorde": 3129,
      "Ġumb": 3130,
      "pectu": 3131,
      "Ġpunc": 3132,
      "Ġoccid": 3133,
      "ĠÂ": 3134,
      "Ġtemper": 3135,
      "ertur": 3136,
      "Ġpla": 3137,
      "ĠTum": 3138,
      "Ġduobus": 3139,
      "Ġpaulo": 3140,
      "Ġgeneris": 3141,
      "Ġobserv": 3142,
      "Ġtran": 3143,
      "erg": 3144,
      "Ġgub": 3145,
      "Ġordine": 3146,
      "ĠDomine": 3147,
      "Ġciu": 3148,
      "ittere": 3149,
      "ertim": 3150,
      "Ġqualis": 3151,
      "Ġpoenit": 3152,
      "otum": 3153,
      "Ġoratio": 3154,
      "iret": 3155,
      "Ġcat": 3156,
      "ty": 3157,
      "Ġcontem": 3158,
      "Ġappet": 3159,
      "Ġmagno": 3160,
      "abor": 3161,
      "Ġhaud": 3162,
      "Ġiniqu": 3163,
      "Ġquot": 3164,
      "ĠSancti": 3165,
      "Ġantiqu": 3166,
      "Ġvalde": 3167,
      "imur": 3168,
      "esta": 3169,
      "non": 3170,
      "Ġ<<": 3171,
      "olo": 3172,
      "Ġdux": 3173,
      "Ġsur": 3174,
      "Ġmundo": 3175,
      "Ġangel": 3176,
      "atius": 3177,
      "Ġlege": 3178,
      "tior": 3179,
      "Ġinfin": 3180,
      "Ġnig": 3181,
      "Ġvia": 3182,
      "entio": 3183,
      "ivit": 3184,
      "Ġamplius": 3185,
      "Ġcent": 3186,
      "Ġdei": 3187,
      "Ġoculis": 3188,
      "Ġdomini": 3189,
      "rica": 3190,
      "Ġfuerat": 3191,
      "Ġaccept": 3192,
      "rep": 3193,
      "Ġcoram": 3194,
      "Ġbenedic": 3195,
      "enc": 3196,
      "Ġnostrud": 3197,
      "Ġsane": 3198,
      "idus": 3199,
      "cipi": 3200,
      "ribus": 3201,
      "Ġpopulus": 3202,
      "Ġeiusmod": 3203,
      "ĠClass": 3204,
      "eas": 3205,
      ">>": 3206,
      "tionibus": 3207,
      "lu": 3208,
      "ĠAugustin": 3209,
      "atium": 3210,
      "unic": 3211,
      "ĠSac": 3212,
      "Ġsolet": 3213,
      "Ġnullum": 3214,
      "ok": 3215,
      "ĠâĢ": 3216,
      "Ġnunquam": 3217,
      "illum": 3218,
      "abile": 3219,
      "Ġvirtus": 3220,
      "ĠArist": 3221,
      "ĠCas": 3222,
      "Ġsplend": 3223,
      "ipere": 3224,
      "Ġ17": 3225,
      "Ġsubj": 3226,
      "Ġinferi": 3227,
      "omm": 3228,
      "Ġcommend": 3229,
      "Ġerud": 3230,
      "ulta": 3231,
      "by": 3232,
      "Ġunam": 3233,
      "ĠIam": 3234,
      "ind": 3235,
      "Ġvirg": 3236,
      "Ġfacilisi": 3237,
      "Ġmom": 3238,
      "ermin": 3239,
      "ĠEs": 3240,
      "Ġconsec": 3241,
      "eron": 3242,
      "ĠQ": 3243,
      "Ġtent": 3244,
      "Ġtotius": 3245,
      "Ġren": 3246,
      "Ġquadr": 3247,
      "Ġsensus": 3248,
      "ĠInc": 3249,
      "Ġsententia": 3250,
      "US": 3251,
      "ĠProp": 3252,
      "mi": 3253,
      "Ġdur": 3254,
      "ectionis": 3255,
      "Ġfuerunt": 3256,
      "Ġmisericord": 3257,
      "Ġsacri": 3258,
      "Ġanni": 3259,
      "cep": 3260,
      "andis": 3261,
      "Ġfiat": 3262,
      "emor": 3263,
      "Ġnego": 3264,
      "Ġbonis": 3265,
      "ĠMin": 3266,
      "Ġitem": 3267,
      "Ġprimus": 3268,
      "Ġpropria": 3269,
      "Ġglori": 3270,
      "Ġgrad": 3271,
      "tris": 3272,
      "ĠPraeterea": 3273,
      "ingu": 3274,
      "Ġsola": 3275,
      "sis": 3276,
      "endos": 3277,
      "tig": 3278,
      "Ġpartibus": 3279,
      "Ġaccipi": 3280,
      "ense": 3281,
      "ĠSoc": 3282,
      "ĠCal": 3283,
      "Ġpond": 3284,
      "aph": 3285,
      "Ġpror": 3286,
      "esset": 3287,
      "Ġpisc": 3288,
      "Ġmalis": 3289,
      "Ġurbem": 3290,
      "Ġabst": 3291,
      "Ġincididunt": 3292,
      "ptus": 3293,
      "Ġnovum": 3294,
      "plex": 3295,
      "ĠIus": 3296,
      "Ġjuxta": 3297,
      "Ġseptem": 3298,
      "uos": 3299,
      "Ġpect": 3300,
      "Ġconstruc": 3301,
      "Pra": 3302,
      "ĠJoann": 3303,
      "Ġexpet": 3304,
      "ĠAlexand": 3305,
      "ĠConsequ": 3306,
      "ĠY": 3307,
      "ĠIes": 3308,
      "Ġpropor": 3309,
      "endae": 3310,
      "Ġdispos": 3311,
      "Ġutique": 3312,
      "Ġsanct": 3313,
      "acta": 3314,
      "uni": 3315,
      "abis": 3316,
      "ĠPol": 3317,
      "Ġobli": 3318,
      "Ġnut": 3319,
      "issimis": 3320,
      "Ġeiusdem": 3321,
      "Ġactu": 3322,
      "Ġaccip": 3323,
      "Ġrelinqu": 3324,
      "Ġboni": 3325,
      "cis": 3326,
      "Ġ14": 3327,
      "ĠJudae": 3328,
      "Ġtrium": 3329,
      "Ġmultiplic": 3330,
      "Ġverbum": 3331,
      "uxit": 3332,
      "Ġpede": 3333,
      "Ġvet": 3334,
      "ĠMag": 3335,
      "Ġsese": 3336,
      "Ġbr": 3337,
      "Ġhabemus": 3338,
      "ĠCu": 3339,
      "acula": 3340,
      "Ġprou": 3341,
      "Ġnesc": 3342,
      "Ġvestri": 3343,
      "Ġmorte": 3344,
      "olus": 3345,
      "Ġdulc": 3346,
      "Ġgla": 3347,
      "Ġparum": 3348,
      "indic": 3349,
      "Ġvestra": 3350,
      "Ġfuisset": 3351,
      "Ali": 3352,
      "tiv": 3353,
      "Ġoccaecati": 3354,
      "Ġviri": 3355,
      "Ġinstitu": 3356,
      "Ġadul": 3357,
      "Ġsustin": 3358,
      "Ġcand": 3359,
      "ommod": 3360,
      "ohann": 3361,
      "ecte": 3362,
      "Ġultra": 3363,
      "Ġpraed": 3364,
      "Ġprope": 3365,
      "Ġoccup": 3366,
      "Ġtalis": 3367,
      "Ġfides": 3368,
      "Ġdesign": 3369,
      "Ġpostquam": 3370,
      "Ġaus": 3371,
      "Ġdiab": 3372,
      "ĠLeg": 3373,
      "mis": 3374,
      "Ġnit": 3375,
      "Ġnullus": 3376,
      "ĠLab": 3377,
      "Ġcura": 3378,
      "Ġteneb": 3379,
      "Ġinsign": 3380,
      "Ġbellum": 3381,
      "Ġscriptum": 3382,
      "ãģ": 3383,
      "isic": 3384,
      "actus": 3385,
      "ĠCol": 3386,
      "las": 3387,
      "Ġconsuetud": 3388,
      "Ġcollig": 3389,
      "Ġsuccess": 3390,
      "Ġmit": 3391,
      "Ġurbe": 3392,
      "Ġmedium": 3393,
      "exus": 3394,
      "Ġquamvis": 3395,
      "rius": 3396,
      "til": 3397,
      "terea": 3398,
      "ĠPers": 3399,
      "enim": 3400,
      "ĠAf": 3401,
      "Ġsubstanti": 3402,
      "Ġnimis": 3403,
      "atoribus": 3404,
      "Ġregni": 3405,
      "Ġagit": 3406,
      "Ġaliquip": 3407,
      "Ġrub": 3408,
      "ipp": 3409,
      "CC": 3410,
      "Ġiuxta": 3411,
      "mine": 3412,
      "ĠHab": 3413,
      "Ġfilio": 3414,
      "episcop": 3415,
      "ularis": 3416,
      "eto": 3417,
      "Ġscripta": 3418,
      "Ġignis": 3419,
      "isicing": 3420,
      "Ġuolunt": 3421,
      "Ġmore": 3422,
      "Ġminister": 3423,
      "Ġmagnum": 3424,
      "Ġmilit": 3425,
      "art": 3426,
      "Ġnostram": 3427,
      "Ġcetera": 3428,
      "Ġillorum": 3429,
      "Ġmentis": 3430,
      "tii": 3431,
      "uimus": 3432,
      "mina": 3433,
      "inere": 3434,
      "con": 3435,
      "Ġfine": 3436,
      "ĠIoann": 3437,
      "ptum": 3438,
      "uda": 3439,
      "usque": 3440,
      "Ġast": 3441,
      "Ġverit": 3442,
      "otis": 3443,
      "ĠEum": 3444,
      "etae": 3445,
      "Ġabsque": 3446,
      "Ġnomina": 3447,
      "Ġformam": 3448,
      "dio": 3449,
      "acia": 3450,
      "Ġinfra": 3451,
      "Ġsecundo": 3452,
      "Ġ13": 3453,
      "Ġiub": 3454,
      "Ġpatris": 3455,
      "eatur": 3456,
      "Ġmanibus": 3457,
      "Ġduas": 3458,
      "enses": 3459,
      "Ġalius": 3460,
      "ortun": 3461,
      "Ġsuff": 3462,
      "byter": 3463,
      "ares": 3464,
      "Ġsupplic": 3465,
      "Ġhabuit": 3466,
      "ĠEg": 3467,
      "ilibus": 3468,
      "Ġcam": 3469,
      "Ġobtin": 3470,
      "ĠAnd": 3471,
      "Ġoculos": 3472,
      "ĠOc": 3473,
      "Ġscriptor": 3474,
      "ĠPetr": 3475,
      "Ġimpl": 3476,
      "Ġlingua": 3477,
      "ĠVid": 3478,
      "Ġoccurr": 3479,
      "Ġsignificat": 3480,
      "Ġecclesia": 3481,
      "orr": 3482,
      "Ġadipisicing": 3483,
      "Ĥ¬": 3484,
      "Ergo": 3485,
      "Ġfun": 3486,
      "ĠApp": 3487,
      "Ġpleb": 3488,
      "uga": 3489,
      "ĠSicut": 3490,
      "Ġusum": 3491,
      "Ġpersec": 3492,
      "ensum": 3493,
      "Ġhost": 3494,
      "arn": 3495,
      "orro": 3496,
      "Îµ": 3497,
      "ĠXX": 3498,
      "erre": 3499,
      "Ġubique": 3500,
      "Ġillic": 3501,
      "Ġlegis": 3502,
      "Ġsimiliter": 3503,
      "Ġfaciunt": 3504,
      "Ġsalv": 3505,
      "Ġeleg": 3506,
      "Ġvera": 3507,
      "Ġmare": 3508,
      "err": 3509,
      "ĠNexus": 3510,
      "Ġinstruc": 3511,
      "Ġpertinet": 3512,
      "Ġparticip": 3513,
      "ĠDeinde": 3514,
      "eunt": 3515,
      "Ġru": 3516,
      "Ġcommune": 3517,
      "Ġparv": 3518,
      "Ġinduc": 3519,
      "Ġnonnul": 3520,
      "Ġmodus": 3521,
      "Ġpopulum": 3522,
      "Ġdemonstr": 3523,
      "Ġduos": 3524,
      "ĠâĤ¬": 3525,
      "Ġsigna": 3526,
      "Ġdare": 3527,
      "Ġfuerint": 3528,
      "Ġpossess": 3529,
      "Ġnamque": 3530,
      "Ġmortis": 3531,
      "ensem": 3532,
      "oro": 3533,
      "erti": 3534,
      "admodum": 3535,
      "Ġmaior": 3536,
      "ĠOmnis": 3537,
      "Ġaeg": 3538,
      "ĠEurop": 3539,
      "Ġrap": 3540,
      "ellis": 3541,
      "Ġtex": 3542,
      "Ġdig": 3543,
      "estum": 3544,
      "Ġhuiusmodi": 3545,
      "Ġerunt": 3546,
      "ĠSub": 3547,
      "Ġindign": 3548,
      "rorum": 3549,
      "etas": 3550,
      "Ġvener": 3551,
      "Ġuul": 3552,
      "ulari": 3553,
      "Ġillustr": 3554,
      "ÏĦ": 3555,
      "ĠGen": 3556,
      "Ġsignum": 3557,
      "ĠArc": 3558,
      "Ġsanguine": 3559,
      "Ġuestr": 3560,
      "Ġnub": 3561,
      "los": 3562,
      "Ġiud": 3563,
      "ule": 3564,
      "Ġactus": 3565,
      "ĠPo": 3566,
      "iarum": 3567,
      "echn": 3568,
      "Ġnegoti": 3569,
      "Ġdicam": 3570,
      "Ġscire": 3571,
      "anter": 3572,
      "line": 3573,
      "Ġcern": 3574,
      "Ġofficium": 3575,
      "Ġum": 3576,
      "Ġprincipes": 3577,
      "Ġmoder": 3578,
      "Ġmente": 3579,
      "Ġinveni": 3580,
      "iii": 3581,
      "onibus": 3582,
      "liae": 3583,
      "Ġpeccata": 3584,
      "Est": 3585,
      "Ġdubit": 3586,
      "Ġconclus": 3587,
      "Ġidest": 3588,
      "Ġsententiam": 3589,
      "Ġdiscipl": 3590,
      "Ġfelic": 3591,
      "torem": 3592,
      "embris": 3593,
      "ĠFilius": 3594,
      "Ġcapite": 3595,
      "ĠMac": 3596,
      "Ġlegem": 3597,
      "anu": 3598,
      "ĠInterdum": 3599,
      "aculum": 3600,
      "Ġpurg": 3601,
      "Ġprincipium": 3602,
      "Ġuers": 3603,
      "Ġsolu": 3604,
      "Ġregione": 3605,
      "Ġdomo": 3606,
      "ĠMus": 3607,
      "ĠAnno": 3608,
      "ĠGo": 3609,
      "Pro": 3610,
      "az": 3611,
      "Ġsuorum": 3612,
      "Ġflam": 3613,
      "pto": 3614,
      "hiepiscop": 3615,
      "idium": 3616,
      "Ġcess": 3617,
      "Ġanimal": 3618,
      "Ġminime": 3619,
      "pp": 3620,
      "Ġhered": 3621,
      "ident": 3622,
      "Ġamore": 3623,
      "Ġliter": 3624,
      "Ġdecem": 3625,
      "Ġgloriam": 3626,
      "Ġconfess": 3627,
      "Ġprofess": 3628,
      "acob": 3629,
      "olu": 3630,
      "Ġvidit": 3631,
      "otes": 3632,
      "Ġpariter": 3633,
      "Ġdat": 3634,
      "mat": 3635,
      "Ġeloqu": 3636,
      "Ġecclesias": 3637,
      "Ġdivina": 3638,
      "Ġadmodum": 3639,
      "Ġsanctorum": 3640,
      "Ġdata": 3641,
      "Ġnondum": 3642,
      "Ġobsc": 3643,
      "Ġconstat": 3644,
      "Ġvidelicet": 3645,
      "Ġsolus": 3646,
      "rom": 3647,
      "Ġx": 3648,
      "Ġreduc": 3649,
      "Ġhom": 3650,
      "irum": 3651,
      "osque": 3652,
      "Ġejusdem": 3653,
      "ĠGu": 3654,
      "Ġseru": 3655,
      "Ġsyn": 3656,
      "ĠSept": 3657,
      "Ġsancto": 3658,
      "Ġprocul": 3659,
      "Ġconveni": 3660,
      "Ġhuman": 3661,
      "Per": 3662,
      "Ġordinem": 3663,
      "isci": 3664,
      "Ġadol": 3665,
      "Ġperegr": 3666,
      "entu": 3667,
      "olae": 3668,
      "Ġsanctum": 3669,
      "Ġmans": 3670,
      "Ġeffectus": 3671,
      "Ġpossint": 3672,
      "Ġpoterit": 3673,
      "Ġpontific": 3674,
      "Ġfrater": 3675,
      "Ġvictor": 3676,
      "arunt": 3677,
      "ĠPal": 3678,
      "Ġlaboris": 3679,
      "Ġuos": 3680,
      "Ġdeduc": 3681,
      "Ġtale": 3682,
      "Ġloci": 3683,
      "Ġna": 3684,
      "roque": 3685,
      "Ġlibris": 3686,
      "Ġadministr": 3687,
      "kh": 3688,
      "Ġrob": 3689,
      "Ġmac": 3690,
      "Ġcarnis": 3691,
      "onus": 3692,
      "Ġsubstantia": 3693,
      "Ġaquae": 3694,
      "Ġgradus": 3695,
      "Ġalterius": 3696,
      "Ġbas": 3697,
      "imam": 3698,
      "Ġindig": 3699,
      "Ġarma": 3700,
      "Ġvelut": 3701,
      "ĠEnim": 3702,
      "ĠMel": 3703,
      "escere": 3704,
      "uss": 3705,
      "Om": 3706,
      "ĠEos": 3707,
      "Ġbono": 3708,
      "peret": 3709,
      "Ġnocte": 3710,
      "Ġintellectus": 3711,
      "Ġsubd": 3712,
      "Ġaestim": 3713,
      "Ġplura": 3714,
      "Ġseptim": 3715,
      "onom": 3716,
      "Ġdiceret": 3717,
      "Ġcommunic": 3718,
      "Ġpedes": 3719,
      "ĠAmer": 3720,
      "Ġaure": 3721,
      "apti": 3722,
      "yth": 3723,
      "ĠLac": 3724,
      "Åĵ": 3725,
      "Ġexst": 3726,
      "ĠSuper": 3727,
      "pius": 3728,
      "titiam": 3729,
      "Ġabi": 3730,
      "Ġmedic": 3731,
      "tios": 3732,
      "Ġvult": 3733,
      "Ġplant": 3734,
      "Ġetsi": 3735,
      "Ġlaet": 3736,
      "ĠCr": 3737,
      "ibilis": 3738,
      "Ġtut": 3739,
      "Ġfructus": 3740,
      "Ġanimum": 3741,
      "Ġferre": 3742,
      "Ġexperi": 3743,
      "oto": 3744,
      "Ġprem": 3745,
      "Ġcli": 3746,
      "Ġic": 3747,
      "ĠBo": 3748,
      "Ġdefend": 3749,
      "Ġvend": 3750,
      "ĠMed": 3751,
      "Ġfra": 3752,
      "Ġomitt": 3753,
      "Ġexterni": 3754,
      "quod": 3755,
      "Ġnumerus": 3756,
      "Ġauxilium": 3757,
      "Ġloquitur": 3758,
      "Ġsaltem": 3759,
      "Ġcongreg": 3760,
      "Ġimperium": 3761,
      "Ġ201": 3762,
      "Ġveni": 3763,
      "Ġfideli": 3764,
      "Hic": 3765,
      "Ġdetermin": 3766,
      "aur": 3767,
      "ĠVal": 3768,
      "Ġhomine": 3769,
      "Ġpotestate": 3770,
      "Ġads": 3771,
      "ĠPaulus": 3772,
      "Ġgenera": 3773,
      "Ġaliam": 3774,
      "ellum": 3775,
      "ariam": 3776,
      "Ġopere": 3777,
      "bum": 3778,
      "asset": 3779,
      "tif": 3780,
      "Ġduplic": 3781,
      "ĠSe": 3782,
      "Ì¨": 3783,
      "Ġperi": 3784,
      "Ġhonor": 3785,
      "otus": 3786,
      "Ġfilios": 3787,
      "lix": 3788,
      "Ġrursus": 3789,
      "aro": 3790,
      "Ġnonum": 3791,
      "ors": 3792,
      "Ġcit": 3793,
      "Ġmanum": 3794,
      "Ġvidere": 3795,
      "ema": 3796,
      "Ġmirab": 3797,
      "empe": 3798,
      "org": 3799,
      "Ġtria": 3800,
      "Ġpluribus": 3801,
      "Ġtuus": 3802,
      "Ġpartic": 3803,
      "Ġnotitia": 3804,
      "ts": 3805,
      "Ġauctoritate": 3806,
      "Ġpraesertim": 3807,
      "Ġdomino": 3808,
      "Ġquanto": 3809,
      "Ġsa": 3810,
      "arios": 3811,
      "Ġceleb": 3812,
      "Ġfoli": 3813,
      "Ġconcept": 3814,
      "Ġration": 3815,
      "averit": 3816,
      "Ġmaxima": 3817,
      "usc": 3818,
      "emur": 3819,
      "ĠEi": 3820,
      "abunt": 3821,
      "iores": 3822,
      "ardus": 3823,
      "Ġaliorum": 3824,
      "ĠUbi": 3825,
      "Ġsuav": 3826,
      "Ġfon": 3827,
      "Ġperc": 3828,
      "Ġmitt": 3829,
      "Ġcontemp": 3830,
      "ĠOcc": 3831,
      "undum": 3832,
      "ele": 3833,
      "Ġscientia": 3834,
      "Ġsecunda": 3835,
      "itter": 3836,
      "Item": 3837,
      "Ġseri": 3838,
      "Ġcod": 3839,
      "Ġsolv": 3840,
      "Ġbeati": 3841,
      "Ġsemel": 3842,
      "ÌĮ": 3843,
      "Ġalium": 3844,
      "Ġibidem": 3845,
      "bis": 3846,
      "Ġmensis": 3847,
      "Ġobst": 3848,
      "iamus": 3849,
      "Ġprorsus": 3850,
      "oduc": 3851,
      "aptiz": 3852,
      "Ġloca": 3853,
      "ĠTunc": 3854,
      "Ġpersequ": 3855,
      "rix": 3856,
      "ĠCiv": 3857,
      "Ġfall": 3858,
      "Ġwisi": 3859,
      "Ġrelic": 3860,
      "undi": 3861,
      "Ġcordis": 3862,
      "Ġnova": 3863,
      "Ġaudire": 3864,
      "ujus": 3865,
      "Ġconsci": 3866,
      "Ġobt": 3867,
      "ĠIns": 3868,
      "Ġuobis": 3869,
      "Ġtransm": 3870,
      "Ġcler": 3871,
      "Ġaquam": 3872,
      "Ġdeus": 3873,
      "Ġquon": 3874,
      "ĠDel": 3875,
      "Ġdivis": 3876,
      "Ġbello": 3877,
      "ileg": 3878,
      "Ġexemplum": 3879,
      "Ġpredic": 3880,
      "ĠDav": 3881,
      "ak": 3882,
      "Ġcausae": 3883,
      "Ġinp": 3884,
      "Ġcathol": 3885,
      "Ġcael": 3886,
      "Ġherb": 3887,
      "Ġcalc": 3888,
      "ensibus": 3889,
      "ĠSam": 3890,
      "Ġmedia": 3891,
      "ĠAristot": 3892,
      "Ġopt": 3893,
      "Ġfinis": 3894,
      "ĠPetri": 3895,
      "asque": 3896,
      "ĠAth": 3897,
      "ĠCan": 3898,
      "Ġamor": 3899,
      "Ġadversus": 3900,
      "cumque": 3901,
      "Ġsecum": 3902,
      "Ġdixi": 3903,
      "Ġquidquid": 3904,
      "Ġinvenire": 3905,
      "VI": 3906,
      "iÃ¦": 3907,
      "Ġconsum": 3908,
      "Ġtrah": 3909,
      "Ġpotestatem": 3910,
      "Ġsimilis": 3911,
      "Ġsacrific": 3912,
      "inti": 3913,
      "eram": 3914,
      "Ġfore": 3915,
      "Ġduod": 3916,
      "atura": 3917,
      "ĠMi": 3918,
      "ĠPrincip": 3919,
      "Quam": 3920,
      "Ġsolis": 3921,
      "usti": 3922,
      "Ġresist": 3923,
      "Ġpenitus": 3924,
      "Ġplen": 3925,
      "Ġdetr": 3926,
      "erius": 3927,
      "Ġcuncta": 3928,
      "ellae": 3929,
      "Ġproced": 3930,
      "Ġdiximus": 3931,
      "Ġconiunc": 3932,
      "Ġmunus": 3933,
      "Ġcorpor": 3934,
      "Ġmundum": 3935,
      "olv": 3936,
      "itos": 3937,
      "aginta": 3938,
      "Ġfiunt": 3939,
      "Ġecclesiae": 3940,
      "Ġabund": 3941,
      "Ġpell": 3942,
      "Ġpatrem": 3943,
      "Ġmonach": 3944,
      "Ġhorum": 3945,
      "Ġmos": 3946,
      "Ġdescrip": 3947,
      "ĠQuem": 3948,
      "Al": 3949,
      "Ġexpos": 3950,
      "age": 3951,
      "Ġmembra": 3952,
      "onio": 3953,
      "ĠDolor": 3954,
      "Ġuidetur": 3955,
      "turae": 3956,
      "andus": 3957,
      "Ġtechn": 3958,
      "ĠIst": 3959,
      "ĠVerum": 3960,
      "Ġadolesc": 3961,
      "oed": 3962,
      "Ġadf": 3963,
      "Ġimped": 3964,
      "tera": 3965,
      "ĠRomani": 3966,
      "Ġlegit": 3967,
      "Ġagere": 3968,
      "Ġfortasse": 3969,
      "Ġurbis": 3970,
      "Ġvituper": 3971,
      "erci": 3972,
      "ĠVis": 3973,
      "Ġcorrum": 3974,
      "Ġexpon": 3975,
      "Ġconsist": 3976,
      "Ġstudio": 3977,
      "Ġtang": 3978,
      "Ġhort": 3979,
      "ĠInf": 3980,
      "ixit": 3981,
      "ellas": 3982,
      "Ġmur": 3983,
      "Ġaccepit": 3984,
      "Ġprincipio": 3985,
      "Ġaliquod": 3986,
      "Ġbonus": 3987,
      "ria": 3988,
      "ipot": 3989,
      "ãĤ": 3990,
      "Ġartific": 3991,
      "ticis": 3992,
      "Ġpersona": 3993,
      "Ġviam": 3994,
      "abus": 3995,
      "Ġcoron": 3996,
      "Ġspecie": 3997,
      "Ġinterf": 3998,
      "ĠPetrus": 3999,
      "aniae": 4000,
      "Ġresurr": 4001,
      "Ġmultos": 4002,
      "loqu": 4003,
      "Ġfoed": 4004,
      "ominus": 4005,
      "Ġappare": 4006,
      "uf": 4007,
      "Ġfa": 4008,
      "Ġmunere": 4009,
      "Ġant": 4010,
      "ĠInd": 4011,
      "ĠCurae": 4012,
      "Ġquer": 4013,
      "ues": 4014,
      "ĠSen": 4015,
      "20": 4016,
      "Ġimb": 4017,
      "Ġscrips": 4018,
      "Ġcasu": 4019,
      "Ġipsos": 4020,
      "ĠVic": 4021,
      "Ġutroque": 4022,
      "ucius": 4023,
      "Ġ200": 4024,
      "Ġcav": 4025,
      "une": 4026,
      "ĠApostolus": 4027,
      "Ġdeclar": 4028,
      "ĠDum": 4029,
      "sign": 4030,
      "js": 4031,
      "Ġcaec": 4032,
      "Ġmortuus": 4033,
      "Ġplerumque": 4034,
      "undem": 4035,
      "ĠIuli": 4036,
      "Ġeduc": 4037,
      "Ġvas": 4038,
      "amenta": 4039,
      "Ġstet": 4040,
      "Ġantequam": 4041,
      "Ġsust": 4042,
      "ĠUnivers": 4043,
      "Ġbapt": 4044,
      "Ġseip": 4045,
      "ĠAmet": 4046,
      "rete": 4047,
      "Ġcec": 4048,
      "Ġinterrog": 4049,
      "Ġulla": 4050,
      "Ġloqui": 4051,
      "Ġplane": 4052,
      "Ġconserv": 4053,
      "Ġori": 4054,
      "eruntur": 4055,
      "Ġchristi": 4056,
      "unae": 4057,
      "Ġreligios": 4058,
      "estus": 4059,
      "Ġquadam": 4060,
      "liam": 4061,
      "enign": 4062,
      "ĠNic": 4063,
      "Ġspeciem": 4064,
      "Ġnus": 4065,
      "Ġvalet": 4066,
      "Ġmalorum": 4067,
      "Ġador": 4068,
      "Ġmerito": 4069,
      "Ġlitteris": 4070,
      "Ġbaptiz": 4071,
      "Ġnota": 4072,
      "Ġhumil": 4073,
      "ĠOffic": 4074,
      "ĠIII": 4075,
      "Ġmetu": 4076,
      "Ġgentes": 4077,
      "pond": 4078,
      "ĠQuibus": 4079,
      "Ġcard": 4080,
      "Ġfaciem": 4081,
      "Ġimit": 4082,
      "abantur": 4083,
      "Ġlex": 4084,
      "Ġquaeque": 4085,
      "upta": 4086,
      "Ġpacem": 4087,
      "exit": 4088,
      "Ġtransl": 4089,
      "icit": 4090,
      "ĠDuc": 4091,
      "Ġnumerum": 4092,
      "ĠEvangeli": 4093,
      "emn": 4094,
      "ĠRh": 4095,
      "Ġsublim": 4096,
      "ĠSch": 4097,
      "yg": 4098,
      "Ġaeque": 4099,
      "ya": 4100,
      "Ġcamp": 4101,
      "Ġminor": 4102,
      "Ġdiuers": 4103,
      "ector": 4104,
      "Ġspiritum": 4105,
      "ĠOrd": 4106,
      "icas": 4107,
      "Ġtertio": 4108,
      "Ġquondam": 4109,
      "arentur": 4110,
      "Ġaccommod": 4111,
      "Ġconced": 4112,
      "issum": 4113,
      "Ġquemadmodum": 4114,
      "uerint": 4115,
      "Ġecclesiam": 4116,
      "abilem": 4117,
      "Ġlim": 4118,
      "estatis": 4119,
      "Ïģ": 4120,
      "aeque": 4121,
      "ĠPatris": 4122,
      "Ġexspect": 4123,
      "ecus": 4124,
      "Ġtoti": 4125,
      "ĠMan": 4126,
      "ĠEd": 4127,
      "tyr": 4128,
      "Ġdissim": 4129,
      "ensa": 4130,
      "ĠInde": 4131,
      "Ġteg": 4132,
      "ello": 4133,
      "Ġpresbyter": 4134,
      "Ġarte": 4135,
      "Ġcapi": 4136,
      "ĠEcclesiam": 4137,
      "bat": 4138,
      "ĠSu": 4139,
      "Ġhomini": 4140,
      "Ġproprium": 4141,
      "Ġcrud": 4142,
      "ĠGreg": 4143,
      "10": 4144,
      "erusalem": 4145,
      "Ġconcup": 4146,
      "oniae": 4147,
      "Ġepic": 4148,
      "toli": 4149,
      "Ġsapientia": 4150,
      "entior": 4151,
      "circ": 4152,
      "Ġarmis": 4153,
      "ĠHinc": 4154,
      "Ġvirtutem": 4155,
      "ĠPri": 4156,
      "idere": 4157,
      "Ġni": 4158,
      "Ġdebent": 4159,
      "ĠCic": 4160,
      "Ġtris": 4161,
      "Ġmodis": 4162,
      "ograph": 4163,
      "Ġpeccato": 4164,
      "Ġsecret": 4165,
      "ĠDem": 4166,
      "ĠRomae": 4167,
      "âĢ": 4168,
      "uria": 4169,
      "Ġcontenti": 4170,
      "Ġquarum": 4171,
      "Ġdescend": 4172,
      "Ġand": 4173,
      "ulti": 4174,
      "ĠVer": 4175,
      "nae": 4176,
      "Ġpud": 4177,
      "Ġirr": 4178,
      "oque": 4179,
      "Ġadduc": 4180,
      "Ġbarb": 4181,
      "Ġplacet": 4182,
      "Ġuita": 4183,
      "ĠReges": 4184,
      "Ġconclud": 4185,
      "ĠCorp": 4186,
      "ĠIpsum": 4187,
      "Ġconcor": 4188,
      "ĠBrit": 4189,
      "ĠEcce": 4190,
      "ĠConc": 4191,
      "Ġlucem": 4192,
      "oci": 4193,
      "Ïħ": 4194,
      "ment": 4195,
      "Ġrege": 4196,
      "ĠPontific": 4197,
      "Ġder": 4198,
      "etam": 4199,
      "Ġincon": 4200,
      "pr": 4201,
      "Ġpasc": 4202,
      "cepit": 4203,
      "Ġbrev": 4204,
      "be": 4205,
      "Ġhumana": 4206,
      "Ġdatur": 4207,
      "Ġcondic": 4208,
      "ĠConstant": 4209,
      "Ġexcus": 4210,
      "Ġtali": 4211,
      "ĠVirg": 4212,
      "Ġvolumus": 4213,
      "ĠArch": 4214,
      "ĠPap": 4215,
      "Ġfav": 4216,
      "ectam": 4217,
      "Ġmisit": 4218,
      "Ġascend": 4219,
      "Ġemend": 4220,
      "ĠDes": 4221,
      "ordi": 4222,
      "Ġtertia": 4223,
      "uat": 4224,
      "ĠTheod": 4225,
      "Ġ>": 4226,
      "orsum": 4227,
      "ĠHeb": 4228,
      "Ġcopios": 4229,
      "ĠDavid": 4230,
      "ĠIdem": 4231,
      "Ìĥ": 4232,
      "Ġster": 4233,
      "Ġceter": 4234,
      "ono": 4235,
      "Ġmors": 4236,
      "ĠQuin": 4237,
      "Ġnarr": 4238,
      "Prim": 4239,
      "ĠNemo": 4240,
      "Ġiuris": 4241,
      "enes": 4242,
      "ĠCat": 4243,
      "Ġsaeculo": 4244,
      "eria": 4245,
      "Ġmemoria": 4246,
      "Ġquum": 4247,
      "Ġbeatus": 4248,
      "Ġviol": 4249,
      "issimam": 4250,
      "Ġsensu": 4251,
      "ĠLud": 4252,
      "Ġdicimus": 4253,
      "Ġmyst": 4254,
      "ĠPhili": 4255,
      "Ġuitae": 4256,
      "Ġfasti": 4257,
      "Ġsancta": 4258,
      "Ġobseru": 4259,
      "ly": 4260,
      "ĠPort": 4261,
      "Ġquare": 4262,
      "Ġmeae": 4263,
      "Ġcoepit": 4264,
      "ĠInv": 4265,
      "Ġdivid": 4266,
      "elle": 4267,
      "Ġterrarum": 4268,
      "Ġpublica": 4269,
      "Ġnunti": 4270,
      "ĠConf": 4271,
      "tidie": 4272,
      "Ġproprie": 4273,
      "ala": 4274,
      "ĠBe": 4275,
      "Ġcolloc": 4276,
      "Ġoppos": 4277,
      "Ġmotu": 4278,
      "itatus": 4279,
      "ensus": 4280,
      "Ġlibri": 4281,
      "Ġpsal": 4282,
      "ge": 4283,
      "Ġcast": 4284,
      "ueris": 4285,
      "Ġhora": 4286,
      "tt": 4287,
      "Ġfabric": 4288,
      "ÏĤ": 4289,
      "esi": 4290,
      "Ġcompet": 4291,
      "abiles": 4292,
      "ĠVerb": 4293,
      "ĠHen": 4294,
      "Ġdepos": 4295,
      "Ġabsc": 4296,
      "Ġhuc": 4297,
      "ĠNisi": 4298,
      "lio": 4299,
      "Ġaduer": 4300,
      "Ġpaul": 4301,
      "Ġpoterat": 4302,
      "eterum": 4303,
      "ĠPraes": 4304,
      "iscum": 4305,
      "Ġfacto": 4306,
      "Ġmentem": 4307,
      "Ġviris": 4308,
      "olit": 4309,
      "Ġfuturum": 4310,
      "Ġpic": 4311,
      "Ġbenign": 4312,
      "Ġrepet": 4313,
      "verit": 4314,
      "Ġpan": 4315,
      "Ġecce": 4316,
      "ER": 4317,
      "Ġsimpliciter": 4318,
      "uic": 4319,
      "Ġoperibus": 4320,
      "Ġocto": 4321,
      "Ġepiscopi": 4322,
      "vo": 4323,
      "acto": 4324,
      "Ġconsol": 4325,
      "\",": 4326,
      "Ġtestimonium": 4327,
      "ĠIt": 4328,
      "ĠEm": 4329,
      "ĠMolesti": 4330,
      "eis": 4331,
      "Ġuiu": 4332,
      "Ġsententiae": 4333,
      "Ġdoctrina": 4334,
      "Ġnumer": 4335,
      "Ġves": 4336,
      "Ġaccep": 4337,
      "Ġvideo": 4338,
      "Ġvirum": 4339,
      "ĠPom": 4340,
      "ursum": 4341,
      "Ġaffirm": 4342,
      "Ġsacra": 4343,
      "uisti": 4344,
      "Ġcastra": 4345,
      "Ġbelli": 4346,
      "unda": 4347,
      "ĠPot": 4348,
      "Ġtol": 4349,
      "Ġrecept": 4350,
      "Ġfama": 4351,
      "idio": 4352,
      "Ġhabeo": 4353,
      "item": 4354,
      "ultus": 4355,
      "Ġvindic": 4356,
      "Ġcunctis": 4357,
      "ionum": 4358,
      "Ġrum": 4359,
      "ĠInst": 4360,
      "Ġoptimum": 4361,
      "Ġhabens": 4362,
      "amque": 4363,
      "abil": 4364,
      "ĠAugustinus": 4365,
      "ĠGoog": 4366,
      "amb": 4367,
      "Ġsap": 4368,
      "Ġcarnem": 4369,
      "Ġimo": 4370,
      "Ġpend": 4371,
      "ĠPrae": 4372,
      "Ġindustria": 4373,
      "amento": 4374,
      "Ġnatum": 4375,
      "ĠImp": 4376,
      "Ġnominis": 4377,
      "Ġpatre": 4378,
      "Ġtertium": 4379,
      "ĠRerum": 4380,
      "Ġadmir": 4381,
      "Ġlaudem": 4382,
      "Ġiudicium": 4383,
      "Ġquaestio": 4384,
      "issis": 4385,
      "Ġpraepar": 4386,
      "Ġcarne": 4387,
      "Ġagnosc": 4388,
      "Ġterris": 4389,
      "atore": 4390,
      "Ġlumen": 4391,
      "Ġperman": 4392,
      "ĠVoluptatem": 4393,
      "abiliter": 4394,
      "Ġaliquem": 4395,
      "Ġvoce": 4396,
      "Ġinterrete": 4397,
      "Ġvirtu": 4398,
      "Ġprofic": 4399,
      "Ġapparet": 4400,
      "Ġrot": 4401,
      "entr": 4402,
      "Ġpaucis": 4403,
      "Ġaccipere": 4404,
      "ĠAutem": 4405,
      "Ġartic": 4406,
      "Ġvivere": 4407,
      "Ġpraecipue": 4408,
      "Ġrequi": 4409,
      "Ġputant": 4410,
      "inarum": 4411,
      "Ġcanon": 4412,
      "Ġcopia": 4413,
      "esa": 4414,
      "idia": 4415,
      "Ġfaciat": 4416,
      "arm": 4417,
      "Ġinform": 4418,
      "ropter": 4419,
      "ĠSab": 4420,
      "ebis": 4421,
      "Ġflu": 4422,
      "Ġrestit": 4423,
      "Ġadiu": 4424,
      "ĠFrat": 4425,
      "Ġnecessaria": 4426,
      "ĠJesu": 4427,
      "Ġfacti": 4428,
      "ĠIpse": 4429,
      "Ġprinceps": 4430,
      "crib": 4431,
      "orium": 4432,
      "Ġadmon": 4433,
      "Ġpropriet": 4434,
      "ardi": 4435,
      "Ġveri": 4436,
      "iderunt": 4437,
      "Ġmob": 4438,
      "ĠPsal": 4439,
      "actum": 4440,
      "Ġargumentum": 4441,
      "Ġutrumque": 4442,
      "Ġire": 4443,
      "Ġministr": 4444,
      "Ġsolo": 4445,
      "ĠIlle": 4446,
      "Ìĵ": 4447,
      "Ġdorm": 4448,
      "erere": 4449,
      "Ac": 4450,
      "Ġdescrib": 4451,
      "Ġprol": 4452,
      "itias": 4453,
      "ogn": 4454,
      "esque": 4455,
      "Ġoperis": 4456,
      "Ġbis": 4457,
      "Ġnox": 4458,
      "Ġconcupisc": 4459,
      "Ġregno": 4460,
      "illi": 4461,
      "Ġprocessus": 4462,
      "Ġcentum": 4463,
      "ĠSte": 4464,
      "Ġactum": 4465,
      ")..": 4466,
      "Ġec": 4467,
      "Ġigne": 4468,
      "ialis": 4469,
      "Ġretin": 4470,
      "Ġestis": 4471,
      "Ġhaere": 4472,
      "ef": 4473,
      "Ġcompon": 4474,
      "Ġgubern": 4475,
      "ularum": 4476,
      "Ġocta": 4477,
      "Ġisti": 4478,
      "Ġanc": 4479,
      "Ġtri": 4480,
      "iit": 4481,
      "Ġhabebat": 4482,
      "uen": 4483,
      "lae": 4484,
      "Ġequidem": 4485,
      "Ġhabes": 4486,
      "Ġ$": 4487,
      "Ġacced": 4488,
      "Ġconstructio": 4489,
      "Ġsuperius": 4490,
      "Ġmotum": 4491,
      "ĠSa": 4492,
      "ĠCui": 4493,
      "ensium": 4494,
      "Ġvehem": 4495,
      "Ġpraeterit": 4496,
      "ĠGe": 4497,
      "uitur": 4498,
      "sam": 4499,
      "Ġorbis": 4500,
      "Ġ25": 4501,
      "Ġatr": 4502,
      "ila": 4503,
      "Ġcorn": 4504,
      "Ġlabores": 4505,
      "Ġsensum": 4506,
      "erim": 4507,
      "estibus": 4508,
      "Ġhonore": 4509,
      "errim": 4510,
      "erte": 4511,
      "ĠGl": 4512,
      "Ġpatria": 4513,
      "Ġdecret": 4514,
      "Ġvoluit": 4515,
      "ĠSum": 4516,
      "laud": 4517,
      "Ġfiliis": 4518,
      "uch": 4519,
      "Ġnuper": 4520,
      "arus": 4521,
      "Ġrecipi": 4522,
      "Ġfigura": 4523,
      "circo": 4524,
      "ek": 4525,
      "ĠVelit": 4526,
      "Ġmend": 4527,
      "ĠRem": 4528,
      "entias": 4529,
      "ĠBritann": 4530,
      "Ġgreg": 4531,
      "Ġpraesum": 4532,
      "Ġipsorum": 4533,
      "Ġgratiae": 4534,
      "Ġdestr": 4535,
      "ebas": 4536,
      "titiae": 4537,
      "ĠCirc": 4538,
      "Ġinnoc": 4539,
      "Ġcaro": 4540,
      "ĠVI": 4541,
      "Ġaccess": 4542,
      "Ġjud": 4543,
      "orp": 4544,
      "Ġrationibus": 4545,
      "Ġinitio": 4546,
      "Ġiri": 4547,
      "Ġscr": 4548,
      "Ġsalutis": 4549,
      "atori": 4550,
      "ĠSapi": 4551,
      "Ġpert": 4552,
      "turb": 4553,
      "Ġinqu": 4554,
      "Ġdeter": 4555,
      "Ġuerum": 4556,
      "ĠOmnes": 4557,
      "raque": 4558,
      "Ġliqu": 4559,
      "Ġpeccati": 4560,
      "Ġarchiepiscop": 4561,
      "Ġ30": 4562,
      "esis": 4563,
      "Ġvirtutis": 4564,
      "Ġprocur": 4565,
      "ĠQuare": 4566,
      "Ġora": 4567,
      "Ġdid": 4568,
      "yri": 4569,
      "ticum": 4570,
      "itiv": 4571,
      "ticae": 4572,
      "turam": 4573,
      "Ġoperam": 4574,
      "Ġub": 4575,
      "Pr": 4576,
      "Ġantea": 4577,
      "Ġexcell": 4578,
      "ĠOrci": 4579,
      "fi": 4580,
      "Ġgest": 4581,
      "Ġampl": 4582,
      "Ġlegere": 4583,
      "ĠPlac": 4584,
      "Ġvuln": 4585,
      "Ġso": 4586,
      "Ġhonorem": 4587,
      "Ġprior": 4588,
      "ĠPas": 4589,
      "Ġgentium": 4590,
      "aepe": 4591,
      "Post": 4592,
      "eamus": 4593,
      "Ġdiversis": 4594,
      "estra": 4595,
      "Ġreuer": 4596,
      "ĠTest": 4597,
      "ebunt": 4598,
      "Ġung": 4599,
      "Ġdesid": 4600,
      "ectitur": 4601,
      "Ġmix": 4602,
      "Ġexpect": 4603,
      "Ġcontempl": 4604,
      "ej": 4605,
      "Ġfraud": 4606,
      "ĠErat": 4607,
      "Ġprimi": 4608,
      "Ġambul": 4609,
      "illae": 4610,
      "Ġmedioc": 4611,
      "Ġinclud": 4612,
      "áħ": 4613,
      "áĦ": 4614,
      "'.": 4615,
      "ĠVitae": 4616,
      "ĠIo": 4617,
      "Ġvulg": 4618,
      "tuor": 4619,
      "Ġsug": 4620,
      "Ġuig": 4621,
      "Ġmense": 4622,
      "aev": 4623,
      "istis": 4624,
      "Ġtecum": 4625,
      "Ġsyst": 4626,
      "Ġfigur": 4627,
      "ĠhÃ¦c": 4628,
      "Ġsanguinem": 4629,
      "Ġintus": 4630,
      "Ġincorr": 4631,
      "Ġprout": 4632,
      "Ġsuscipi": 4633,
      "ba": 4634,
      "itibus": 4635,
      "Ġmic": 4636,
      "Ġprocess": 4637,
      "Ġ0": 4638,
      "ĠBenedic": 4639,
      "Ġimpos": 4640,
      "Ġpron": 4641,
      "ĠRex": 4642,
      "Ġponit": 4643,
      "Ġdiligenter": 4644,
      "Ab": 4645,
      "Ġmalo": 4646,
      "Ġsyl": 4647,
      "Ġposuit": 4648,
      "ĠAbrah": 4649,
      "Ġros": 4650,
      "ĠHas": 4651,
      "ĠcÃ¦": 4652,
      ".\".": 4653,
      "Neque": 4654,
      "Ġregi": 4655,
      "Ġov": 4656,
      "Ġinsol": 4657,
      "lat": 4658,
      "utem": 4659,
      "Ġfulg": 4660,
      "Ġaute": 4661,
      "ĠMM": 4662,
      "Ġinj": 4663,
      "Ġfic": 4664,
      "Ġreu": 4665,
      "Ġmarty": 4666,
      "ĠOmnia": 4667,
      "ke": 4668,
      "Ġpropon": 4669,
      "Ġfing": 4670,
      "Ġcolleg": 4671,
      "acio": 4672,
      "Ġ24": 4673,
      "anas": 4674,
      "Ġintenti": 4675,
      "Ġsanctae": 4676,
      "Ġcoelo": 4677,
      "cit": 4678,
      "iz": 4679,
      "Ġaliquot": 4680,
      "timus": 4681,
      "ecc": 4682,
      "Ġmedicam": 4683,
      "Secund": 4684,
      "ioni": 4685,
      "Ġiug": 4686,
      "Ġomnipot": 4687,
      "Ġcerta": 4688,
      "ĠVos": 4689,
      "Ġprogress": 4690,
      "Ġleges": 4691,
      "Ġmilia": 4692,
      "amm": 4693,
      "Ġclaus": 4694,
      "Ġperse": 4695,
      "Ar": 4696,
      "ariorum": 4697,
      "UM": 4698,
      "tifex": 4699,
      "Ġvidentur": 4700,
      "Ġplurimum": 4701,
      "Ġmulier": 4702,
      "Ġby": 4703,
      "Ġrecta": 4704,
      "Ġlarg": 4705,
      "Ġcommuni": 4706,
      "Ġalibi": 4707,
      "Ġofficio": 4708,
      "Ġtenet": 4709,
      "Ġplena": 4710,
      "Ġdeli": 4711,
      "Ġnegleg": 4712,
      "sque": 4713,
      "Ġnil": 4714,
      "Ġexprim": 4715,
      "ĠSint": 4716,
      "Ġsummum": 4717,
      "Ġobedi": 4718,
      "Ġmonst": 4719,
      "uth": 4720,
      "Ġexpl": 4721,
      "Ġeffectum": 4722,
      "Ġsis": 4723,
      "ebo": 4724,
      "ĠEam": 4725,
      "Ġorbem": 4726,
      "tice": 4727,
      "Ġira": 4728,
      "tici": 4729,
      "Ġall": 4730,
      "Ġsermo": 4731,
      "ĠPrimum": 4732,
      "com": 4733,
      "nas": 4734,
      "Ġhujusmodi": 4735,
      "Ġsaepius": 4736,
      "Ġprofecto": 4737,
      "eperunt": 4738,
      "Ġcomprehens": 4739,
      "Ġiur": 4740,
      "Ġuitam": 4741,
      "Ġuxorem": 4742,
      "alt": 4743,
      "Ġsaeculi": 4744,
      "fl": 4745,
      "Ġmari": 4746,
      "ĠIV": 4747,
      "cipere": 4748,
      "Ġinclin": 4749,
      "ĠDiv": 4750,
      "undus": 4751,
      "olam": 4752,
      "Ġexercitu": 4753,
      "issimos": 4754,
      "Ġmisc": 4755,
      "Ġnud": 4756,
      "Ġment": 4757,
      "Ġfrag": 4758,
      "Ġlegimus": 4759,
      "Ġignem": 4760,
      "Ġvariis": 4761,
      "ĠGoogle": 4762,
      "ĠIdeo": 4763,
      "Ġaer": 4764,
      "duc": 4765,
      "atia": 4766,
      "Ġspes": 4767,
      "Ġcivitatis": 4768,
      "ultum": 4769,
      "ferre": 4770,
      "Ġminimum": 4771,
      "tionum": 4772,
      "Ġsingula": 4773,
      "iorem": 4774,
      "yrann": 4775,
      "amine": 4776,
      "Ġinvid": 4777,
      "Ġtrig": 4778,
      "eras": 4779,
      "IV": 4780,
      "Ġspem": 4781,
      "Ġpraeced": 4782,
      "Ġmenti": 4783,
      "Ġaere": 4784,
      "Ġimpet": 4785,
      "oseph": 4786,
      "ĠAnte": 4787,
      "Ġnat": 4788,
      "ueri": 4789,
      "rav": 4790,
      "itionibus": 4791,
      "Ġsensibus": 4792,
      "Ġsimplex": 4793,
      "Ġcomput": 4794,
      "Ġrig": 4795,
      "Ġmateriam": 4796,
      "undo": 4797,
      "oper": 4798,
      "19": 4799,
      "Ġpacis": 4800,
      "Ġsuspic": 4801,
      "able": 4802,
      "Ġrationes": 4803,
      "ebam": 4804,
      "ity": 4805,
      "ĠAngel": 4806,
      "Ġmemin": 4807,
      "Ġhabetur": 4808,
      "rimis": 4809,
      "Ġnimium": 4810,
      "Ġpartim": 4811,
      "Ġsermone": 4812,
      "ĠAnton": 4813,
      "greg": 4814,
      "Quo": 4815,
      "Ġvetus": 4816,
      "ĠTrin": 4817,
      "des": 4818,
      "Ġgratias": 4819,
      "Ġsanguinis": 4820,
      "gen": 4821,
      "Ġcommemor": 4822,
      "Ġtermin": 4823,
      "Ġnobil": 4824,
      "arr": 4825,
      "Inter": 4826,
      "Ġreform": 4827,
      "Ġdeo": 4828,
      "Ġerga": 4829,
      "Ġtabern": 4830,
      "Ġmaris": 4831,
      "cr": 4832,
      "Ġmetal": 4833,
      "ack": 4834,
      "Ġexempla": 4835,
      "ĠDoc": 4836,
      "ĠIudae": 4837,
      "ĠOri": 4838,
      "ĠAud": 4839,
      "Ġresp": 4840,
      "Ġutinam": 4841,
      "Ġconcess": 4842,
      "ĠStr": 4843,
      "Ġpercus": 4844,
      "idam": 4845,
      "Ġferro": 4846,
      "Ġdistrib": 4847,
      "Ġappellantur": 4848,
      "Ġquatenus": 4849,
      "Ġmateriae": 4850,
      "Ġrecens": 4851,
      "Ġpace": 4852,
      "amin": 4853,
      "hone": 4854,
      "Ġquanta": 4855,
      "Ġalienum": 4856,
      "Ġmores": 4857,
      "Ġfratribus": 4858,
      "inium": 4859,
      "Ġanimus": 4860,
      "Ġpeccatorum": 4861,
      "Ġq": 4862,
      "iali": 4863,
      "Ġintellectu": 4864,
      "Ġmag": 4865,
      "ĠPatre": 4866,
      "ĠFilium": 4867,
      "Ġpossum": 4868,
      "Ġuniuers": 4869,
      "ĠDo": 4870,
      "Ġcolor": 4871,
      "Ġremed": 4872,
      "Ġoportere": 4873,
      "Nul": 4874,
      "Ġflor": 4875,
      "Ġidque": 4876,
      "Ġcaeli": 4877,
      "--": 4878,
      "ped": 4879,
      "ĠEius": 4880,
      "Ġsecur": 4881,
      "Ġpossid": 4882,
      "nos": 4883,
      "Ġistud": 4884,
      "ĠServ": 4885,
      "ĠMet": 4886,
      "ellam": 4887,
      "ĠGregor": 4888,
      "Ġsatisfac": 4889,
      "Ġflag": 4890,
      "ĠEpic": 4891,
      "ĠArg": 4892,
      "Ġvoluntatem": 4893,
      "Ġtransf": 4894,
      "estate": 4895,
      "ĠSecundo": 4896,
      "ĠIsa": 4897,
      "Ġjub": 4898,
      "imae": 4899,
      "Ġartis": 4900,
      "15": 4901,
      "ĠQuos": 4902,
      "edem": 4903,
      "ĠFoed": 4904,
      "ĠOmn": 4905,
      "Ġlinea": 4906,
      "este": 4907,
      "Ġconiug": 4908,
      "Ġoblig": 4909,
      "Ġorg": 4910,
      "Ġuit": 4911,
      "Ġepiscopo": 4912,
      "Ġtemplum": 4913,
      "Ġlect": 4914,
      "Ġanimad": 4915,
      "Ġrefert": 4916,
      "Ġlitteras": 4917,
      "Ġserp": 4918,
      "Ġvideri": 4919,
      "cere": 4920,
      "Ġdictis": 4921,
      "Ġdaem": 4922,
      "fr": 4923,
      "Ġannorum": 4924,
      "Ġexercitus": 4925,
      "amina": 4926,
      "Ġquadrag": 4927,
      "ĠBib": 4928,
      "Ġfat": 4929,
      "ĠTor": 4930,
      "quae": 4931,
      "ĠColl": 4932,
      "Ġtel": 4933,
      "Ġferri": 4934,
      "Ġincol": 4935,
      "Ġoptime": 4936,
      "Ġdominum": 4937,
      "Ġae": 4938,
      "Ġspe": 4939,
      "ĠMagis": 4940,
      "Ġimperator": 4941,
      "ĠConv": 4942,
      "Ġnempe": 4943,
      "entiis": 4944,
      "ĠKal": 4945,
      "ĠHer": 4946,
      "Ġtriumph": 4947,
      "eca": 4948,
      "ages": 4949,
      "Ġlegitur": 4950,
      "Ġisto": 4951,
      "entos": 4952,
      "pes": 4953,
      "Ġtrip": 4954,
      "Ġspatium": 4955,
      "Ġullamco": 4956,
      "Ġlate": 4957,
      "ĠPatri": 4958,
      "orus": 4959,
      "ĠDolorem": 4960,
      "Ġced": 4961,
      "ĠAegyp": 4962,
      "Ġnusquam": 4963,
      "ĠSecundum": 4964,
      "ĠBon": 4965,
      "Ġobsequ": 4966,
      "Ġuerba": 4967,
      "Ġdebemus": 4968,
      "ĠEsse": 4969,
      "ertitur": 4970,
      "acum": 4971,
      "Ġhorr": 4972,
      "Ġpercip": 4973,
      "Ġexpress": 4974,
      "eronym": 4975,
      "Ġhec": 4976,
      "Ġvoluntas": 4977,
      "Ġdirig": 4978,
      "Ġtene": 4979,
      "Ġinvicem": 4980,
      "Ġvoluntate": 4981,
      "Ġcommunis": 4982,
      "Sicut": 4983,
      "eperit": 4984,
      "Ġmecum": 4985,
      "Ġpericula": 4986,
      "Ġexemplo": 4987,
      "Ġdeum": 4988,
      "Ġcaelo": 4989,
      "Ġinterc": 4990,
      "Ġmatrim": 4991,
      "ych": 4992,
      "Ġfus": 4993,
      "ĠDom": 4994,
      "Ġlonga": 4995,
      "Ġscripsit": 4996,
      "Ġvex": 4997,
      "Ġrationis": 4998,
      "Ġcredit": 4999,
      "Ġconuer": 5000,
      "Ġfu": 5001,
      "Ġinsid": 5002,
      "erimus": 5003,
      "Ġfidel": 5004,
      "Ġ22": 5005,
      "Ġinterim": 5006,
      "Ġexercitation": 5007,
      "Ġcito": 5008,
      "Ġordo": 5009,
      "ĠVix": 5010,
      "Ġinop": 5011,
      "quo": 5012,
      "Ġliberum": 5013,
      "aus": 5014,
      "ummy": 5015,
      "Ġjudicium": 5016,
      "Ġundique": 5017,
      "ectae": 5018,
      "Ġpollic": 5019,
      "ĠCumque": 5020,
      "Nunc": 5021,
      "Ġcivitatem": 5022,
      "Ġpossent": 5023,
      "ulerunt": 5024,
      "Ġnulli": 5025,
      "Ġaurum": 5026,
      "Ġverbo": 5027,
      "Ġsusp": 5028,
      "Ġsat": 5029,
      "Ġdifficult": 5030,
      "Ġproeli": 5031,
      "Ġmagistr": 5032,
      "Ġcibo": 5033,
      "Dic": 5034,
      "Ġsax": 5035,
      "Ġsubito": 5036,
      "Quis": 5037,
      "uptatum": 5038,
      "ĠLiber": 5039,
      "ĠCaesar": 5040,
      "Ġversus": 5041,
      "inalis": 5042,
      "Ubi": 5043,
      "ĠMe": 5044,
      "Ġveritatem": 5045,
      "Ġsolent": 5046,
      "Ġonline": 5047,
      "icii": 5048,
      "Ġperpetua": 5049,
      "ĠMaria": 5050,
      "ĠSin": 5051,
      "Ġpedibus": 5052,
      "Ġou": 5053,
      "Ġdebeat": 5054,
      "Ġful": 5055,
      "iem": 5056,
      "liv": 5057,
      "Ġdocet": 5058,
      "ĠAdip": 5059,
      "Ġdiscere": 5060,
      "Ġtuos": 5061,
      "Ġpeti": 5062,
      "ĠBar": 5063,
      "Ġarch": 5064,
      "Ġegreg": 5065,
      "Ġviro": 5066,
      "ĠPlat": 5067,
      "Ġmovet": 5068,
      "Ġpartium": 5069,
      "eritis": 5070,
      "itata": 5071,
      "itorum": 5072,
      "adip": 5073,
      "ĠXV": 5074,
      "Ġvali": 5075,
      "anto": 5076,
      "ĠHel": 5077,
      "reti": 5078,
      "issimae": 5079,
      "Ġanimos": 5080,
      "ensio": 5081,
      "Ġ)": 5082,
      "His": 5083,
      "ĠJesus": 5084,
      "ĠProc": 5085,
      "tioni": 5086,
      "Ġhostes": 5087,
      "Ġnecessitate": 5088,
      "Ġconsili": 5089,
      "Ġstup": 5090,
      "Ġcaelum": 5091,
      "ĠThom": 5092,
      "Ġdemum": 5093,
      "Ġrevoc": 5094,
      "Ġnimirum": 5095,
      "Ġ21": 5096,
      "Ġsort": 5097,
      "Ġmagnific": 5098,
      "Ġmagnus": 5099,
      "Ġmille": 5100,
      "Ġnaturalis": 5101,
      "Ġpraecepta": 5102,
      "Ġprimam": 5103,
      "Ġistis": 5104,
      "Ġpropositum": 5105,
      "Ġrespondit": 5106,
      "Ġalti": 5107,
      "Ġquattuor": 5108,
      "Ġvolo": 5109,
      "Ġtalia": 5110,
      "Ġunc": 5111,
      "Ġpoena": 5112,
      "aei": 5113,
      "Ġpropriae": 5114,
      "inn": 5115,
      "anta": 5116,
      "etetur": 5117,
      "Ġuxor": 5118,
      "Deinde": 5119,
      "Ġluce": 5120,
      "Ġperfici": 5121,
      "Ġaeternum": 5122,
      "Ġfas": 5123,
      "onii": 5124,
      "aeus": 5125,
      "Ġforn": 5126,
      "ĠQuomodo": 5127,
      "Ġnef": 5128,
      "etarum": 5129,
      "ĠLaud": 5130,
      "Ġtuas": 5131,
      "ĠMerc": 5132,
      "anguis": 5133,
      "Ġsacr": 5134,
      "ende": 5135,
      "Ġfortuna": 5136,
      "psit": 5137,
      "ensu": 5138,
      "essi": 5139,
      "ka": 5140,
      "ĠFab": 5141,
      "wn": 5142,
      "unde": 5143,
      "Ġquandoque": 5144,
      "aciter": 5145,
      "Ġfrustra": 5146,
      "Ġvestig": 5147,
      "Ġveter": 5148,
      "aribus": 5149,
      "Ġgradu": 5150,
      "Ġglorios": 5151,
      "ĠAuc": 5152,
      "Ġhabeant": 5153,
      "Ġturba": 5154,
      "ĠMatth": 5155,
      "luc": 5156,
      "Ġhy": 5157,
      "ectetur": 5158,
      "egit": 5159,
      "Ġputo": 5160,
      "ĠSpiritu": 5161,
      "Ġimperio": 5162,
      "Ġcoelum": 5163,
      "Ġpe": 5164,
      "Ïĥ": 5165,
      "Ġambi": 5166,
      "Ġuinc": 5167,
      "ĠMal": 5168,
      "Ġeidem": 5169,
      "Ġconsecr": 5170,
      "Ġutrius": 5171,
      "Ġclem": 5172,
      "Ġdiscrim": 5173,
      "Ġconcord": 5174,
      "Ġcru": 5175,
      "eur": 5176,
      "Ġeb": 5177,
      "Ġtyrann": 5178,
      "Ġscribit": 5179,
      "Aut": 5180,
      "Ġquinqu": 5181,
      "ĠBal": 5182,
      "imas": 5183,
      "Ġsimilitudinem": 5184,
      "ravit": 5185,
      "Ch": 5186,
      "Ġinuen": 5187,
      "aculis": 5188,
      "Ġens": 5189,
      "ĠPatrem": 5190,
      "ĠTra": 5191,
      "Ġhumanae": 5192,
      "Ġmemoriam": 5193,
      "itare": 5194,
      "Ġpropterea": 5195,
      "Ġrepugn": 5196,
      "uncta": 5197,
      "Ġirac": 5198,
      "elag": 5199,
      "eniens": 5200,
      "escunt": 5201,
      "Ġutraque": 5202,
      "Ġdiei": 5203,
      "osum": 5204,
      "ĠMoys": 5205,
      "Ġnescio": 5206,
      "Ġeandem": 5207,
      "Hinc": 5208,
      "erium": 5209,
      "Ġservi": 5210,
      "rec": 5211,
      "Ġdona": 5212,
      "isce": 5213,
      "ricus": 5214,
      "Ġpern": 5215,
      "Ġmediocr": 5216,
      "aces": 5217,
      "Ġconsumm": 5218,
      "scing": 5219,
      "Ġalum": 5220,
      "po": 5221,
      "Ġvocem": 5222,
      "ĠPorro": 5223,
      "ĠGerman": 5224,
      "ĠVoluptas": 5225,
      "alog": 5226,
      "inu": 5227,
      "ĠHa": 5228,
      "Ġmagister": 5229,
      "Ego": 5230,
      "Ġpraeterea": 5231,
      "tore": 5232,
      "Ġrespons": 5233,
      "Ġmilites": 5234,
      "Ġimpetus": 5235,
      "ĠRomam": 5236,
      "adipscing": 5237,
      "Ġsugg": 5238,
      "Ġfaciam": 5239,
      "Ġquoti": 5240,
      "anim": 5241,
      "Ġcausis": 5242,
      "Ġadu": 5243,
      "Ġdestin": 5244,
      "antiae": 5245,
      "Ġfutura": 5246,
      "Å¿": 5247,
      "Ġillumin": 5248,
      "Ġfil": 5249,
      "zed": 5250,
      "Ġdispon": 5251,
      "Ġcontraria": 5252,
      "Ma": 5253,
      "cha": 5254,
      "Ġreman": 5255,
      "irent": 5256,
      "xi": 5257,
      "Ġduodecim": 5258,
      "Ġaeris": 5259,
      "Ġpapa": 5260,
      "Ġdeclin": 5261,
      "Ġintro": 5262,
      "queb": 5263,
      "Ġunquam": 5264,
      "Ġdixerunt": 5265,
      "Ġcaeteris": 5266,
      "Ġadiuv": 5267,
      "Ġfilia": 5268,
      "rym": 5269,
      "TI": 5270,
      "Ġconn": 5271,
      "Ġmunera": 5272,
      "Ġincipit": 5273,
      "Ġsab": 5274,
      "urs": 5275,
      "ĠCam": 5276,
      "Ġintelligi": 5277,
      "Ġutriusque": 5278,
      "Ġcrass": 5279,
      "Ġrever": 5280,
      "Ġpecuniam": 5281,
      "Ġnati": 5282,
      "Ġcausas": 5283,
      "Ġtrit": 5284,
      "Ġphilosophia": 5285,
      "gine": 5286,
      "Ġquicquid": 5287,
      "Ġ23": 5288,
      "eterna": 5289,
      "Ġvires": 5290,
      "Ġmoribus": 5291,
      "ull": 5292,
      "Ġoratione": 5293,
      "ĠiP": 5294,
      "Ġclaud": 5295,
      "Ġidone": 5296,
      "toria": 5297,
      "inius": 5298,
      "Ġtanti": 5299,
      "Ġuas": 5300,
      "ĠFacilis": 5301,
      "pa": 5302,
      "Ġnostros": 5303,
      "Tunc": 5304,
      "me": 5305,
      "ade": 5306,
      "Ġceteris": 5307,
      "ĠVide": 5308,
      "Itaque": 5309,
      "Ġpossim": 5310,
      "Ġhaberet": 5311,
      "iciis": 5312,
      "ĠHieronym": 5313,
      "Ġdebere": 5314,
      "Ġdicatur": 5315,
      "Qua": 5316,
      "Ġdubio": 5317,
      "Ġmanet": 5318,
      "tamen": 5319,
      "Ġrestitu": 5320,
      "Ġger": 5321,
      "ĠConsequatur": 5322,
      "ugit": 5323,
      "ave": 5324,
      "Ġoleum": 5325,
      "Ġinvestig": 5326,
      "Ġfacultatem": 5327,
      "irmod": 5328,
      "000": 5329,
      "Ġiriure": 5330,
      "Ġcapitis": 5331,
      "ede": 5332,
      "Ġfluc": 5333,
      "ĠAqu": 5334,
      "ace": 5335,
      "Ġpeccatis": 5336,
      "Ġduae": 5337,
      "Ġsimiles": 5338,
      "ĠPis": 5339,
      "Ġgenti": 5340,
      "ĠMedic": 5341,
      "Ġsapientiae": 5342,
      "Ġgravi": 5343,
      "12": 5344,
      "Ġcivitate": 5345,
      "Ġnupti": 5346,
      "Ġappareat": 5347,
      "aculo": 5348,
      "Ġram": 5349,
      "Ġelabor": 5350,
      "Ġpom": 5351,
      "ĠJacob": 5352,
      "ĠHos": 5353,
      "umenta": 5354,
      "Ġsadipscing": 5355,
      "Ġimmort": 5356,
      "ĠIun": 5357,
      "Ġasp": 5358,
      "Ġcirciter": 5359,
      "Ġpoll": 5360,
      "//": 5361,
      "Ġcolum": 5362,
      "aequ": 5363,
      "Î·": 5364,
      "Ġimaginem": 5365,
      "Ġimposs": 5366,
      "Ġoperatur": 5367,
      "Ġordinis": 5368,
      "Ġquicquam": 5369,
      "SS": 5370,
      "Ġtales": 5371,
      "Ġspon": 5372,
      "Ġpastor": 5373,
      "hem": 5374,
      "Ġtollit": 5375,
      "diu": 5376,
      "atic": 5377,
      "Ġreges": 5378,
      "ÏĢ": 5379,
      "dii": 5380,
      "quaquam": 5381,
      "esto": 5382,
      "hort": 5383,
      "Ġsimile": 5384,
      "Ġconvenire": 5385,
      "ĠSer": 5386,
      "Ġheb": 5387,
      "Ġfacies": 5388,
      "Ġmane": 5389,
      "Ġnecessarium": 5390,
      "Ġfel": 5391,
      "ĠNobis": 5392,
      "Praeterea": 5393,
      "Ġhostium": 5394,
      "Ġinvidunt": 5395,
      "Ġiudicio": 5396,
      "osi": 5397,
      "Ġconspectu": 5398,
      "pera": 5399,
      "Ġtend": 5400,
      "Ġmirum": 5401,
      "Ġauro": 5402,
      "Ġtalem": 5403,
      "Ġtotus": 5404,
      "Cap": 5405,
      "Ġaliae": 5406,
      "Ġneglig": 5407,
      "ĠBapt": 5408,
      "Ġhistoria": 5409,
      "Ġincrem": 5410,
      "acem": 5411,
      "Ġfacilius": 5412,
      "Ġmomenti": 5413,
      "Ġdiuis": 5414,
      "Ġpress": 5415,
      "ĠEpist": 5416,
      "Ġnegotium": 5417,
      "Ġfix": 5418,
      "Ġconsetetur": 5419,
      "ĠDign": 5420,
      "abuntur": 5421,
      "Ġurg": 5422,
      "Ideo": 5423,
      "erebat": 5424,
      "Ġdefunc": 5425,
      "Ġnonummy": 5426,
      "atat": 5427,
      "terum": 5428,
      "Ġmundus": 5429,
      "Ġimprob": 5430,
      "Ġbo": 5431,
      "Ġintelligere": 5432,
      "Ġci": 5433,
      "estia": 5434,
      "ophras": 5435,
      "Ġmisericordia": 5436,
      "ĠBas": 5437,
      "Ġlon": 5438,
      "Ġforo": 5439,
      "Ġimpon": 5440,
      "Ġdefini": 5441,
      "Ġbella": 5442,
      "idae": 5443,
      "Ġcomes": 5444,
      "Ġpublicae": 5445,
      "Ġeundem": 5446,
      "Ġpi": 5447,
      "Ġlocutus": 5448,
      "osis": 5449,
      "Ġcongr": 5450,
      "Ġsanctis": 5451,
      "Ġcomment": 5452,
      "orn": 5453,
      "ĠQuoniam": 5454,
      "Ġperegrin": 5455,
      "Ġsupp": 5456,
      "Ġpromiss": 5457,
      "ĠDa": 5458,
      "Ġliceat": 5459,
      "mon": 5460,
      "erno": 5461,
      "gren": 5462,
      "ĠHanc": 5463,
      "Ġiuc": 5464,
      "Ġvox": 5465,
      "ĠPul": 5466,
      "Ġcus": 5467,
      "ĠRob": 5468,
      "arie": 5469,
      "ars": 5470,
      "Ġalbum": 5471,
      "ĠSolis": 5472,
      "raesent": 5473,
      "Ġcivibus": 5474,
      "Ġtation": 5475,
      "Ġfratrem": 5476,
      "Ġtribu": 5477,
      "Ġpericulum": 5478,
      "ole": 5479,
      "Ġcuram": 5480,
      "Ġexerci": 5481,
      "Ġperven": 5482,
      "Ġ+": 5483,
      "Ġpraesens": 5484,
      "Ġerip": 5485,
      "gna": 5486,
      "Ġbal": 5487,
      "Ġullum": 5488,
      "ermis": 5489,
      "ĠApr": 5490,
      "Ġcalam": 5491,
      "Ġseni": 5492,
      "Ġaliqui": 5493,
      "ĠPraec": 5494,
      "Ġpericulis": 5495,
      "Ġfacie": 5496,
      "ĠHe": 5497,
      "Ġitin": 5498,
      "teri": 5499,
      "Ġdicis": 5500,
      "etips": 5501,
      "ergren": 5502,
      "ĠPhilipp": 5503,
      "Ġpraebet": 5504,
      "val": 5505,
      "Ġconfus": 5506,
      "Ġdeinceps": 5507,
      "undia": 5508,
      "Ġgrau": 5509,
      "ĠAlb": 5510,
      "Ġstip": 5511,
      "Ġformae": 5512,
      "ĠFl": 5513,
      "eritas": 5514,
      "Ġcontemn": 5515,
      "Ġincipi": 5516,
      "Ġtranse": 5517,
      "Ġstudios": 5518,
      "Ġorbe": 5519,
      "Ġpup": 5520,
      "mas": 5521,
      "Ġlep": 5522,
      "Ġtribun": 5523,
      "Ġsacerdos": 5524,
      "ĠAfric": 5525,
      "ioque": 5526,
      "ĠMagna": 5527,
      "Ġperfic": 5528,
      "Ġaccusam": 5529,
      "Ġillas": 5530,
      "phon": 5531,
      "Ġaeterna": 5532,
      "Ġluptatum": 5533,
      "ulare": 5534,
      "Ġvoluptua": 5535,
      "Ġaeterno": 5536,
      "Ġinimicus": 5537,
      "Ġpectore": 5538,
      "',": 5539,
      "Ġuidelicet": 5540,
      "Ġreligionis": 5541,
      "Nos": 5542,
      "Ġnau": 5543,
      "Ġsuffrag": 5544,
      "Ġcapt": 5545,
      "Ġsuperb": 5546,
      "andos": 5547,
      "alitas": 5548,
      "Ġpropinqu": 5549,
      "ĠAbb": 5550,
      "Ġdicant": 5551,
      "ĠPhilosoph": 5552,
      "Ġsord": 5553,
      "trah": 5554,
      "Ġquaeso": 5555,
      "ĠSteph": 5556,
      "Ġconvenit": 5557,
      "Ġproducts": 5558,
      "Ġduabus": 5559,
      "30": 5560,
      "Ġimperf": 5561,
      "tini": 5562,
      "Ġpriu": 5563,
      "Ġhumili": 5564,
      "Ġlae": 5565,
      "Ġoporteat": 5566,
      "Ġfines": 5567,
      "Ġmanduc": 5568,
      "cunque": 5569,
      "Ġessentia": 5570,
      "ĠÐ": 5571,
      "angel": 5572,
      "Ġdefens": 5573,
      "eniunt": 5574,
      "Ġtribul": 5575,
      "IX": 5576,
      "Ġsale": 5577,
      "uriam": 5578,
      "Ġplan": 5579,
      "Ġalta": 5580,
      "Ġnonumy": 5581,
      "Ġnorm": 5582,
      "ĠAustr": 5583,
      "Ġdomesti": 5584,
      "Ġdivinae": 5585,
      "Ġcognov": 5586,
      "Ġponitur": 5587,
      "Ġaetate": 5588,
      "Ġsacris": 5589,
      "Ġstudium": 5590,
      "Ġsubstantiam": 5591,
      "ĠAccus": 5592,
      "enia": 5593,
      "umentum": 5594,
      "Ġsponte": 5595,
      "Ġpun": 5596,
      "octum": 5597,
      "Ġcasus": 5598,
      "Ġdemonst": 5599,
      "Ġvocibus": 5600,
      "Ġinscrip": 5601,
      "Ġscientiam": 5602,
      "ĠDis": 5603,
      "Ġpecunia": 5604,
      "Ġinterest": 5605,
      "Ġpericulo": 5606,
      "ĠCathol": 5607,
      "Ġturp": 5608,
      "tico": 5609,
      "Ġtemporum": 5610,
      "mum": 5611,
      "Ġaffectus": 5612,
      "Ġsym": 5613,
      "ĠQuando": 5614,
      "ĠMariae": 5615,
      "Ġvirtutes": 5616,
      "11": 5617,
      "acc": 5618,
      "usta": 5619,
      "itatu": 5620,
      "Ġmagnitudine": 5621,
      "escat": 5622,
      "Ġdignum": 5623,
      "Ġmajor": 5624,
      "Ġsurg": 5625,
      "ittitur": 5626,
      "ĠJohann": 5627,
      "Ġjuv": 5628,
      "ĠAdam": 5629,
      "ĠDeb": 5630,
      "Ġobv": 5631,
      "ubi": 5632,
      "Ġpertinent": 5633,
      "Ġinqui": 5634,
      "Ġludus": 5635,
      "anitas": 5636,
      "ĠUrb": 5637,
      "ĠOl": 5638,
      "ersus": 5639,
      "equitur": 5640,
      "Ġglob": 5641,
      "ĠCre": 5642,
      "Ġaltero": 5643,
      "Ġhabitus": 5644,
      "Ġpropheta": 5645,
      "avimus": 5646,
      "Ġfructum": 5647,
      "Ġirure": 5648,
      "Ġquaec": 5649,
      "erer": 5650,
      "Ġdiac": 5651,
      "Ġvigil": 5652,
      "Ġinteri": 5653,
      "Ġoppidum": 5654,
      "Ġintellectum": 5655,
      "arias": 5656,
      "ĠAliqu": 5657,
      "Ġpostr": 5658,
      "ĠMil": 5659,
      "Ġvolum": 5660,
      "log": 5661,
      "Ġpene": 5662,
      "Ġlatere": 5663,
      "Ġmatris": 5664,
      "Ġseg": 5665,
      "ĠIgitur": 5666,
      "Ġvultus": 5667,
      "Ġrud": 5668,
      "Ġuerbis": 5669,
      "Ġeirmod": 5670,
      "Ġmaiorum": 5671,
      "Ġbrevi": 5672,
      "Ġgubergren": 5673,
      "ĠMarc": 5674,
      "gnum": 5675,
      "Ġparva": 5676,
      "aly": 5677,
      "Ġinitium": 5678,
      "ĠRec": 5679,
      "eremus": 5680,
      "Ġattrib": 5681,
      "Ġinnum": 5682,
      "ĠAss": 5683,
      "iculum": 5684,
      "Ġremiss": 5685,
      "ĠCard": 5686,
      "Ġdeterr": 5687,
      "Ġsuad": 5688,
      "Ġdatum": 5689,
      "Ġdefic": 5690,
      "Ġcredere": 5691,
      "Ġsig": 5692,
      "Ġrip": 5693,
      "ĠSemper": 5694,
      "ĠEb": 5695,
      "Ġaccur": 5696,
      "emque": 5697,
      "Ġiuu": 5698,
      "oec": 5699,
      "ĠPrimo": 5700,
      "ĠEuropae": 5701,
      "Ġabhor": 5702,
      "Ġviribus": 5703,
      "Atque": 5704,
      "Ġsect": 5705,
      "Ġmatur": 5706,
      "Ġexcel": 5707,
      "ij": 5708,
      "tob": 5709,
      "ertus": 5710,
      "Ġsiquidem": 5711,
      "Ġdifferentia": 5712,
      "ĠTrans": 5713,
      "Ġreliqui": 5714,
      "averat": 5715,
      "ĠIlla": 5716,
      "Ġdictus": 5717,
      "Ġfiduc": 5718,
      "enos": 5719,
      "ĠRa": 5720,
      "Ġmelior": 5721,
      "Ġlup": 5722,
      "Res": 5723,
      "Sim": 5724,
      "Ġek": 5725,
      "ĠCapit": 5726,
      "Ġlibros": 5727,
      "Ġcotidi": 5728,
      "Ġhyp": 5729,
      "Ġfortis": 5730,
      "aque": 5731,
      "Ġnuncup": 5732,
      "Ġveritas": 5733,
      "itavit": 5734,
      "Ġsta": 5735,
      "Ġpeculi": 5736,
      "Ca": 5737,
      "rexit": 5738,
      "Ġpara": 5739,
      "Ġfabrica": 5740,
      "Ġassign": 5741,
      "udum": 5742,
      "ĠBern": 5743,
      "Ġdeos": 5744,
      "ĠOdio": 5745,
      "olas": 5746,
      "Ġelitr": 5747,
      "emos": 5748,
      "Ġvestris": 5749,
      "Ġcoeli": 5750,
      "Ġactio": 5751,
      "odum": 5752,
      "ĠTro": 5753,
      "andas": 5754,
      "Ġrevel": 5755,
      "Ġpotestas": 5756,
      "Ġconsc": 5757,
      "Ġamorem": 5758,
      "uitas": 5759,
      "Ġfabulas": 5760,
      "Ġjug": 5761,
      "Ter": 5762,
      "utio": 5763,
      "vum": 5764,
      "ĠBel": 5765,
      "ĠIesu": 5766,
      "ss": 5767,
      "aron": 5768,
      "Ġprobo": 5769,
      "Ġuenit": 5770,
      "Ġcertum": 5771,
      "Ġcontum": 5772,
      "ĠProv": 5773,
      "ugait": 5774,
      "Ġobj": 5775,
      "ĠSpiritum": 5776,
      "tric": 5777,
      "ingere": 5778,
      "Ġoption": 5779,
      "Ġlam": 5780,
      "Ġceteros": 5781,
      "ivi": 5782,
      "Ġsitum": 5783,
      "Ġperfecta": 5784,
      "opolit": 5785,
      "18": 5786,
      "Î»": 5787,
      "ĠQuas": 5788,
      "urrit": 5789,
      "Ġvirtutum": 5790,
      "ocus": 5791,
      "Ġsanctific": 5792,
      "ĠSaepe": 5793,
      "terius": 5794,
      "Ġcibum": 5795,
      "amenti": 5796,
      "Ġjudicio": 5797,
      "ĠApple": 5798,
      "Ġinstar": 5799,
      "ĠFilii": 5800,
      "erna": 5801,
      "ual": 5802,
      "Am": 5803,
      "uersa": 5804,
      "ĠTen": 5805,
      "ibil": 5806,
      "icarum": 5807,
      "tenus": 5808,
      "Ġsubm": 5809,
      "inio": 5810,
      "apropter": 5811,
      "icip": 5812,
      "\"..": 5813,
      "Ġaetatis": 5814,
      "aecat": 5815,
      "Ġalicuius": 5816,
      "Pl": 5817,
      "Ġhumani": 5818,
      "Ġcomplectitur": 5819,
      "Ġdolupt": 5820,
      "Ġtorm": 5821,
      "://": 5822,
      "Ïī": 5823,
      "imen": 5824,
      "ĠJus": 5825,
      "ko": 5826,
      "Ġproper": 5827,
      "itte": 5828,
      "ĠArab": 5829,
      "ĠIoannes": 5830,
      "Ġtub": 5831,
      "ĠSex": 5832,
      "odus": 5833,
      "issem": 5834,
      "tiae": 5835,
      "Ġdispens": 5836,
      "Ġgentibus": 5837,
      "Ġamoris": 5838,
      "Ġmonte": 5839,
      "Ġlumine": 5840,
      "ĠCuius": 5841,
      "Im": 5842,
      "ĠDenique": 5843,
      "Ġlaps": 5844,
      "Ġforis": 5845,
      "Ġveli": 5846,
      "ĠExcept": 5847,
      "Ġintegr": 5848,
      "ebris": 5849,
      "Ġcillum": 5850,
      "rex": 5851,
      "Ġbaptism": 5852,
      "Ġplat": 5853,
      "Ġprophe": 5854,
      "ĠRomanorum": 5855,
      "isso": 5856,
      "ĠAur": 5857,
      "Ġconfit": 5858,
      "Ġup": 5859,
      "Ġrebum": 5860,
      "Ġsystem": 5861,
      "Ġopportun": 5862,
      "erae": 5863,
      "Ġsuperbi": 5864,
      "Ġapostolus": 5865,
      "14": 5866,
      "Ġdomi": 5867,
      "elius": 5868,
      "ĠSax": 5869,
      "Ġusur": 5870,
      "Ġexplor": 5871,
      "Ġpatriae": 5872,
      "Ġinm": 5873,
      "Ġsita": 5874,
      "Ġerroribus": 5875,
      "Ġtrem": 5876,
      "rium": 5877,
      "Ġcapti": 5878,
      "ĠAcadem": 5879,
      "Ġuix": 5880,
      "Ġuera": 5881,
      "Ġaures": 5882,
      "ĠBland": 5883,
      "dium": 5884,
      "Ġtimore": 5885,
      "unam": 5886,
      "Ġclita": 5887,
      "Ġcontinuo": 5888,
      "utur": 5889,
      "Ġincred": 5890,
      "udo": 5891,
      "ĠOn": 5892,
      "abimus": 5893,
      "ĠConsectetur": 5894,
      "Ġpraesenti": 5895,
      "Ġcomed": 5896,
      "utam": 5897,
      "Ġincend": 5898,
      "Cur": 5899,
      "Ġpolit": 5900,
      "Ġtechnolog": 5901,
      "Ġpatriam": 5902,
      "Ġlatus": 5903,
      "Ġlin": 5904,
      "Ġdistingu": 5905,
      "Ġnequaquam": 5906,
      "Ġpondus": 5907,
      "Ġmisericordiam": 5908,
      "Ġvocatur": 5909,
      "ressus": 5910,
      "ze": 5911,
      "Ġvidisse": 5912,
      "ĠMea": 5913,
      "Ġsanguis": 5914,
      "Ġsubstantiae": 5915,
      "otam": 5916,
      "Ġresid": 5917,
      "Ġge": 5918,
      "Ġmeritis": 5919,
      "Ġnostrorum": 5920,
      "OS": 5921,
      "ejun": 5922,
      "Ġsuus": 5923,
      "Ġdicti": 5924,
      "Ġtenebris": 5925,
      "ĠFort": 5926,
      "Ġistius": 5927,
      "inorum": 5928,
      "ibili": 5929,
      "Ġfierent": 5930,
      "Ġweb": 5931,
      "Ġquamuis": 5932,
      "ose": 5933,
      "ingit": 5934,
      "Ġproprio": 5935,
      "Ġsemen": 5936,
      "Ġaudit": 5937,
      "Ġquosdam": 5938,
      "Ġoffendit": 5939,
      "Ġperspic": 5940,
      "Ġmanifestum": 5941,
      "Ġmaximum": 5942,
      "Ġadept": 5943,
      "Ġpraefect": 5944,
      "Ġadha": 5945,
      "rev": 5946,
      "Ġquotidie": 5947,
      "pol": 5948,
      "Ġvideatur": 5949,
      "ĠPho": 5950,
      "Ġcorrig": 5951,
      "illo": 5952,
      "Ġexercitum": 5953,
      "Ġurbs": 5954,
      "Ġlegibus": 5955,
      "Ġpraepos": 5956,
      "ĠSociet": 5957,
      "ticam": 5958,
      "ichae": 5959,
      "Ġdefinitionem": 5960,
      "Ġquaerere": 5961,
      "Ġvestrum": 5962,
      "ĠCorn": 5963,
      "ĠAegy": 5964,
      "Ġinsuper": 5965,
      "za": 5966,
      "Ġjure": 5967,
      "econom": 5968,
      "ĠSil": 5969,
      "Ġingredi": 5970,
      "ophi": 5971,
      "Ġcontradic": 5972,
      "Ġfecerunt": 5973,
      "Ġvent": 5974,
      "Ġaccipit": 5975,
      "ĠIohann": 5976,
      "Ġexcit": 5977,
      "Ġviginti": 5978,
      "Ġnutr": 5979,
      "Ġmillia": 5980,
      "Ġsemp": 5981,
      "Ġgloriae": 5982,
      "Ġlibera": 5983,
      "Ġvelle": 5984,
      "Ġmilitum": 5985,
      "Ġsuscip": 5986,
      "itit": 5987,
      "Ġdetra": 5988,
      "Ġcorda": 5989,
      "ĠMei": 5990,
      "Ġaccidens": 5991,
      "Ġoculi": 5992,
      "ĠSalom": 5993,
      "ĠSatur": 5994,
      "ĠDam": 5995,
      "Ġsolid": 5996,
      "Ġmaiorem": 5997,
      "Ġrecord": 5998,
      "ebitur": 5999,
      "idos": 6000,
      "Ġtradit": 6001,
      "Ġassid": 6002,
      "Ġabl": 6003,
      "estium": 6004,
      "Ġcontinet": 6005,
      "Ġingens": 6006,
      "Ġinquis": 6007,
      "Ġindulg": 6008,
      "ĠTim": 6009,
      "Ġmou": 6010,
      "Ġoffer": 6011,
      "ĠUsu": 6012,
      "Ġ26": 6013,
      "Ġfalsum": 6014,
      "Ġfieret": 6015,
      "Ġperfecto": 6016,
      "ril": 6017,
      "opoli": 6018,
      "ĠAet": 6019,
      "Ġscand": 6020,
      "ĠCel": 6021,
      "Ġsedes": 6022,
      "Ġquoddam": 6023,
      "Ġpassim": 6024,
      "Ġinclus": 6025,
      "Ġreprim": 6026,
      "ĠParis": 6027,
      "ĠVim": 6028,
      "Ġmutat": 6029,
      "elix": 6030,
      "utae": 6031,
      "acis": 6032,
      "Ġrecip": 6033,
      "Ġpietatis": 6034,
      "Ġcontingit": 6035,
      "ĠAst": 6036,
      "aniam": 6037,
      "Ġqualiter": 6038,
      "ogo": 6039,
      "nation": 6040,
      "illam": 6041,
      "pro": 6042,
      "Ġfalsa": 6043,
      "Ġve": 6044,
      "dom": 6045,
      "of": 6046,
      "Ġsequuntur": 6047,
      "Ġ--": 6048,
      "ĠXXX": 6049,
      "adis": 6050,
      "uls": 6051,
      "Ġdoctus": 6052,
      "ĠQuasi": 6053,
      "ueret": 6054,
      "ĠPoss": 6055,
      "Ġsolem": 6056,
      "alitatem": 6057,
      "Ġdest": 6058,
      "ulto": 6059,
      "ĠAmb": 6060,
      "ativa": 6061,
      "Ġlibrum": 6062,
      "Ġantec": 6063,
      "iderint": 6064,
      "Uel": 6065,
      "ceper": 6066,
      "ĠItal": 6067,
      "Ġduce": 6068,
      "Ġdecus": 6069,
      "mae": 6070,
      "Ġpurp": 6071,
      "Ġjac": 6072,
      "ĠMor": 6073,
      "itto": 6074,
      "Ġornatus": 6075,
      "Ġsustent": 6076,
      "ĠIgn": 6077,
      "uorum": 6078,
      "tex": 6079,
      "Ġhactenus": 6080,
      "ĠFlor": 6081,
      "mata": 6082,
      "Ġexplicari": 6083,
      "Ġcomprehend": 6084,
      "Quare": 6085,
      "ĠLong": 6086,
      "sed": 6087,
      "tigit": 6088,
      "Ġimago": 6089,
      "Ġpotentiam": 6090,
      "Ġumquam": 6091,
      "ĠScriptura": 6092,
      "usus": 6093,
      "Ġinquantum": 6094,
      "Ġcircuit": 6095,
      "Ġadulter": 6096,
      "Ġlinguae": 6097,
      "bit": 6098,
      "rii": 6099,
      "Ġinfid": 6100,
      "imos": 6101,
      "mos": 6102,
      "Ġperag": 6103,
      "Ġfuerant": 6104,
      "Ġdicto": 6105,
      "Ġmonasterio": 6106,
      "erio": 6107,
      "Ġnaturaliter": 6108,
      "Ġequit": 6109,
      "Ġaddit": 6110,
      "Ġextremum": 6111,
      "ĠJoannes": 6112,
      "Ġapos": 6113,
      "Ġvenire": 6114,
      "Ġfugi": 6115,
      "Ġterras": 6116,
      "Ġidcirco": 6117,
      "Ġhae": 6118,
      "Ġposita": 6119,
      "Ġmaledic": 6120,
      "ĠGeorg": 6121,
      "issi": 6122,
      "ĠItaliae": 6123,
      "Ġperg": 6124,
      "ĠBab": 6125,
      "Ġfamilia": 6126,
      "Ġpax": 6127,
      "Ġsenatus": 6128,
      "uy": 6129,
      "Ġfiliorum": 6130,
      "ĠTab": 6131,
      "Ġuelut": 6132,
      "16": 6133,
      "ĠIpsa": 6134,
      "orio": 6135,
      "Ġ27": 6136,
      "Ġagitur": 6137,
      "Ġimperii": 6138,
      "Ġcorporum": 6139,
      "Ġmandamus": 6140,
      "Ġstatum": 6141,
      "ures": 6142,
      "Ġpartis": 6143,
      "Ġultimum": 6144,
      "Ġtyp": 6145,
      "OR": 6146,
      "Ġlibid": 6147,
      "Ġappellatur": 6148,
      "ĠBa": 6149,
      "Ġfals": 6150,
      "Ġquoad": 6151,
      "ĠSyn": 6152,
      "ĠCup": 6153,
      "ester": 6154,
      "Ġrapt": 6155,
      "Ġsid": 6156,
      "Ġmusc": 6157,
      "ĠPop": 6158,
      "Ġdonum": 6159,
      "Ġauri": 6160,
      "ĠÂ§": 6161,
      "Ġdigna": 6162,
      "Ġconspic": 6163,
      "Ġfluv": 6164,
      "ulares": 6165,
      "Ġquarto": 6166,
      "Ġistam": 6167,
      "Ġdiuina": 6168,
      "Ġatom": 6169,
      "Ġfati": 6170,
      "Ġscientiae": 6171,
      "Ġepiscopum": 6172,
      "ĠSar": 6173,
      "Ġsapientem": 6174,
      "ĠRegis": 6175,
      "idas": 6176,
      "Ġdisper": 6177,
      "Ġspoli": 6178,
      "iscus": 6179,
      "Ġconstituto": 6180,
      "rentur": 6181,
      "aturque": 6182,
      "Ġcerto": 6183,
      "Ġincom": 6184,
      "ineat": 6185,
      "ĠHom": 6186,
      "Ġcommut": 6187,
      "ĠIov": 6188,
      "erii": 6189,
      "Ġdeg": 6190,
      "Ġpersonae": 6191,
      "Ġaffic": 6192,
      "Ġuent": 6193,
      "Ġreddere": 6194,
      "ĠGalli": 6195,
      "ibilia": 6196,
      "Ġsimilia": 6197,
      "Ġregna": 6198,
      "Ġpaulatim": 6199,
      "ĠLatine": 6200,
      "Ġoppon": 6201,
      "erni": 6202,
      "Ġiisque": 6203,
      "ĠSec": 6204,
      "Ġmedit": 6205,
      "Ġreddit": 6206,
      "andri": 6207,
      "Ġsubl": 6208,
      "Ġ28": 6209,
      "Ġampli": 6210,
      "ĠAmeric": 6211,
      "Ġsuprem": 6212,
      "ĠMort": 6213,
      "Ġspons": 6214,
      "Ġsicc": 6215,
      "Ġproductum": 6216,
      "Ġmaiestatis": 6217,
      "Ġmatrem": 6218,
      "EN": 6219,
      "ĠSup": 6220,
      "Ġreperi": 6221,
      "orumque": 6222,
      "Ġilluc": 6223,
      "ĠDie": 6224,
      "Ġjejun": 6225,
      "ik": 6226,
      "Ġfaceret": 6227,
      "rys": 6228,
      "acti": 6229,
      "Ġsole": 6230,
      "Sunt": 6231,
      "Ġrespectu": 6232,
      "Ġnex": 6233,
      "Ġalteri": 6234,
      "Ġhospit": 6235,
      "berg": 6236,
      "Ġassentior": 6237,
      "Ġtulit": 6238,
      "Ġsepulc": 6239,
      "ommunic": 6240,
      "Ġnou": 6241,
      "Ġaltare": 6242,
      "Ġfeugait": 6243,
      "Ġmenses": 6244,
      "tima": 6245,
      "Ġaegr": 6246,
      "Ġosc": 6247,
      "ĠUir": 6248,
      "antas": 6249,
      "Ġviros": 6250,
      "Ġprecibus": 6251,
      "Ġquaerendum": 6252,
      "Ġpatres": 6253,
      "Ġconven": 6254,
      "Ġsinc": 6255,
      "Ġinh": 6256,
      "Ġsummus": 6257,
      "achi": 6258,
      "uia": 6259,
      "Ġcooper": 6260,
      "Ġconstituit": 6261,
      "Ġprovincia": 6262,
      "osus": 6263,
      "ĠiPhone": 6264,
      "Ġiota": 6265,
      "ĠBeat": 6266,
      "Ġsacramentum": 6267,
      "zim": 6268,
      "Ġeur": 6269,
      "alli": 6270,
      "Ġhabitu": 6271,
      "Ġexim": 6272,
      "Ġconclusionem": 6273,
      "ĠAugusti": 6274,
      "Ġexemplar": 6275,
      "Ġdierum": 6276,
      "Ġagens": 6277,
      "Ġproident": 6278,
      "igr": 6279,
      "Ġgerm": 6280,
      "Ġoccaecat": 6281,
      "Ġdict": 6282,
      "Ġastr": 6283,
      "Ġintroduc": 6284,
      "ous": 6285,
      "let": 6286,
      "Ġgradum": 6287,
      "Ġdoloris": 6288,
      "Ġsacerdotes": 6289,
      "Ġvidet": 6290,
      "Ġomnesque": 6291,
      "Ap": 6292,
      "Ġdoctrinam": 6293,
      "LI": 6294,
      "Ġchoro": 6295,
      "actis": 6296,
      "Ġstruc": 6297,
      "Ġfunc": 6298,
      "ĠHac": 6299,
      "Ġmeos": 6300,
      "Ġferi": 6301,
      "Ġconsilia": 6302,
      "ĠAbraham": 6303,
      "Ġsedem": 6304,
      "Ġmonasterium": 6305,
      "XXX": 6306,
      "Ġcolore": 6307,
      "Ġtriginta": 6308,
      "ectiones": 6309,
      "ĠOctob": 6310,
      "13": 6311,
      "ĠRomana": 6312,
      "Ġgloriatur": 6313,
      "ĠBene": 6314,
      "zon": 6315,
      "quisque": 6316,
      "dae": 6317,
      "illis": 6318,
      "Ġpuls": 6319,
      "Ġvocant": 6320,
      "Ġdecet": 6321,
      "ĠprÃ¦s": 6322,
      "Ġaccidit": 6323,
      "arit": 6324,
      "teret": 6325,
      "Ġiussit": 6326,
      "Ġlacrym": 6327,
      "Ġultima": 6328,
      "ĠMartyr": 6329,
      "Ġpatitur": 6330,
      "terem": 6331,
      "Ġsapiens": 6332,
      "Ġprincipia": 6333,
      "ĠDiam": 6334,
      "ĠDisc": 6335,
      "hel": 6336,
      "Ips": 6337,
      "Ġquarta": 6338,
      "Ne": 6339,
      "Ġcorrup": 6340,
      "Ġadolescens": 6341,
      "Ġsursum": 6342,
      "ĠFebr": 6343,
      "kara": 6344,
      "Ġaquas": 6345,
      "Ġcontrarium": 6346,
      "Ġcaetera": 6347,
      "Ġnata": 6348,
      "Ġcivitas": 6349,
      "Ġcupidatat": 6350,
      "ĠIbi": 6351,
      "ĠHunc": 6352,
      "acium": 6353,
      "Ġeligere": 6354,
      "Ġsacerdo": 6355,
      "Ġdissentiunt": 6356,
      "iph": 6357,
      "vus": 6358,
      "Ġpueri": 6359,
      "lioth": 6360,
      "Ġmunicip": 6361,
      "ork": 6362,
      "ĠPauli": 6363,
      "Ġpossis": 6364,
      "ĠBer": 6365,
      "erique": 6366,
      "Ġdelenit": 6367,
      "Ġobsid": 6368,
      "Ġsuscept": 6369,
      "gni": 6370,
      "Ġnavig": 6371,
      "icibus": 6372,
      "avisse": 6373,
      "aco": 6374,
      "ĠSea": 6375,
      "Ġpercipit": 6376,
      "ĠItalia": 6377,
      "illel": 6378,
      "Ġvocab": 6379,
      "Ġfratrum": 6380,
      "eus": 6381,
      "Ġpretios": 6382,
      "urreret": 6383,
      "aturus": 6384,
      "Ġquamquam": 6385,
      "pha": 6386,
      "Ġconduc": 6387,
      "Ġedic": 6388,
      "Ġreliqua": 6389,
      "Ġaffert": 6390,
      "vam": 6391,
      "Ġeruditi": 6392,
      "Ġservus": 6393,
      "lorum": 6394,
      "Ġreliquis": 6395,
      "Ġfecerit": 6396,
      "ĠÃ": 6397,
      "Ġcustodi": 6398,
      "ÍĤ": 6399,
      "Ġdesper": 6400,
      "Pos": 6401,
      "Ġfru": 6402,
      "Ġhosti": 6403,
      "Ġlucis": 6404,
      "Ġoris": 6405,
      "vae": 6406,
      "Ġlatine": 6407,
      "Ġmultas": 6408,
      "Ġsaecula": 6409,
      "Ġspatio": 6410,
      "Ġcorporibus": 6411,
      "Ġtard": 6412,
      "Ġperu": 6413,
      "ĠHerc": 6414,
      "Ġimple": 6415,
      "Ġdamnum": 6416,
      "ĠCant": 6417,
      "ĠHipp": 6418,
      "Ġinstrumentum": 6419,
      "ĠIllud": 6420,
      "Ġsempiter": 6421,
      "Ġaquis": 6422,
      "entissime": 6423,
      "Uerum": 6424,
      "Ġrespic": 6425,
      "Ġaccommodare": 6426,
      "Ġvivendum": 6427,
      "Ġintend": 6428,
      "itudines": 6429,
      "oan": 6430,
      "Ġ:.": 6431,
      "ĠRomanis": 6432,
      "ĠProph": 6433,
      "onius": 6434,
      "Ġamo": 6435,
      "athed": 6436,
      "Ġnecessario": 6437,
      "Ġpretio": 6438,
      "Ġip": 6439,
      "Ġbesti": 6440,
      "ĠFam": 6441,
      "ow": 6442,
      "Ġdigit": 6443,
      "entiarum": 6444,
      "ĠPetro": 6445,
      "Ġperturb": 6446,
      "Ġhonestatis": 6447,
      "ĠRoma": 6448,
      "verunt": 6449,
      "Ġproj": 6450,
      "Ġnominati": 6451,
      "Ġsepul": 6452,
      "Ġstatus": 6453,
      "Ġamicitia": 6454,
      "Ġfructu": 6455,
      "Ġcognoscere": 6456,
      "Ġconsp": 6457,
      "Ġprobatus": 6458,
      "Ġperp": 6459,
      "Ġlatr": 6460,
      "Ġsenserit": 6461,
      "Ġfen": 6462,
      "ĠUllam": 6463,
      "Ġaduersus": 6464,
      "ĠFilio": 6465,
      "Ġpropriis": 6466,
      "Ġquaeritur": 6467,
      "ĠAnn": 6468,
      "ernum": 6469,
      "Ġpetit": 6470,
      "Ġ199": 6471,
      "Ġcetero": 6472,
      "Ġperduc": 6473,
      "hilosophi": 6474,
      "ĠDolores": 6475,
      "Ġpublice": 6476,
      "aevola": 6477,
      "Ġveluti": 6478,
      "Ġpari": 6479,
      "Ġponere": 6480,
      "ĠLeo": 6481,
      "Ġignota": 6482,
      "Ġfestin": 6483,
      "Ġpulchr": 6484,
      "Ġasser": 6485,
      "ĠConstantin": 6486,
      "Ġamici": 6487,
      "Ġgign": 6488,
      "Ġliquid": 6489,
      "Ġconvert": 6490,
      "ON": 6491,
      "ĠPrima": 6492,
      "Ġ\".": 6493,
      "Ġpositum": 6494,
      "ĠPhil": 6495,
      "Ġmeridi": 6496,
      "ophrastus": 6497,
      "ĠDig": 6498,
      "inet": 6499,
      "ĠEc": 6500,
      "Ġabbas": 6501,
      "Ġdecern": 6502,
      "Ġindiv": 6503,
      "Ġcoc": 6504,
      "Ġdescendit": 6505,
      "Ġuter": 6506,
      "Ġmora": 6507,
      "Ġflex": 6508,
      "Ġpercipitur": 6509,
      "Ġpanis": 6510,
      "Ġimpossibile": 6511,
      "Ġiura": 6512,
      "ĠAnt": 6513,
      "Ġattend": 6514,
      "ations": 6515,
      "ĠRuss": 6516,
      "ĠVerbum": 6517,
      "Ġregum": 6518,
      "ularibus": 6519,
      "Ġdubium": 6520,
      "Ġforet": 6521,
      "Ġtantas": 6522,
      "ĠCae": 6523,
      "Ġopes": 6524,
      "toris": 6525,
      "Ġcale": 6526,
      "ĠSyr": 6527,
      "Ġstir": 6528,
      "ĠQuorum": 6529,
      "Ġfidelium": 6530,
      "Ġexpetenda": 6531,
      "Ġconuers": 6532,
      "nox": 6533,
      "Ġtoler": 6534,
      "Ġconiung": 6535,
      "Ġcapita": 6536,
      "tol": 6537,
      "mentum": 6538,
      "):": 6539,
      "ungit": 6540,
      "ĠGraeci": 6541,
      "Tu": 6542,
      "Ġmeliore": 6543,
      "ĠRomano": 6544,
      "anno": 6545,
      "ĠMer": 6546,
      "ĠVII": 6547,
      "Ġcin": 6548,
      "Ġhostis": 6549,
      "Ġlangu": 6550,
      "Ġii": 6551,
      "Ġincorrupt": 6552,
      "Ġdul": 6553,
      "Ġsuperfic": 6554,
      "ĠSci": 6555,
      "Ġfum": 6556,
      "ĠTamen": 6557,
      "uerant": 6558,
      "Ġumbra": 6559,
      "Ġintelligitur": 6560,
      "Ġscripserit": 6561,
      "ĠIllum": 6562,
      "ado": 6563,
      "uros": 6564,
      "Ġartes": 6565,
      "Ecce": 6566,
      "Ġspirit": 6567,
      "Ġdiversa": 6568,
      ",,": 6569,
      "Ġperfectum": 6570,
      "Ġvisum": 6571,
      "Ġveritate": 6572,
      "Ġsubdit": 6573,
      "Ġdeorum": 6574,
      "acus": 6575,
      "Ġputa": 6576,
      "ĠPrÃ¦": 6577,
      "Ġvoluntatis": 6578,
      "Ġitinere": 6579,
      "Ġtenere": 6580,
      "ulph": 6581,
      "Ġpoenam": 6582,
      "Ġdocendi": 6583,
      "tinet": 6584,
      "ry": 6585,
      "Ġurbes": 6586,
      "Ġapprob": 6587,
      "Ġingenio": 6588,
      "ĠHebrae": 6589,
      "ucc": 6590,
      "Ġthesa": 6591,
      "yrr": 6592,
      "Ġassue": 6593,
      "idie": 6594,
      "nit": 6595,
      "50": 6596,
      "Ġapostoli": 6597,
      "Ġartem": 6598,
      "Î¼": 6599,
      "ĠUS": 6600,
      "ĠSalv": 6601,
      "Ġlibertatem": 6602,
      "redi": 6603,
      "Ġutitur": 6604,
      "ĠHuius": 6605,
      "ĠcÅĵ": 6606,
      "Ġmollit": 6607,
      "Ġconsulatu": 6608,
      "ĠRespond": 6609,
      "Ġiei": 6610,
      "ĠMedi": 6611,
      "Ġfov": 6612,
      "ĠExc": 6613,
      "ĠTib": 6614,
      "Ġmonstr": 6615,
      "Ġimmut": 6616,
      "Ġdari": 6617,
      "Ġiracundia": 6618,
      "idens": 6619,
      "Ġjustitiam": 6620,
      "Ġquodammodo": 6621,
      "Ġcentrum": 6622,
      "Ġinquir": 6623,
      "ticus": 6624,
      "lab": 6625,
      "Ġ40": 6626,
      "Ġdecore": 6627,
      "Ġprobat": 6628,
      "ologia": 6629,
      "Ġcontentus": 6630,
      "Ġpersecuti": 6631,
      "Ġfratris": 6632,
      "Ġdeu": 6633,
      "Ġcanc": 6634,
      "Ġullo": 6635,
      "Ġcrucis": 6636,
      "Ġduplex": 6637,
      "isco": 6638,
      "Ġimpress": 6639,
      "Ġcontentiones": 6640,
      "Ġpraesentia": 6641,
      "Ġphys": 6642,
      "Ġexaud": 6643,
      "urei": 6644,
      "Ġauxilio": 6645,
      "ĠRed": 6646,
      "Ġincho": 6647,
      "Ġsuffici": 6648,
      "ĠOs": 6649,
      "ĠProf": 6650,
      "Ġcorrumpit": 6651,
      "Quem": 6652,
      "Ġdefinitiones": 6653,
      "Ġconjug": 6654,
      "tat": 6655,
      "Ġpotissimum": 6656,
      "ĠTam": 6657,
      "Ġanimalia": 6658,
      "Quibus": 6659,
      "utionem": 6660,
      "Ġvag": 6661,
      "Ġancillae": 6662,
      "ĠTar": 6663,
      "Ġuere": 6664,
      "pianus": 6665,
      "Ġtes": 6666,
      "Ġsalub": 6667,
      "Ġaufer": 6668,
      "ww": 6669,
      "archum": 6670,
      "Ġconscrip": 6671,
      "Ġaduers": 6672,
      "ĠLig": 6673,
      "Ġprist": 6674,
      "Ġquaerit": 6675,
      "Ġars": 6676,
      "Ġcreatura": 6677,
      "ĠGallic": 6678,
      "alam": 6679,
      "Ġmultorum": 6680,
      "Ġintegre": 6681,
      "22": 6682,
      "Ġquoc": 6683,
      "Ġinterdic": 6684,
      "Ġcolloqu": 6685,
      "Ġfrum": 6686,
      "ãĥ": 6687,
      "Ġridens": 6688,
      "Ġlongum": 6689,
      "Ġulc": 6690,
      "Ġvulgo": 6691,
      "Ġhabitum": 6692,
      "Ġerig": 6693,
      "ordia": 6694,
      "Ġtou": 6695,
      "Ġoeconom": 6696,
      "Ġprocedit": 6697,
      "Ġjustitia": 6698,
      "Ġinterm": 6699,
      "Ġadversarium": 6700,
      "Ġcontinu": 6701,
      "Ġsuperst": 6702,
      "Ġscriptorem": 6703,
      "17": 6704,
      "Ġascendit": 6705,
      "Ġexclud": 6706,
      "Ġlas": 6707,
      "Ġaeternam": 6708,
      "Ġintellegam": 6709,
      "ler": 6710,
      "Ġpulv": 6711,
      "ĠEph": 6712,
      "Ġeloquentiam": 6713,
      "ertum": 6714,
      "Ġpertinacia": 6715,
      "Ġtitulo": 6716,
      "ulli": 6717,
      "ĠCommun": 6718,
      "Ġfacil": 6719,
      "ĠNot": 6720,
      "pote": 6721,
      "ki": 6722,
      "Ġstudiis": 6723,
      "Ġsubscrip": 6724,
      "Ġpassus": 6725,
      "ĠUltr": 6726,
      "Ġfaciet": 6727,
      "Ġsuavitate": 6728,
      "Ġlibenter": 6729,
      "Ġuerbum": 6730,
      "Ġfrang": 6731,
      "Ġnovi": 6732,
      "Ġoptimus": 6733,
      "rates": 6734,
      "Ġsuppos": 6735,
      "ticorum": 6736,
      "Ġmorb": 6737,
      "Ġdicentes": 6738,
      "Ġanimas": 6739,
      "ven": 6740,
      "Ġnostras": 6741,
      "Hab": 6742,
      "Ġcereb": 6743,
      "Ġsinistr": 6744,
      "Ġappetere": 6745,
      "ĠAegypti": 6746,
      "Ġetiamsi": 6747,
      "yb": 6748,
      "Ġgaudium": 6749,
      "Ġsarc": 6750,
      "Ġaeth": 6751,
      "Ġrepraesent": 6752,
      "Ġvehementer": 6753,
      "Ġessenti": 6754,
      "Ġdiligit": 6755,
      "ĠApoll": 6756,
      "Ġlaboramus": 6757,
      "Ġuirg": 6758,
      "Ġprovoc": 6759,
      "ĠObs": 6760,
      "Ġtempt": 6761,
      "ĠIii": 6762,
      "Ġplacuit": 6763,
      "Ġimagines": 6764,
      "Ġtemplo": 6765,
      "Ġdebes": 6766,
      "Ġfata": 6767,
      "Ġpostulant": 6768,
      "ĠLacus": 6769,
      "Ġpotentiae": 6770,
      "Ġmultitudo": 6771,
      "Ġuac": 6772,
      "ĠProb": 6773,
      "Ġinfl": 6774,
      "Ġfiliam": 6775,
      "Ġreb": 6776,
      "ĠMagni": 6777,
      "Ġagam": 6778,
      "Ġepistola": 6779,
      "scrib": 6780,
      "Ġmorbo": 6781,
      "ĠRepell": 6782,
      "Sc": 6783,
      "Ġquandam": 6784,
      "Ġgrand": 6785,
      "Ġputent": 6786,
      "Ġfideles": 6787,
      "Ġduorum": 6788,
      "Ġpropriam": 6789,
      "Ġprimae": 6790,
      "Ġfrug": 6791,
      "Ġeisdem": 6792,
      "Ġnaturali": 6793,
      "Ġillae": 6794,
      "vir": 6795,
      "Ġlen": 6796,
      "Ġsummam": 6797,
      "Ġactiones": 6798,
      "Ġconsenti": 6799,
      "Ġpersonam": 6800,
      "Ġsapientiam": 6801,
      "Ġquali": 6802,
      "Ġlitterarum": 6803,
      "Ġpagina": 6804,
      "estil": 6805,
      "ĠJerusalem": 6806,
      "Ġhoras": 6807,
      "Ġnas": 6808,
      "Ġpoenitentiam": 6809,
      "Ġnativ": 6810,
      "Ġpertinax": 6811,
      "Ġlongius": 6812,
      "Ġeripuit": 6813,
      "Ġnu": 6814,
      "ĠRomanae": 6815,
      "ĠDau": 6816,
      "Ġdicebat": 6817,
      "rici": 6818,
      "Ġcognitionem": 6819,
      "ĠPag": 6820,
      "Ġincarn": 6821,
      "Ġmetr": 6822,
      "Ġamicis": 6823,
      "ĠPetrum": 6824,
      "Ġregionibus": 6825,
      "Ġgravis": 6826,
      "Ġpauca": 6827,
      "udit": 6828,
      "Ġlabitur": 6829,
      "ĠHon": 6830,
      "Ġreliquit": 6831,
      "ĠNeg": 6832,
      "acter": 6833,
      "ordin": 6834,
      "Ġperpetuo": 6835,
      "atissimi": 6836,
      "Ġcomitatu": 6837,
      "Ġexperientia": 6838,
      "Ġdifficile": 6839,
      "Ġfrequenter": 6840,
      "Ġlinguam": 6841,
      "Ġproximum": 6842,
      "Ġdictas": 6843,
      "Ġnovo": 6844,
      "port": 6845,
      "iosa": 6846,
      "Ġgut": 6847,
      "ittunt": 6848,
      "Ġmaius": 6849,
      "Ġra": 6850,
      "Ġsingulos": 6851,
      "Ġsalute": 6852,
      "Ġdisciplina": 6853,
      "Ġinani": 6854,
      "Ġpraestare": 6855,
      "Ġinsula": 6856,
      "reant": 6857,
      "ĠContra": 6858,
      "ĠLibero": 6859,
      "Ġsedis": 6860,
      "Ġinstrumenta": 6861,
      "Ġsemetips": 6862,
      "Ġauctoritatem": 6863,
      "turis": 6864,
      "Ġmontem": 6865,
      "Ġreced": 6866,
      "form": 6867,
      "Ġsermonem": 6868,
      "Ġdepon": 6869,
      "Ġpess": 6870,
      "sic": 6871,
      "Ġ29": 6872,
      "ĠSanctus": 6873,
      "Ġpoterant": 6874,
      "ĠAristoteles": 6875,
      "ĠDion": 6876,
      "Ġpectus": 6877,
      "Ġcogitationes": 6878,
      "ĠCamp": 6879,
      "ĠEpiscopus": 6880,
      "ĠMaxime": 6881,
      "man": 6882,
      "iturus": 6883,
      "Ġiustitia": 6884,
      "Ġhym": 6885,
      "Ġplurima": 6886,
      "ĠMolestiae": 6887,
      "Ġretro": 6888,
      "Ġoperum": 6889,
      "ibilem": 6890,
      "eci": 6891,
      "Ġuersus": 6892,
      "Ġremov": 6893,
      "Ġutilitatem": 6894,
      "otem": 6895,
      "Ġinteresset": 6896,
      "Ġsignis": 6897,
      "Ġabscond": 6898,
      "Ġconsue": 6899,
      "Ġtuorum": 6900,
      "aturae": 6901,
      "Ġindoctum": 6902,
      "icia": 6903,
      "onc": 6904,
      "Ġape": 6905,
      "Ġdit": 6906,
      "ĠXII": 6907,
      "graph": 6908,
      "Ġveritus": 6909,
      "Ġregio": 6910,
      ",\"": 6911,
      "ĠEuangeli": 6912,
      "ĠMercur": 6913,
      "Ġcaptiv": 6914,
      "Ġfol": 6915,
      "Ġinvenitur": 6916,
      "abilia": 6917,
      "ĠAntioch": 6918,
      "Ġexpetendis": 6919,
      "Ġpign": 6920,
      "Ġtalibus": 6921,
      "ĠTorqu": 6922,
      "atii": 6923,
      "emini": 6924,
      "Ġprotinus": 6925,
      "gress": 6926,
      "fus": 6927,
      "ipidis": 6928,
      "undam": 6929,
      "Ġauxili": 6930,
      "Ġmentitum": 6931,
      "Ġquadraginta": 6932,
      "Ġcircums": 6933,
      "Ġpertinere": 6934,
      "Ġpate": 6935,
      "Ġaliena": 6936,
      "Ġomittam": 6937,
      "Ġpropag": 6938,
      "Ġpotens": 6939,
      "Ġalicui": 6940,
      "Ġconstr": 6941,
      "ĠBabyl": 6942,
      "Ġimmo": 6943,
      "Ġhil": 6944,
      "ularem": 6945,
      "Ġsignif": 6946,
      "Ġtranqu": 6947,
      "Ġdabit": 6948,
      "Ġbeatum": 6949,
      "Ġpersequeris": 6950,
      "ĠMaced": 6951,
      "Ġhodi": 6952,
      "Par": 6953,
      "Ġprompta": 6954,
      "utos": 6955,
      "Ġministerium": 6956,
      "Ġgentis": 6957,
      "Ġpauci": 6958,
      "ĠIndic": 6959,
      "Ġalteram": 6960,
      "Ġhostem": 6961,
      "vers": 6962,
      "Ġfaciens": 6963,
      "Ġcursu": 6964,
      "Ġvidemus": 6965,
      "Ġefficiantur": 6966,
      "ĠFebru": 6967,
      "Ġhiem": 6968,
      "),.": 6969,
      "Ġfalli": 6970,
      "Ġinuti": 6971,
      "Ġintellegat": 6972,
      "Ġacquir": 6973,
      "Ġmemoriae": 6974,
      "Ġservit": 6975,
      "ĠTibi": 6976,
      "Ġvocat": 6977,
      "idans": 6978,
      "thag": 6979,
      "iscing": 6980,
      "ĠDicit": 6981,
      "Ġieiun": 6982,
      "emper": 6983,
      "Ġioc": 6984,
      "Ġlar": 6985,
      "Ġlav": 6986,
      "ĠAndre": 6987,
      "Ġmediocrem": 6988,
      "Ġfacer": 6989,
      "Ġsplendide": 6990,
      "Ġcitius": 6991,
      "ode": 6992,
      "Ġcomplex": 6993,
      "Ġorigin": 6994,
      "Ġapostolorum": 6995,
      "Ġjustitiae": 6996,
      "init": 6997,
      "Ġcastris": 6998,
      "Ġsoleat": 6999,
      "nem": 7000,
      "Ġfiant": 7001,
      "Ġdisputando": 7002,
      "Ġsubti": 7003,
      "Ġarbit": 7004,
      "Ġdixerit": 7005,
      "Ġ50": 7006,
      "Ġdetraxit": 7007,
      "ĠQuamquam": 7008,
      "ĠAnglic": 7009,
      "Ġefficiendi": 7010,
      "itti": 7011,
      "Ġuiri": 7012,
      "Ġargentum": 7013,
      "eda": 7014,
      "rus": 7015,
      "atque": 7016,
      "Ġaperiri": 7017,
      "Ġapparuit": 7018,
      "ĠHor": 7019,
      "Ġcondemn": 7020,
      "Ġiras": 7021,
      "turus": 7022,
      "etate": 7023,
      "incia": 7024,
      "opam": 7025,
      "Ġpub": 7026,
      "ticos": 7027,
      "Ġdemocr": 7028,
      "Ġpalam": 7029,
      "inea": 7030,
      "Ġsob": 7031,
      "Ġprodesset": 7032,
      "ĠIanu": 7033,
      "ĠIacob": 7034,
      "idiam": 7035,
      "Ġoccult": 7036,
      "natus": 7037,
      "Ġgenuit": 7038,
      "Ġutamur": 7039,
      "ptis": 7040,
      "Ġcarmina": 7041,
      "Ġpraesto": 7042,
      "aedrum": 7043,
      "ian": 7044,
      "Ġdioec": 7045,
      "Ġferrum": 7046,
      "Ġexcommunic": 7047,
      "ĠExerc": 7048,
      "Ġprav": 7049,
      "oma": 7050,
      "Ġuirtute": 7051,
      "Ġsubsist": 7052,
      "omet": 7053,
      "Ġtibique": 7054,
      "Ġfertur": 7055,
      "uiter": 7056,
      "ĠPage": 7057,
      "Ġlet": 7058,
      "Ġlus": 7059,
      "Ġveloc": 7060,
      "Ġueni": 7061,
      "Ġgraece": 7062,
      "Ġaltum": 7063,
      "Ġlongo": 7064,
      "ĠJuli": 7065,
      "Ġessentiam": 7066,
      "Ob": 7067,
      "ĠHum": 7068,
      "Ġiudicabit": 7069,
      "Ġax": 7070,
      "Ġverborum": 7071,
      "ĠDon": 7072,
      "urn": 7073,
      "Ġsud": 7074,
      "Ġvivendo": 7075,
      "Ġdoming": 7076,
      "escens": 7077,
      "AR": 7078,
      "oniis": 7079,
      "Ġfiet": 7080,
      "utione": 7081,
      "ĠGregorius": 7082,
      "Ġetenim": 7083,
      "Ġdelicata": 7084,
      "met": 7085,
      "Ġconceptam": 7086,
      "AN": 7087,
      "Ġactionem": 7088,
      "Ġiustus": 7089,
      "Ġreprehendunt": 7090,
      "Ġuide": 7091,
      "abam": 7092,
      "Ġedit": 7093,
      "ĠTempus": 7094,
      "Ġinfinitum": 7095,
      "Ġnequ": 7096,
      "Ġrepar": 7097,
      "Ġdoctrinae": 7098,
      "Ġdeseruisse": 7099,
      "Ġabstin": 7100,
      "Ġmandata": 7101,
      "Ġelev": 7102,
      "Ġeumdem": 7103,
      "idonium": 7104,
      "ierunt": 7105,
      "Ġdexter": 7106,
      "Ġnotum": 7107,
      "ectos": 7108,
      "Ġhabitat": 7109,
      "nesarchum": 7110,
      "ĠUlpianus": 7111,
      "Ġinsolens": 7112,
      "Ġmultitudine": 7113,
      "Ġbrach": 7114,
      "Ġsuperfici": 7115,
      "Ġplag": 7116,
      "ĠElit": 7117,
      "Ġverbi": 7118,
      "alitatis": 7119,
      "dibus": 7120,
      "itized": 7121,
      "Ġpacto": 7122,
      "ules": 7123,
      "Ġtantam": 7124,
      "Ġpunctum": 7125,
      "issus": 7126,
      "ĠVIII": 7127,
      "Ġdisputationi": 7128,
      "ĠPropter": 7129,
      "Quoniam": 7130,
      "Ġfib": 7131,
      "elam": 7132,
      "Ġobliv": 7133,
      "Ġvestrae": 7134,
      "Ġvinum": 7135,
      "ades": 7136,
      "Ġhostibus": 7137,
      "Ġpraefecturae": 7138,
      "ns": 7139,
      "Ġconsistit": 7140,
      "Ġgraecis": 7141,
      "Ġnoluisse": 7142,
      "Ġoblique": 7143,
      "Ġuocant": 7144,
      "Ġinermis": 7145,
      "Ġambig": 7146,
      "ock": 7147,
      "ĠIr": 7148,
      "Ġrh": 7149,
      "Ġvellet": 7150,
      "Ġdiutur": 7151,
      "ĠRespon": 7152,
      "Ġdiscipulis": 7153,
      "Ġmediocritatem": 7154,
      "ĠSto": 7155,
      "ĠFe": 7156,
      "Ġprivileg": 7157,
      "Ġaem": 7158,
      "Ġintellegebat": 7159,
      "Ġscribentur": 7160,
      "Ġmoderatius": 7161,
      "ĠMihi": 7162,
      "Ġorationem": 7163,
      "Ġpetentium": 7164,
      "Ġdog": 7165,
      "ĠMarty": 7166,
      "Ġreferrentur": 7167,
      "Ġungu": 7168,
      "Ġcontend": 7169,
      "Ġgraeco": 7170,
      "Ġcalor": 7171,
      "cas": 7172,
      "Ġueh": 7173,
      "Ġsuppl": 7174,
      "Ġinterpretaris": 7175,
      "Ġquolibet": 7176,
      "Ġfactis": 7177,
      "Ġdeterruisset": 7178,
      "Ġferv": 7179,
      "Ġsuscipiantur": 7180,
      "Ġmulieres": 7181,
      "Ġelementa": 7182,
      "Ġauf": 7183,
      "Ġconviv": 7184,
      "Ġflux": 7185,
      "Ġrenov": 7186,
      "Ġingenium": 7187,
      "imenta": 7188,
      "Ġputas": 7189,
      "Ipse": 7190,
      "Ġcomprehensam": 7191,
      "Ġpanem": 7192,
      "Ġmonasterii": 7193,
      "ĠMichae": 7194,
      "ĠExemp": 7195,
      "Ġeamdem": 7196,
      "ulla": 7197,
      "Quomodo": 7198,
      "Ġhaered": 7199,
      "Ġcerv": 7200,
      "Ġpervenit": 7201,
      "irian": 7202,
      "Ġaudiam": 7203,
      "ĠCaesaris": 7204,
      "Ġinstructior": 7205,
      "Ġele": 7206,
      "ĠDictum": 7207,
      "erosol": 7208,
      "Ġossa": 7209,
      "Tum": 7210,
      "iab": 7211,
      "ĠQuar": 7212,
      "Ġnascitur": 7213,
      "icere": 7214,
      "Ġparentes": 7215,
      "Ġperpetuum": 7216,
      "ĠMis": 7217,
      "Ġgar": 7218,
      "Ġconsensu": 7219,
      "Ġconson": 7220,
      "Ġistum": 7221,
      "ĠComp": 7222,
      "Ġseipsum": 7223,
      "Ġventur": 7224,
      "Ġcrucif": 7225,
      "mam": 7226,
      "Ġbeneficia": 7227,
      "Ġadop": 7228,
      "Ġevertitur": 7229,
      "Ġsupradic": 7230,
      "Ġliberi": 7231,
      "âĢ¦": 7232,
      "Ġterre": 7233,
      "Ġhumanum": 7234,
      "Ġconcludaturque": 7235,
      "60": 7236,
      "Ġvaria": 7237,
      "ĠNumquam": 7238,
      "Ġuuln": 7239,
      "ĠAprilis": 7240,
      "liane": 7241,
      "Ġinueni": 7242,
      "Ġhumilis": 7243,
      "Ġere": 7244,
      "ĠSep": 7245,
      "Ġhumano": 7246,
      "Ġsufficit": 7247,
      "Ġcrudel": 7248,
      "Ġfesti": 7249,
      "Ġmanere": 7250,
      "Ġlaude": 7251,
      "Ġatomorum": 7252,
      "Ġzel": 7253,
      "load": 7254,
      "Ġemp": 7255,
      "uitate": 7256,
      "Ġurbanitas": 7257,
      "Ġvoluptaria": 7258,
      "Ġcomper": 7259,
      "Ġobscur": 7260,
      "sen": 7261,
      "Ġactione": 7262,
      "Ġduxit": 7263,
      "Îº": 7264,
      "Ġconcili": 7265,
      "Ġscio": 7266,
      "Ġelaboraret": 7267,
      "Ġneglegentur": 7268,
      "Ġarea": 7269,
      "Ġdefiniebas": 7270,
      "Ġperpend": 7271,
      "ĠForm": 7272,
      "itura": 7273,
      "ĠDixit": 7274,
      "Ġmissus": 7275,
      "erta": 7276,
      "Ġsede": 7277,
      "ardo": 7278,
      "Ġostent": 7279,
      "Ġtractatos": 7280,
      "Ġforensibus": 7281,
      "Ġdissentiet": 7282,
      "Ġsuscepit": 7283,
      "Ġponderum": 7284,
      "Ġnecnon": 7285,
      "Ġrepl": 7286,
      "Ġimagin": 7287,
      "Ġbi": 7288,
      "Ġsalutandi": 7289,
      "livy": 7290,
      "Ġhaeres": 7291,
      "Ġpav": 7292,
      "Ġmaluisset": 7293,
      "Ġdignitatem": 7294,
      "imates": 7295,
      "Cui": 7296,
      "isl": 7297,
      "Ġsalutatus": 7298,
      "Ġomittantur": 7299,
      "Ġconstituam": 7300,
      "40": 7301,
      "Ġrecteque": 7302,
      "editur": 7303,
      "ĠTex": 7304,
      "Ġmnesarchum": 7305,
      "Ġinciderint": 7306,
      "Ġreput": 7307,
      "Ġincip": 7308,
      "Ġincolarum": 7309,
      "Ġrepudiare": 7310,
      "Ġducem": 7311,
      "Ġnominavi": 7312,
      "ĠTa": 7313,
      "Ġuirtus": 7314,
      "St": 7315,
      "Ġmazim": 7316,
      "Ġeuripidis": 7317,
      "Ġmembris": 7318,
      "Ġtheophrastus": 7319,
      "antius": 7320,
      "Ġantiqui": 7321,
      "gredi": 7322,
      "Ġcalefac": 7323,
      "ĠCicer": 7324,
      "Ġps": 7325,
      "Ġpraev": 7326,
      "alitate": 7327,
      "ĠQuidam": 7328,
      "Ġoleo": 7329,
      "ĠRomanus": 7330,
      "ĠClaud": 7331,
      "Ġ|": 7332,
      "Ġimperatoris": 7333,
      "illus": 7334,
      "estem": 7335,
      "Ġqualitas": 7336,
      "Ġinflam": 7337,
      "inquit": 7338,
      "Ġqualisque": 7339,
      "Ġhabentes": 7340,
      "Ġdelicatissimi": 7341,
      "oquin": 7342,
      "Ġdetracto": 7343,
      "ricis": 7344,
      "Ġdissentias": 7345,
      "Ġpreces": 7346,
      "Ġproximo": 7347,
      "Ġmoli": 7348,
      "ĠRo": 7349,
      "omine": 7350,
      "Ġeft": 7351,
      "Ġanimis": 7352,
      "Ġconclusionemque": 7353,
      "Ġpronunti": 7354,
      "Ġassueverit": 7355,
      "Ġpatrioque": 7356,
      "ĠGall": 7357,
      "Ġdens": 7358,
      "ĠCont": 7359,
      "ĠAper": 7360,
      "Ġorationis": 7361,
      "ĠIesus": 7362,
      "Ġabhorreant": 7363,
      "sitan": 7364,
      "Ġceler": 7365,
      "Ġmisericordi": 7366,
      "ĠMen": 7367,
      "ĠJesum": 7368,
      "Ġlocorum": 7369,
      "uarum": 7370,
      "Ġliberavisse": 7371,
      "Ġcalum": 7372,
      "ulata": 7373,
      "Ġflumen": 7374,
      "Ġfron": 7375,
      "Ġcredo": 7376,
      "Ġunusquisque": 7377,
      "Ġterminus": 7378,
      "Ġnotam": 7379,
      "Is": 7380,
      "Ġiubet": 7381,
      "Ġconscientia": 7382,
      "ĠAsc": 7383,
      "VIII": 7384,
      "Ġfabellas": 7385,
      "Ġdignitate": 7386,
      "Ġposidonium": 7387,
      "ĠEle": 7388,
      "Ġperhib": 7389,
      "Ġdeprec": 7390,
      "Ġprobatur": 7391,
      "Ġesto": 7392,
      "onae": 7393,
      "ĠAch": 7394,
      "Ġcarc": 7395,
      "Ġnoctem": 7396,
      "Ġreformidans": 7397,
      "Ġrecogn": 7398,
      "Ġvituperata": 7399,
      "Ġphaedrum": 7400,
      "ĠÃĨ": 7401,
      "Ġprosper": 7402,
      "Ġelectram": 7403,
      "du": 7404,
      "Ġprincipis": 7405,
      "Ġvirtutibus": 7406,
      "Ġdebitum": 7407,
      "ĠEget": 7408,
      "Ġfelix": 7409,
      "Ġrefrig": 7410,
      "Ġreprob": 7411,
      "Ġgladio": 7412,
      "Ġnuc": 7413,
      "Ġuult": 7414,
      "Ġpraecl": 7415,
      "essu": 7416,
      "Ġcotidieque": 7417,
      "Ġcrimen": 7418,
      "Ġvituperatoribus": 7419,
      "Ġcuique": 7420,
      "Ġcorpori": 7421,
      "Ġtorquatos": 7422,
      "Ġtrep": 7423,
      "Ġdemocritum": 7424,
      "Ġdecimo": 7425,
      "Ġinius": 7426,
      "Ġcopiosae": 7427,
      "Ġmartyr": 7428,
      "Ġamar": 7429,
      "Ġnic": 7430,
      "Ġsigniferumque": 7431,
      "Ġscaevola": 7432,
      "25": 7433,
      "Ġagro": 7434,
      "Ġtimor": 7435,
      "Ġfornic": 7436,
      "Ġnovam": 7437,
      "ĠMC": 7438,
      "Ġiuvaret": 7439,
      "Ġinfam": 7440,
      "Ġtradidit": 7441,
      "Ġduces": 7442,
      "ĠPre": 7443,
      "Ġincorrupte": 7444,
      "Ġaccusata": 7445,
      "ulariter": 7446,
      "Ġnemore": 7447,
      "Ġdefer": 7448,
      "Ġmagnitudinem": 7449,
      "Ġviderer": 7450,
      "ht": 7451,
      "stat": 7452,
      "Ġsalus": 7453,
      "bertus": 7454,
      "Ġlegendos": 7455,
      "Ġscribere": 7456,
      "Ġdecor": 7457,
      "Ġmiles": 7458,
      "min": 7459,
      "En": 7460,
      "epti": 7461,
      "Ġrecusabo": 7462,
      "olat": 7463,
      "Ġvolor": 7464,
      "Ġuniversa": 7465,
      "Ġualde": 7466,
      "Ġdedic": 7467,
      "Ġfastidii": 7468,
      "Ġcell": 7469,
      "Ġbonam": 7470,
      "ĠElig": 7471,
      "Ġexor": 7472,
      "Ġocurreret": 7473,
      "Ġlacrim": 7474,
      "Ġtemere": 7475,
      "ĠDauid": 7476,
      "Ġuterque": 7477,
      "Ġapeirian": 7478,
      "Ġprael": 7479,
      "Ġgraeci": 7480,
      "Ġplatonem": 7481,
      "ysi": 7482,
      "Ġphilosophus": 7483,
      "ineo": 7484,
      "Ġsitu": 7485,
      "Ġlegi": 7486,
      "Ġmeas": 7487,
      "ĠAlii": 7488,
      "lasph": 7489,
      "Ġverterem": 7490,
      "Ġtheolog": 7491,
      "Ġcontig": 7492,
      "Ġfrui": 7493,
      "Idem": 7494,
      "Ġdixisset": 7495,
      "Ġgratis": 7496,
      "Ġutuntur": 7497,
      "oso": 7498,
      "Ph": 7499,
      "eff": 7500,
      "Ġoccurrit": 7501,
      "ĠGa": 7502,
      "Ġpartiendo": 7503,
      "Ġformid": 7504,
      "Ġnihilominus": 7505,
      "Ġepicurei": 7506,
      "Ġuulg": 7507,
      "Ġpariet": 7508,
      "ĠSat": 7509,
      "Ġlucilius": 7510,
      "Ġfacili": 7511,
      "Ġingressus": 7512,
      "ĠSag": 7513,
      "ĠTertio": 7514,
      "Ġej": 7515,
      "Ġrepente": 7516,
      "struc": 7517,
      "Ġincolum": 7518,
      "Ġiudico": 7519,
      "ĠAdipiscing": 7520,
      "Ġantiopam": 7521,
      "Mat": 7522,
      "ĠMiss": 7523,
      "Ġping": 7524,
      "Ġclari": 7525,
      "ĠAlia": 7526,
      "Ġhyd": 7527,
      "Ġpostmodum": 7528,
      "ectibus": 7529,
      "Ġuener": 7530,
      "Ġmultitudinem": 7531,
      "Ġintim": 7532,
      "Ġpraeceptum": 7533,
      "Ġadim": 7534,
      "uitatem": 7535,
      "ĠVero": 7536,
      "Ġpersius": 7537,
      "ES": 7538,
      "Ġmiseri": 7539,
      "ernis": 7540,
      "Ġodor": 7541,
      "ĠMoyses": 7542,
      "21": 7543,
      "Ġsati": 7544,
      "Ġuia": 7545,
      "Ġcives": 7546,
      "uad": 7547,
      "Ġsaperet": 7548,
      "ionalis": 7549,
      "ĠRad": 7550,
      "Ġmenandri": 7551,
      "edo": 7552,
      "Ġsonet": 7553,
      "Ġcircumd": 7554,
      "Ġaest": 7555,
      "Ġmandatum": 7556,
      "Ġtruc": 7557,
      "Ġludos": 7558,
      "ĠVoc": 7559,
      "pas": 7560,
      "Ġconfer": 7561,
      "Ġtotidem": 7562,
      "dific": 7563,
      "Ġpernici": 7564,
      "Ġeris": 7565,
      "ĠProt": 7566,
      "Ġcoqu": 7567,
      "Ġapprop": 7568,
      "Ġacerb": 7569,
      "Ġscit": 7570,
      "Ġdiuin": 7571,
      "Ġvestim": 7572,
      "Ġepicuri": 7573,
      "Ġmasc": 7574,
      "Ġcreb": 7575,
      "Ġamicos": 7576,
      "Ġtacimates": 7577,
      "Ġfatig": 7578,
      "esper": 7579,
      "Ġadesse": 7580,
      "Ġsecus": 7581,
      "Ġtestatur": 7582,
      "Ġiunc": 7583,
      "ĠSuscipit": 7584,
      "Ġdextra": 7585,
      "Ġadn": 7586,
      "ĠIi": 7587,
      "Ġacies": 7588,
      "Ġresurg": 7589,
      "roid": 7590,
      "Ġfacete": 7591,
      "Ġinvis": 7592,
      "iderat": 7593,
      "Ġinterpretatur": 7594,
      "Ġingenii": 7595,
      "Ġcognitio": 7596,
      "ĠEodem": 7597,
      "Ġrus": 7598,
      "Italiane": 7599,
      "Ġcarb": 7600,
      "Ġsubiectum": 7601,
      "Ġhtt": 7602,
      "Ġdomine": 7603,
      "Ġgesta": 7604,
      "ĠDist": 7605,
      "rico": 7606,
      "Ġextrema": 7607,
      "Ġemin": 7608,
      "enex": 7609,
      "Ġnecessitas": 7610,
      "Ġalbucius": 7611,
      "ĠPla": 7612,
      "Ġdevo": 7613,
      "Ġvidi": 7614,
      "emin": 7615,
      "Ġmutare": 7616,
      "Ġdeput": 7617,
      "alc": 7618,
      "ĠCred": 7619,
      "Ġfidelis": 7620,
      "ror": 7621,
      "Ġtimeam": 7622,
      "Ġimport": 7623,
      "ĠGer": 7624,
      "ĠCass": 7625,
      "ĠAuctor": 7626,
      "ĠColleg": 7627,
      "Ġvale": 7628,
      "ĠJud": 7629,
      "Ġdiutius": 7630,
      "Ġcommunem": 7631,
      "Ġvitium": 7632,
      "Ġsomn": 7633,
      "Ġsemin": 7634,
      "Ġreprimique": 7635,
      "Ġfecisse": 7636,
      "Ġhosp": 7637,
      "Ġusers": 7638,
      "Ġlaborem": 7639,
      "igur": 7640,
      "Ġstare": 7641,
      "Ġquodsi": 7642,
      "Ġputat": 7643,
      "Ġnoctis": 7644,
      "unx": 7645,
      "inth": 7646,
      "Ġtal": 7647,
      "Ġveris": 7648,
      "tram": 7649,
      "Ġalien": 7650,
      "Ġuet": 7651,
      "overs": 7652,
      "Ġaj": 7653,
      "ulatus": 7654,
      "Ġiram": 7655,
      "Ġeverti": 7656,
      "Ġangelus": 7657,
      "Ġdepend": 7658,
      "Ġinvenit": 7659,
      "Ġpelag": 7660,
      "Ġpondere": 7661,
      "Ġcredimus": 7662,
      "Ġpertr": 7663,
      "Ġlub": 7664,
      "ĠGallia": 7665,
      "Denique": 7666,
      "Ġexemplis": 7667,
      "Ġvocent": 7668,
      "Ġaetas": 7669,
      "Ġpopulos": 7670,
      "Ġarbitrium": 7671,
      "Ġarcus": 7672,
      "ĠRev": 7673,
      "ĠSh": 7674,
      "Ġpoti": 7675,
      "Ġangeli": 7676,
      "Ġcapere": 7677,
      "agog": 7678,
      "ĠTempore": 7679,
      "Ġtun": 7680,
      "Ġpietate": 7681,
      "Ġaev": 7682,
      "IS": 7683,
      "Ġsigno": 7684,
      "ultis": 7685,
      "ĠEo": 7686,
      "Ġquartum": 7687,
      "ebimus": 7688,
      "Ġliberos": 7689,
      "Ġoptima": 7690,
      "Ġproposito": 7691,
      "Ġcolumb": 7692,
      "Ġmensura": 7693,
      "unquam": 7694,
      "Ġvoces": 7695,
      "Ġ198": 7696,
      "quebatur": 7697,
      "Ġhabita": 7698,
      "Ġtemer": 7699,
      "riae": 7700,
      "ĠIud": 7701,
      "Ġcresc": 7702,
      "ĠCarthag": 7703,
      "Ġcanti": 7704,
      "Ġpig": 7705,
      "Ġalim": 7706,
      "lav": 7707,
      "Ġoperatio": 7708,
      "Ġlaudes": 7709,
      "ĠQuad": 7710,
      "ĠLond": 7711,
      "Ġaquarum": 7712,
      "Ġfuturo": 7713,
      "inii": 7714,
      "Ġnominibus": 7715,
      "Ġuim": 7716,
      "Ġalto": 7717,
      "Ġsumo": 7718,
      "Ġexalt": 7719,
      "ĠDE": 7720,
      "Ġuari": 7721,
      "urb": 7722,
      "Ġvestigia": 7723,
      "elop": 7724,
      "Ġblasph": 7725,
      "Ġinuicem": 7726,
      "Ġfronte": 7727,
      "ymp": 7728,
      "ĠMulti": 7729,
      "Ġdiuit": 7730,
      "Ġintu": 7731,
      "AT": 7732,
      "Ġtritani": 7733,
      "rehendit": 7734,
      "Ġqualitatem": 7735,
      "Ġcanis": 7736,
      "icumque": 7737,
      "Ġsemine": 7738,
      "Ġsinis": 7739,
      "Ġparc": 7740,
      "Ġdefici": 7741,
      "ricum": 7742,
      "Ġfamiliae": 7743,
      "Ġacti": 7744,
      "Ġludum": 7745,
      "Ġfidelibus": 7746,
      "aturum": 7747,
      "Ġtriang": 7748,
      "hic": 7749,
      "Ġverear": 7750,
      "Ġconsequi": 7751,
      "Ġnonumes": 7752,
      "Ġsabb": 7753,
      "Ġpromov": 7754,
      "iditate": 7755,
      "Ġducis": 7756,
      "ener": 7757,
      "Ġpaene": 7758,
      "Ġlog": 7759,
      "iturum": 7760,
      "Ġpugna": 7761,
      "ĠIste": 7762,
      "Ġses": 7763,
      "site": 7764,
      "ĠLaur": 7765,
      "VII": 7766,
      "Ġscriptis": 7767,
      "Ille": 7768,
      "Ġnumeri": 7769,
      "Ġmichi": 7770,
      "ĠMMX": 7771,
      "estes": 7772,
      "istae": 7773,
      "iderit": 7774,
      "Ġtantummodo": 7775,
      "Ġatqui": 7776,
      "Cons": 7777,
      "ĠPotest": 7778,
      "ĠAssum": 7779,
      "nde": 7780,
      "Ġhumanis": 7781,
      "ated": 7782,
      "Ġducit": 7783,
      "eng": 7784,
      "ancip": 7785,
      "Num": 7786,
      "iliae": 7787,
      "Ġangusti": 7788,
      "amini": 7789,
      "Ġprudentia": 7790,
      "Ġposteri": 7791,
      "ĠGener": 7792,
      "Ġapostolica": 7793,
      "onam": 7794,
      "Ġmarg": 7795,
      "Ġprofectus": 7796,
      "Ġrequis": 7797,
      "Ġanimarum": 7798,
      "otos": 7799,
      "Ġarbitrio": 7800,
      "Ġfons": 7801,
      "ĠprÃ¦dic": 7802,
      "Ġpraescrip": 7803,
      "ĠPostquam": 7804,
      "ĠMediol": 7805,
      "Ġaffectum": 7806,
      "piam": 7807,
      "ĠAequ": 7808,
      "Ġmensibus": 7809,
      "Ġimplic": 7810,
      "ĠHerm": 7811,
      "psal": 7812,
      "ĠApud": 7813,
      "Or": 7814,
      "Ġlumina": 7815,
      "Ġtertiam": 7816,
      "Ġoccasione": 7817,
      "Ð°": 7818,
      "Ġredig": 7819,
      "amentis": 7820,
      "Ġmucius": 7821,
      "issimas": 7822,
      "Ġdubi": 7823,
      "Ġperfectionem": 7824,
      "Ġcaeter": 7825,
      "Ġvidebatur": 7826,
      "Ġauctoritas": 7827,
      "Ġcomit": 7828,
      "Ġvestram": 7829,
      "Ġquinto": 7830,
      "Ġsuppon": 7831,
      "ĠHil": 7832,
      "Ġvirgo": 7833,
      "unicip": 7834,
      "Ġstim": 7835,
      "Ġmultae": 7836,
      "oca": 7837,
      "Sub": 7838,
      "ĠVt": 7839,
      "Ġbrevis": 7840,
      "Ġvan": 7841,
      "ĠSod": 7842,
      "Ġfasc": 7843,
      "ĠCyp": 7844,
      "ĠItaliam": 7845,
      "ffer": 7846,
      "cn": 7847,
      "Ġope": 7848,
      "ĠIlli": 7849,
      "Ġtantae": 7850,
      "Lib": 7851,
      "erito": 7852,
      "Ġunitatem": 7853,
      "aca": 7854,
      "Ġconfund": 7855,
      "ĠElem": 7856,
      "rehendo": 7857,
      "Ġlapis": 7858,
      "hab": 7859,
      "Ġfratre": 7860,
      "Ġinjus": 7861,
      "Ġsinu": 7862,
      "ĠDionys": 7863,
      "ĠSacerd": 7864,
      "Ġris": 7865,
      "Ġhonori": 7866,
      "Ġscop": 7867,
      "Ġdiscre": 7868,
      "Ġspha": 7869,
      "Ġvivit": 7870,
      "ĠPaulo": 7871,
      "Nihil": 7872,
      "Ġpoteris": 7873,
      "Ġcaes": 7874,
      "Ġbonae": 7875,
      "Ġinstituta": 7876,
      "ĠMach": 7877,
      "Ġspecul": 7878,
      "Ġcerti": 7879,
      "Ġpia": 7880,
      "erto": 7881,
      "Ġfiguram": 7882,
      "Ġvias": 7883,
      "uid": 7884,
      "Ġdixisse": 7885,
      "Ġdiscern": 7886,
      "ĠDolore": 7887,
      "Ġty": 7888,
      "Ġresponsum": 7889,
      "ÃŁ": 7890,
      "Ġgens": 7891,
      "ĠRomanum": 7892,
      "Ġplene": 7893,
      "Ġdocuit": 7894,
      "Ġostendere": 7895,
      "Porro": 7896,
      "ĠSancto": 7897,
      "ĠAlexander": 7898,
      "Ġpoc": 7899,
      "Ġanimalium": 7900,
      "etem": 7901,
      "ĠHug": 7902,
      "Ġdesiderium": 7903,
      "Ġsacrificium": 7904,
      "Ġutpote": 7905,
      "Ġpersuas": 7906,
      "ĠGraecis": 7907,
      "ĠRomanos": 7908,
      "erebant": 7909,
      "Ġstudia": 7910,
      "Ġepiscopis": 7911,
      "uig": 7912,
      "ĠEpiscopi": 7913,
      "23": 7914,
      "Ġ@#": 7915,
      "Ġaffectu": 7916,
      "ĠScip": 7917,
      "Ġorient": 7918,
      "Ġdignus": 7919,
      "idibus": 7920,
      "rarum": 7921,
      "Ġutile": 7922,
      "ĠTo": 7923,
      "Inde": 7924,
      "erosolym": 7925,
      "insecus": 7926,
      "ĠVita": 7927,
      "Ð¸": 7928,
      "Ġferunt": 7929,
      "Ġconcurr": 7930,
      "Ġextend": 7931,
      "ĠChar": 7932,
      "ay": 7933,
      "Ġsimus": 7934,
      "Ġofferre": 7935,
      "Ġbaptis": 7936,
      "Ġnovus": 7937,
      "Ġhaberi": 7938,
      "Ġafflic": 7939,
      "Ġmeth": 7940,
      "Ġquaestionem": 7941,
      "Ġnegotio": 7942,
      "ĠAndroid": 7943,
      "Ġingeni": 7944,
      "Ġspecialiter": 7945,
      "ĠBonum": 7946,
      "Ġraro": 7947,
      "ĠScriptur": 7948,
      "ative": 7949,
      "ĠBl": 7950,
      "burg": 7951,
      "Ġfeliciter": 7952,
      "Ġhomero": 7953,
      "rad": 7954,
      "ĠNonne": 7955,
      "ĠNatus": 7956,
      "Ġcontumeli": 7957,
      "utor": 7958,
      "ungitur": 7959,
      "Ġreque": 7960,
      "uique": 7961,
      "Ġaperte": 7962,
      "ont": 7963,
      "Quando": 7964,
      "Com": 7965,
      "unxit": 7966,
      "ymph": 7967,
      "Ġgaudio": 7968,
      "Ġmontibus": 7969,
      "Ġbeneficium": 7970,
      "Ġperfecte": 7971,
      "ĠCruc": 7972,
      "Ġimmin": 7973,
      "inque": 7974,
      "tarum": 7975,
      "wnload": 7976,
      "Ġrursum": 7977,
      "tag": 7978,
      "Ġrecuper": 7979,
      "Ġambo": 7980,
      "Ġostium": 7981,
      "ĠPostea": 7982,
      "Ġmorum": 7983,
      "Ġmatre": 7984,
      "Ġformas": 7985,
      "Ġpil": 7986,
      "Ġamicus": 7987,
      "Ġlignum": 7988,
      "Ġempt": 7989,
      "ĠNob": 7990,
      "ĠMunicip": 7991,
      "Ġsequenti": 7992,
      "Ġquale": 7993,
      "Re": 7994,
      "ĠNil": 7995,
      "tib": 7996,
      "Ġexac": 7997,
      "uras": 7998,
      "Ġoculorum": 7999,
      "Ġnobiscum": 8000,
      "Ġopinionem": 8001,
      "Ġulterius": 8002,
      "ws": 8003,
      "Ġcase": 8004,
      "Ġnihilo": 8005,
      "quia": 8006,
      "IN": 8007,
      "Ġerrem": 8008,
      "ĠAv": 8009,
      "Ġterminum": 8010,
      "Ġamat": 8011,
      "ĠJoannis": 8012,
      "Ġsuarum": 8013,
      "Ġordines": 8014,
      "Ġluna": 8015,
      "Ġpopulis": 8016,
      "Ġegredi": 8017,
      "Ġdiscipuli": 8018,
      "put": 8019,
      "Ġdivinis": 8020,
      "Ġnumeros": 8021,
      "Ġobc": 8022,
      "Ġseptentr": 8023,
      "itii": 8024,
      "ĠAri": 8025,
      "Ġaddere": 8026,
      "isa": 8027,
      "Ġantiquis": 8028,
      "Ġmiracula": 8029,
      "ernae": 8030,
      "Ġresponde": 8031,
      "Ġincludit": 8032,
      "ĠPic": 8033,
      "ĠOst": 8034,
      "toribus": 8035,
      "70": 8036,
      "ĠAfrica": 8037,
      "Ġ35": 8038,
      "Ġrespici": 8039,
      "Ġconfid": 8040,
      "ĠUnum": 8041,
      "Ġvides": 8042,
      "ĠJoseph": 8043,
      "ĠLudov": 8044,
      "Ġcertam": 8045,
      "Ġdura": 8046,
      "Ġiustum": 8047,
      "Ġlittera": 8048,
      "Ġnonn": 8049,
      "Ġeffus": 8050,
      "uk": 8051,
      "ultu": 8052,
      "Ġtransfer": 8053,
      "Ġtestis": 8054,
      "Ġlapides": 8055,
      "Ġbasil": 8056,
      "Ġcorrupt": 8057,
      "Ġcompetit": 8058,
      "ĠJam": 8059,
      "Ġserui": 8060,
      "onos": 8061,
      "ellit": 8062,
      "fa": 8063,
      "ptu": 8064,
      "Ġplum": 8065,
      "Ġfaciendum": 8066,
      "edens": 8067,
      "Ġvisit": 8068,
      "IT": 8069,
      "aciam": 8070,
      "Ġlug": 8071,
      "ĠChrys": 8072,
      "ilitas": 8073,
      "Ġagric": 8074,
      "Ġpatrum": 8075,
      "ĠNa": 8076,
      "ĠOctobris": 8077,
      "ĠSS": 8078,
      "ips": 8079,
      "Ġdomos": 8080,
      "Ġtabula": 8081,
      "Primo": 8082,
      "Ġfaciant": 8083,
      "Ġdiabolus": 8084,
      "Ġlegum": 8085,
      "rid": 8086,
      "Ġuiol": 8087,
      "Ġ100": 8088,
      "Ġusurp": 8089,
      "ĠEadem": 8090,
      "Ġlaque": 8091,
      "ĠHuic": 8092,
      "Ġcontinetur": 8093,
      "ĠTit": 8094,
      "lib": 8095,
      "Ġexcog": 8096,
      "Ġvitia": 8097,
      "eperat": 8098,
      "Ġregula": 8099,
      "Ġcomprob": 8100,
      "Ġauribus": 8101,
      "yam": 8102,
      "Ġparatus": 8103,
      "Ġiisdem": 8104,
      "Ġcontrovers": 8105,
      "Ġlevis": 8106,
      "ware": 8107,
      "alum": 8108,
      "Ġhe": 8109,
      "Ġsiti": 8110,
      "Ġvices": 8111,
      "ĠOce": 8112,
      "Ġultro": 8113,
      "ĠSanctorum": 8114,
      "Ġcreaturae": 8115,
      "Ġcongru": 8116,
      "athem": 8117,
      "ellarum": 8118,
      "ĠJo": 8119,
      "Ġnoctur": 8120,
      "Ġpublicam": 8121,
      "Ġpens": 8122,
      "Ġproportion": 8123,
      "Ġdenuo": 8124,
      "ĠCond": 8125,
      "Ġbeata": 8126,
      "Ġoppress": 8127,
      "Ġlicentia": 8128,
      "Ġevid": 8129,
      "ger": 8130,
      "edia": 8131,
      "Ġnobilis": 8132,
      "Ġcreare": 8133,
      "Ġelectron": 8134,
      "Ġmilitibus": 8135,
      "ĠGraece": 8136,
      "ulat": 8137,
      "Ġrectum": 8138,
      "Ġexteri": 8139,
      "ĠUna": 8140,
      "Ġfonte": 8141,
      "ĠCorporis": 8142,
      "Ġquantitatem": 8143,
      "ĠVidetur": 8144,
      "ĠFrancorum": 8145,
      "Ġonus": 8146,
      "Ġpecuniae": 8147,
      "Ġuber": 8148,
      "Ġrecipit": 8149,
      "Ġdolo": 8150,
      "Ġcivitates": 8151,
      "Ġfui": 8152,
      "oi": 8153,
      "Ġarbitror": 8154,
      "Ð¾": 8155,
      "ĠÎ±": 8156,
      "ĠEuropa": 8157,
      "odis": 8158,
      "irab": 8159,
      "Ġcharitatis": 8160,
      "ĠCongreg": 8161,
      "Ġregionem": 8162,
      "anica": 8163,
      "Ġiact": 8164,
      "ĠSeptembris": 8165,
      "Ġcondita": 8166,
      "Ġnequit": 8167,
      "enem": 8168,
      "Ġrevert": 8169,
      "Ġaccedere": 8170,
      "Ġtet": 8171,
      "Ġblasphem": 8172,
      "Ġvirorum": 8173,
      "Ġmaximam": 8174,
      "ĠExp": 8175,
      "Ġsuscep": 8176,
      "roc": 8177,
      "ulpa": 8178,
      "Cumque": 8179,
      "Ġpatriarch": 8180,
      "Ġinstall": 8181,
      "Ġpotuerunt": 8182,
      "eratis": 8183,
      "Ġmalign": 8184,
      "ĠMun": 8185,
      "ĠEtenim": 8186,
      "Ġpartum": 8187,
      "Ġquales": 8188,
      "Ġortum": 8189,
      "Ġbrute": 8190,
      "ĠEgestas": 8191,
      "Ġfratri": 8192,
      "Ġgaudia": 8193,
      "Ġvideretur": 8194,
      "ecerunt": 8195,
      "Ġregiones": 8196,
      "Ġtela": 8197,
      "Ġperfecti": 8198,
      "Ġvota": 8199,
      "huc": 8200,
      "Ġuoce": 8201,
      "Prop": 8202,
      "Ġlos": 8203,
      "cam": 8204,
      "ĠTemporibus": 8205,
      "Ġterg": 8206,
      "Ġincrementum": 8207,
      "Ġexpugn": 8208,
      "Ġangus": 8209,
      "ĠNostrum": 8210,
      "Ġofficii": 8211,
      "Ġcepit": 8212,
      "Ġneminem": 8213,
      "Ġamicum": 8214,
      "Int": 8215,
      "Ġattinet": 8216,
      "ĠHistor": 8217,
      "Ġdisser": 8218,
      "Ġvert": 8219,
      "erebatur": 8220,
      "Ġimpetr": 8221,
      "ater": 8222,
      "Ġproblem": 8223,
      "ĠEcclesias": 8224,
      "ĠCn": 8225,
      "ĠMartii": 8226,
      "Ġnonnulli": 8227,
      "Ġvendit": 8228,
      "Ġexamin": 8229,
      "Ġpoenas": 8230,
      "etes": 8231,
      "ĠSumm": 8232,
      "Ġsecundus": 8233,
      "Ġhebdom": 8234,
      "Ġacta": 8235,
      "uel": 8236,
      "Ġcry": 8237,
      "Ġpermitt": 8238,
      "Ġstom": 8239,
      "ĠTellus": 8240,
      "Ġretr": 8241,
      "Ġapplicationem": 8242,
      "Ġvarias": 8243,
      "Ġquaestiones": 8244,
      "Ġbonos": 8245,
      "ocin": 8246,
      "Ġaquil": 8247,
      "Ġfinit": 8248,
      "Ġcuc": 8249,
      "ĠScel": 8250,
      "ĠQuÃ¦": 8251,
      "Ġlapide": 8252,
      "acch": 8253,
      "ĠPlinius": 8254,
      "ĠMaii": 8255,
      "ĠCast": 8256,
      ".--": 8257,
      "Ġrite": 8258,
      "Ġconform": 8259,
      "ĠHarum": 8260,
      "Kai": 8261,
      "Ġgn": 8262,
      "Ġmagnae": 8263,
      "Ġglorific": 8264,
      "Ġcursum": 8265,
      "Ġimmedi": 8266,
      "reen": 8267,
      "Ġminorem": 8268,
      "ks": 8269,
      "Ġprincipum": 8270,
      "uriae": 8271,
      "Ġiung": 8272,
      "Ġpossibile": 8273,
      "usit": 8274,
      "Ġconsequens": 8275,
      "Ġcathed": 8276,
      "vel": 8277,
      "Ġinest": 8278,
      "Ist": 8279,
      "Ġcoelestis": 8280,
      "bant": 8281,
      "ipsum": 8282,
      "tiis": 8283,
      "ĠLuna": 8284,
      "Ġoperari": 8285,
      "Ġsentire": 8286,
      "Ġheres": 8287,
      "ĠCicero": 8288,
      "Ġjur": 8289,
      "Ġannunti": 8290,
      "ĠHung": 8291,
      "aldus": 8292,
      "Ġstric": 8293,
      "leti": 8294,
      "ĠMarcus": 8295,
      "ĠFor": 8296,
      "icio": 8297,
      "ĠBelg": 8298,
      "Ġconse": 8299,
      "Ġingenti": 8300,
      "Ġkh": 8301,
      "Ġargenti": 8302,
      "Ġoccasionem": 8303,
      "vol": 8304,
      "Ġnegotiis": 8305,
      "Ġomnipotens": 8306,
      "ĠQue": 8307,
      "ĠQuantum": 8308,
      "ĠLitter": 8309,
      "Ġaequalis": 8310,
      "Ġutero": 8311,
      "ĠMulta": 8312,
      "Ġsumptus": 8313,
      "Ġparentibus": 8314,
      "enci": 8315,
      "ĠExplic": 8316,
      "ĠSig": 8317,
      "ĠDatum": 8318,
      "Ġmeruit": 8319,
      "Ġmontis": 8320,
      "anem": 8321,
      "ĠPompe": 8322,
      "emit": 8323,
      "Ġintelligit": 8324,
      "Ġquidquam": 8325,
      "ĠNicola": 8326,
      "hinc": 8327,
      "Acc": 8328,
      "Ġtenuit": 8329,
      "Ġsubtil": 8330,
      "Ġinex": 8331,
      "Ġpublico": 8332,
      "ĠLev": 8333,
      "Ġprincipem": 8334,
      "Ġsenex": 8335,
      "Ġmortuum": 8336,
      "Ġaeternae": 8337,
      "Ġunitas": 8338,
      "Ġfeci": 8339,
      "Ġsimilem": 8340,
      "adit": 8341,
      "Ġspeciei": 8342,
      "Ġmere": 8343,
      "Ġindicat": 8344,
      "ĠAlt": 8345,
      "ĠEli": 8346,
      "Ġamplex": 8347,
      "Ġinternation": 8348,
      "Ġquinquaginta": 8349,
      "Ġinvoc": 8350,
      "Ġrecenti": 8351,
      "Ġprodest": 8352,
      "ĠLunae": 8353,
      "Ġsentit": 8354,
      "Ġcharitas": 8355,
      "Igitur": 8356,
      "Ġproxime": 8357,
      "Ġsuperbia": 8358,
      "Ġuires": 8359,
      "omus": 8360,
      "Ġpietas": 8361,
      "ĠSimiliter": 8362,
      "ĠHann": 8363,
      "Ġsubsequ": 8364,
      "Ġhumanam": 8365,
      "ĠCerte": 8366,
      "ĠHÃ¦c": 8367,
      "Ġopinio": 8368,
      "Ġquicumque": 8369,
      "Ġdirecte": 8370,
      "Ġcreditur": 8371,
      "ĠHieronymus": 8372,
      "Ġoperationem": 8373,
      "ernam": 8374,
      "pice": 8375,
      "Ġtempli": 8376,
      "Ġprofer": 8377,
      "Ġplenum": 8378,
      "entii": 8379,
      "Ġmurm": 8380,
      "ĠNovi": 8381,
      "Ġagros": 8382,
      "Ġcultus": 8383,
      "Ġecclesie": 8384,
      "Ġoriginem": 8385,
      "Ġpulchra": 8386,
      "imento": 8387,
      "Ġprovis": 8388,
      "ĠDef": 8389,
      "gressus": 8390,
      "Ġsty": 8391,
      "Ġjustific": 8392,
      "Ġregina": 8393,
      "ĠCaesare": 8394,
      "Ġobsec": 8395,
      "Ġimpetu": 8396,
      "eric": 8397,
      "Ġoritur": 8398,
      "Ġprodig": 8399,
      "Ġerrorem": 8400,
      "ãĢ": 8401,
      "Ġpraemia": 8402,
      "Ġobnox": 8403,
      "Ġtenebras": 8404,
      "Ġuestra": 8405,
      "Ġpassionis": 8406,
      "Ġrequiritur": 8407,
      "aric": 8408,
      "Ġzril": 8409,
      "Ġaliquibus": 8410,
      "rio": 8411,
      "veni": 8412,
      "Ġnosse": 8413,
      "Ġmittere": 8414,
      "ĠLy": 8415,
      "Ġpraedi": 8416,
      "Ġseptimo": 8417,
      "der": 8418,
      "Ġipsas": 8419,
      "aeum": 8420,
      "Ġspiritualis": 8421,
      "ago": 8422,
      "anes": 8423,
      "Ġludere": 8424,
      "aculi": 8425,
      "Ġcoetus": 8426,
      "Ġconfic": 8427,
      "Ġhar": 8428,
      "ĠLoc": 8429,
      "Ġrepon": 8430,
      "ĠJuda": 8431,
      "Ġuehem": 8432,
      "Ġinterfic": 8433,
      "eunte": 8434,
      "Ġdidic": 8435,
      "Ġnullis": 8436,
      "Ġoppugn": 8437,
      "Ġhoram": 8438,
      "Ġforti": 8439,
      "Ġmeritum": 8440,
      "Ġauth": 8441,
      "encia": 8442,
      "Ġcibus": 8443,
      "Ġefficit": 8444,
      "Ġium": 8445,
      "Ġdesiderio": 8446,
      "ĠNibh": 8447,
      "uissent": 8448,
      "Ðµ": 8449,
      "24": 8450,
      "ran": 8451,
      "Ġindivid": 8452,
      "Ġproductio": 8453,
      "cia": 8454,
      "undis": 8455,
      "Ġabsur": 8456,
      "ĠAnim": 8457,
      "eget": 8458,
      "Ġrecipere": 8459,
      "Ġpectora": 8460,
      "Ġsinus": 8461,
      "Di": 8462,
      "Ġreus": 8463,
      "Ġquilibet": 8464,
      "enob": 8465,
      "Ġinfinita": 8466,
      "ĠDani": 8467,
      "ĠDecembris": 8468,
      "Ġfacis": 8469,
      "Ġterrestr": 8470,
      "ĠHib": 8471,
      "Ġsidera": 8472,
      "ĠÏĦ": 8473,
      "Ġpassionem": 8474,
      "Ġhabebit": 8475,
      "ibiles": 8476,
      "Ġfert": 8477,
      "ĠUen": 8478,
      "Ġpapae": 8479,
      "arat": 8480,
      "Ġvisus": 8481,
      "Ġregia": 8482,
      "Ġvictoria": 8483,
      "Ġappos": 8484,
      "entalis": 8485,
      "Ġcontrario": 8486,
      "Ġcoloris": 8487,
      "Ġcoep": 8488,
      "ĠEcc": 8489,
      "Ġfortiter": 8490,
      "turum": 8491,
      "Ġresurrectionem": 8492,
      "Ġconatus": 8493,
      "Ġcommoda": 8494,
      "Ġlax": 8495,
      "Ġrespondere": 8496,
      "Ġset": 8497,
      "Ġamare": 8498,
      "ĠFirm": 8499,
      "Ġoffend": 8500,
      "tinus": 8501,
      "ĠPtol": 8502,
      "risto": 8503,
      "Donec": 8504,
      "ĠMos": 8505,
      "Ġpriusquam": 8506,
      "Ġdissol": 8507,
      "ĠVeniam": 8508,
      "Ġspectat": 8509,
      "Ġreligione": 8510,
      "Ġpaucos": 8511,
      "Ġuiam": 8512,
      "atorium": 8513,
      "ĠVi": 8514,
      "lustr": 8515,
      "iteri": 8516,
      "Ġrup": 8517,
      "Ġadest": 8518,
      "ĠMari": 8519,
      "Ġortus": 8520,
      "Ġproinde": 8521,
      "etor": 8522,
      "Ġauctore": 8523,
      "Ġpuella": 8524,
      "Hanc": 8525,
      "omb": 8526,
      "Ġamico": 8527,
      "Ġpenet": 8528,
      "Ġconsuetudinem": 8529,
      "ĠTincidunt": 8530,
      "iva": 8531,
      "Ġagendum": 8532,
      "Ġinspir": 8533,
      "Ġnichil": 8534,
      "Ġrab": 8535,
      "Ġintegrum": 8536,
      "ĠXx": 8537,
      "yt": 8538,
      "Ġpurto": 8539,
      "acu": 8540,
      "ĠEvangelio": 8541,
      "Ġpuncto": 8542,
      "lii": 8543,
      "cl": 8544,
      "Ġhabe": 8545,
      "Ġloquor": 8546,
      "ittis": 8547,
      "utionis": 8548,
      "Ġaiunt": 8549,
      "Ġdebita": 8550,
      "Ġnaturalem": 8551,
      "aturam": 8552,
      "rent": 8553,
      "tern": 8554,
      "Ġodium": 8555,
      "Ġnet": 8556,
      "ĠAugue": 8557,
      "ĠDios": 8558,
      "Ġreferre": 8559,
      "Ġperitus": 8560,
      "Ġiustitiae": 8561,
      "Ġsuscipere": 8562,
      "xxx": 8563,
      "Ġremans": 8564,
      "Ġdabo": 8565,
      "Ġseruit": 8566,
      "ĠLabore": 8567,
      "Ġtransit": 8568,
      "Ġfolia": 8569,
      "Ġdii": 8570,
      "Ġconfici": 8571,
      "Ġdiaboli": 8572,
      "ĠXI": 8573,
      "Ġcrucem": 8574,
      "Ġnep": 8575,
      "ĠRub": 8576,
      "ĠCursus": 8577,
      "Ġlapidem": 8578,
      "ĠAugust": 8579,
      "Ġaccepta": 8580,
      "ĠSo": 8581,
      "Ġredire": 8582,
      "Ġproxima": 8583,
      "Ġhonores": 8584,
      "Ġinha": 8585,
      "Ġplas": 8586,
      "ĠPor": 8587,
      "Ġobiit": 8588,
      "ibit": 8589,
      "ĠGrati": 8590,
      "Ġvoluerit": 8591,
      "idisse": 8592,
      "Ġagunt": 8593,
      "Ġuocatur": 8594,
      "Ġrepos": 8595,
      "Ġsexto": 8596,
      "Ġtestes": 8597,
      "Ġdimitt": 8598,
      "imini": 8599,
      "Ġquaecumque": 8600,
      "Ġconjunc": 8601,
      "ĠInn": 8602,
      "Ġfugam": 8603,
      "Ġcic": 8604,
      "ĠMassa": 8605,
      "Ġperfectio": 8606,
      "andiu": 8607,
      "Ġelectus": 8608,
      "ĠNor": 8609,
      "Ġueluti": 8610,
      "axat": 8611,
      "Ġtransire": 8612,
      "Ġdeprehend": 8613,
      "Ġwebsite": 8614,
      "ĠAliquid": 8615,
      "Ġquoties": 8616,
      "Ġnullius": 8617,
      "ĠDicta": 8618,
      "Ġactiv": 8619,
      "Ġhabebant": 8620,
      "Ġquisquis": 8621,
      "Ġsoci": 8622,
      "Ġapostolicae": 8623,
      "ĠAmbros": 8624,
      "Ġfuere": 8625,
      "Ġideoque": 8626,
      "ĠIota": 8627,
      "Ġgram": 8628,
      "Ġprincipibus": 8629,
      "ĠFugit": 8630,
      "mann": 8631,
      "Ġcasibus": 8632,
      "ĠLi": 8633,
      "ĠCod": 8634,
      "Ġoccidit": 8635,
      "itioni": 8636,
      "Super": 8637,
      "Ġrom": 8638,
      "ĠNisl": 8639,
      "Ġvisc": 8640,
      "Ġintellex": 8641,
      "Ġapparatu": 8642,
      "ensionem": 8643,
      "Ġpoeta": 8644,
      "Ġsingularis": 8645,
      "Ġcultu": 8646,
      "Ġerrore": 8647,
      "Ġmeliorem": 8648,
      "Ġredim": 8649,
      "ulerit": 8650,
      "Ġredemp": 8651,
      "culum": 8652,
      "Ġcognitione": 8653,
      "Ġimmol": 8654,
      "Ġconsent": 8655,
      "vs": 8656,
      "Ġeth": 8657,
      "Ġvenerunt": 8658,
      "ĠAstr": 8659,
      "ĠCirca": 8660,
      "ĠArchiepiscop": 8661,
      "Ġexitus": 8662,
      "Ġiuss": 8663,
      "ĠMut": 8664,
      "ularia": 8665,
      "ensione": 8666,
      "Ġ]": 8667,
      "Hi": 8668,
      "Ġgal": 8669,
      "Ġostenditur": 8670,
      "Ġterminos": 8671,
      "oncili": 8672,
      "Ġannus": 8673,
      "ego": 8674,
      "ĠâĢ¢": 8675,
      "Ġdissip": 8676,
      "ĠHodie": 8677,
      "ĠMCM": 8678,
      "Ġmediet": 8679,
      "ĠGermania": 8680,
      "Ġdicamus": 8681,
      "Ġvelis": 8682,
      "ance": 8683,
      "Ġspecific": 8684,
      "Ġbeneficio": 8685,
      "Ġducere": 8686,
      "Ġcaritas": 8687,
      "Ġajans": 8688,
      "Ġhoris": 8689,
      "rit": 8690,
      "ĠHar": 8691,
      "ĠRog": 8692,
      "elae": 8693,
      "Ġcapitulo": 8694,
      "Ġproficisc": 8695,
      "hes": 8696,
      "Ġnegat": 8697,
      "Ġphilosophi": 8698,
      "eriis": 8699,
      "unis": 8700,
      "Ġenum": 8701,
      "Ġappellat": 8702,
      "Ġ60": 8703,
      "erog": 8704,
      "rique": 8705,
      "Dum": 8706,
      "Ġdunt": 8707,
      "ĠOd": 8708,
      "ĠAlias": 8709,
      "ĠNecess": 8710,
      "ĠIX": 8711,
      "Ġpulcherrim": 8712,
      "ille": 8713,
      "ĠRatio": 8714,
      "eriter": 8715,
      "Ġcharitate": 8716,
      "Ġeleemos": 8717,
      "dius": 8718,
      "Ġsist": 8719,
      "Ġerum": 8720,
      "Ġdesiderat": 8721,
      "elas": 8722,
      "Ġquinta": 8723,
      "Ġvap": 8724,
      "ĠJob": 8725,
      "Ġmarm": 8726,
      "Ġsimilitudo": 8727,
      "Ġuoluit": 8728,
      "Ġfeb": 8729,
      "Ġsecundam": 8730,
      "Ġuidentur": 8731,
      "Ġaperta": 8732,
      "ĠSanctum": 8733,
      "Ġsuperioribus": 8734,
      "Ġnovit": 8735,
      "hac": 8736,
      "Ġflumina": 8737,
      "Ġapparatus": 8738,
      "Ġpraeterm": 8739,
      "ece": 8740,
      "Ġfideliter": 8741,
      "Ġpositus": 8742,
      "Ġdivino": 8743,
      "ĠClar": 8744,
      "iper": 8745,
      "ĠAmericae": 8746,
      "ĠMinus": 8747,
      "Ġultimo": 8748,
      "Ġsuspend": 8749,
      "Ġcoept": 8750,
      "Ġliteris": 8751,
      "Ġsalu": 8752,
      "ĠÎµ": 8753,
      "Ġanimalibus": 8754,
      "icium": 8755,
      "Ġdixerat": 8756,
      "Ġnecessitatem": 8757,
      "ĠOcta": 8758,
      "iensis": 8759,
      "Ġcolorem": 8760,
      "Ġhonoris": 8761,
      "ĠUs": 8762,
      "Ġcompell": 8763,
      "Ġnobili": 8764,
      "ĠMox": 8765,
      "Ġvisa": 8766,
      "ĠQuamvis": 8767,
      "ĠProvid": 8768,
      "Ġseptu": 8769,
      "Ġeventus": 8770,
      "lev": 8771,
      "Ġpedum": 8772,
      "Ġmorem": 8773,
      "erare": 8774,
      "Ġmilli": 8775,
      "ĠMD": 8776,
      "Ġpropin": 8777,
      "Ġveteres": 8778,
      "Ġobcaecati": 8779,
      "ĠIusto": 8780,
      "umen": 8781,
      "acobus": 8782,
      "ĠAdd": 8783,
      "ĠKar": 8784,
      "ĠBen": 8785,
      "itores": 8786,
      "Ġprovidere": 8787,
      "Ġinferius": 8788,
      "ĠClem": 8789,
      "Ġplebis": 8790,
      "Ġlitterae": 8791,
      "Ġforsitan": 8792,
      "Ġcirculi": 8793,
      "Ġabd": 8794,
      "ituit": 8795,
      "Ġanx": 8796,
      "Secundo": 8797,
      "Ġdeliber": 8798,
      "mate": 8799,
      "Ġ33": 8800,
      "Ġsermonis": 8801,
      "ĠCommodo": 8802,
      "ham": 8803,
      "Ġipsae": 8804,
      "itationem": 8805,
      "fe": 8806,
      "Ġexclus": 8807,
      "ĠTol": 8808,
      "Ġrecepit": 8809,
      "Ġaetatem": 8810,
      "Ġtriplic": 8811,
      "Ġsecutus": 8812,
      "Ġpraecepit": 8813,
      "Ġpotuerit": 8814,
      "Ġmuneris": 8815,
      "ĠAgn": 8816,
      "Ġlibertate": 8817,
      "Ġlocup": 8818,
      "Ġuindic": 8819,
      "Ġ=": 8820,
      "olor": 8821,
      "itarum": 8822,
      "Ġconcilio": 8823,
      "Ġcommuniter": 8824,
      "illos": 8825,
      "entae": 8826,
      "45": 8827,
      "Ġflores": 8828,
      "Ġigni": 8829,
      "Ġpluv": 8830,
      "Ġunitate": 8831,
      "Ġclav": 8832,
      "Ġinterreti": 8833,
      "Ġfors": 8834,
      "neum": 8835,
      "Ġhomic": 8836,
      "ĠPres": 8837,
      "Ġpraedestin": 8838,
      "Ġsop": 8839,
      "edunt": 8840,
      "Ġcreata": 8841,
      "Ġprouinc": 8842,
      "aeo": 8843,
      "ĠJudaeorum": 8844,
      "Ġterrib": 8845,
      "uunt": 8846,
      "Ġflore": 8847,
      "Ġtantis": 8848,
      "ĠHispania": 8849,
      "Ġcultum": 8850,
      "Ġmittit": 8851,
      "ularium": 8852,
      "ĠSan": 8853,
      "Ġcadit": 8854,
      "Ġsemina": 8855,
      "Ġmortui": 8856,
      "ja": 8857,
      "Ġfrequent": 8858,
      "Ġdiffert": 8859,
      "entiÃ¦": 8860,
      "ĠEcclesiÃ¦": 8861,
      "Ġreserv": 8862,
      "ĠReli": 8863,
      "ĠPapa": 8864,
      "Ġpingu": 8865,
      "Ġiustitiam": 8866,
      "Ġnubes": 8867,
      "Ġpuerum": 8868,
      "ĠSequ": 8869,
      "Ġdivinam": 8870,
      "upp": 8871,
      "Ġcuiusque": 8872,
      "Ġsummi": 8873,
      "Ġdecre": 8874,
      "ket": 8875,
      "Ġho": 8876,
      "Ġclara": 8877,
      "Ġmoritur": 8878,
      "Ġconsilii": 8879,
      "Ġmisericordiae": 8880,
      "Ġdebeant": 8881,
      "Ġoppido": 8882,
      "nec": 8883,
      "Ġero": 8884,
      "à¤": 8885,
      "Ġconsuetudine": 8886,
      "vas": 8887,
      "Ġuolupt": 8888,
      "Ġegit": 8889,
      "Ġpersonarum": 8890,
      "ĠAliter": 8891,
      "app": 8892,
      "Ġnerv": 8893,
      "ĠAlum": 8894,
      "80": 8895,
      "ĠLatina": 8896,
      "utas": 8897,
      "Ġcalce": 8898,
      "ĠTurpis": 8899,
      "ange": 8900,
      "Â°": 8901,
      "Ġlibere": 8902,
      "Ġsue": 8903,
      "Ġdeorsum": 8904,
      "Ġsingulorum": 8905,
      "Ġfoliis": 8906,
      "Ġmortuis": 8907,
      "Ġappellant": 8908,
      "Ġflamma": 8909,
      "Ġattr": 8910,
      "ĠEbor": 8911,
      "ĠHomin": 8912,
      "ĠIoseph": 8913,
      "ĠSym": 8914,
      "orta": 8915,
      "ĠTempora": 8916,
      "Ġstra": 8917,
      "ren": 8918,
      "Ġsocietatis": 8919,
      "Ġ197": 8920,
      "Ġdisplic": 8921,
      "Ġfacinus": 8922,
      "Ġlaudibus": 8923,
      "Ġsuperfl": 8924,
      "Ġsulph": 8925,
      "Ġfung": 8926,
      "Ġartibus": 8927,
      "Ġdono": 8928,
      "Ġpermittit": 8929,
      "Ġ36": 8930,
      "Ġdebuit": 8931,
      "Ġvino": 8932,
      "Ġfate": 8933,
      "entie": 8934,
      "Ġpraesidio": 8935,
      "Ġstatuit": 8936,
      "Ġtenebr": 8937,
      "Ġgenerat": 8938,
      "hat": 8939,
      "fo": 8940,
      "ista": 8941,
      "Ġuidere": 8942,
      "Ġpersever": 8943,
      "Vel": 8944,
      "ĠChristiani": 8945,
      "Ġcircumst": 8946,
      "Ġsicuti": 8947,
      "Ġproximi": 8948,
      "ĠMir": 8949,
      "Ġlaus": 8950,
      "Ġqualibet": 8951,
      "Ġdudum": 8952,
      "Ġopem": 8953,
      "ennium": 8954,
      "Ġtecta": 8955,
      "Ġsomno": 8956,
      "ĠImperator": 8957,
      "ĠFoederat": 8958,
      "Ġacquis": 8959,
      "ĠBarb": 8960,
      "Ġscrut": 8961,
      "Ġpetere": 8962,
      "Ġsequentibus": 8963,
      "gra": 8964,
      "Ġsolemn": 8965,
      "Ġpotestatis": 8966,
      "Ġsignificant": 8967,
      "ertere": 8968,
      "Ġpericulos": 8969,
      "Ġexsult": 8970,
      "icitur": 8971,
      "Ġistorum": 8972,
      "Ġmira": 8973,
      "Ġhistoriam": 8974,
      "Ġuan": 8975,
      "ĠAngeli": 8976,
      "Ang": 8977,
      "eae": 8978,
      "Ġdeform": 8979,
      "Ġinflamm": 8980,
      "Psal": 8981,
      "Ġcaritate": 8982,
      "Ġapta": 8983,
      "Ġueter": 8984,
      "Ġintegra": 8985,
      "Ġexsec": 8986,
      "Ġexcep": 8987,
      "Ġben": 8988,
      "Ġcarmen": 8989,
      "Ġeiusque": 8990,
      "irca": 8991,
      "Ġcaritatis": 8992,
      "Ġredit": 8993,
      "ĠMod": 8994,
      "Ġpersonas": 8995,
      "Ġdisting": 8996,
      "ĠCorr": 8997,
      "áĨ": 8998,
      "Ġcing": 8999,
      "Ġcalli": 9000,
      "Ġdives": 9001,
      "Ġsolam": 9002,
      "Ġcommunia": 9003,
      "ĠPyth": 9004,
      "ĠComment": 9005,
      "etu": 9006,
      "Ġdownload": 9007,
      "ĠSion": 9008,
      "iculo": 9009,
      "Ġerub": 9010,
      "ĠSpec": 9011,
      "Ġverius": 9012,
      "els": 9013,
      "Ġinstr": 9014,
      "ĠPen": 9015,
      "uribus": 9016,
      "Ġbus": 9017,
      "ĠPari": 9018,
      "Ġdulced": 9019,
      "Ġstren": 9020,
      "ĠVirginis": 9021,
      "ilique": 9022,
      "Ġforum": 9023,
      "asit": 9024,
      "Ġreconcili": 9025,
      "Ġinsp": 9026,
      "Ġpromo": 9027,
      "Ġsanctos": 9028,
      "Ġfemina": 9029,
      "Ġretrib": 9030,
      "ĠOper": 9031,
      "eos": 9032,
      "Ġminores": 9033,
      "Ġpersonis": 9034,
      "Ġsancte": 9035,
      "Ġuell": 9036,
      "Ġreuoc": 9037,
      "ĠNostra": 9038,
      "Ġliberis": 9039,
      "Ġcruce": 9040,
      "Ġcertis": 9041,
      "Ġdextera": 9042,
      "Î¿Ïħ": 9043,
      "ĠThomas": 9044,
      "ĠOnline": 9045,
      "iant": 9046,
      "ĠLing": 9047,
      "Ġremedium": 9048,
      "ĠAene": 9049,
      "ĠAus": 9050,
      "ĠMaj": 9051,
      "Ġquasdam": 9052,
      "uii": 9053,
      "Ġteste": 9054,
      "Ġcense": 9055,
      "Ġconsor": 9056,
      "Ġincorp": 9057,
      "ister": 9058,
      "Ġtep": 9059,
      "Ġsanctam": 9060,
      "ĠPlan": 9061,
      "Ġsatur": 9062,
      "Ġexempl": 9063,
      "ĠApos": 9064,
      "Ġoffert": 9065,
      "ĠHenricus": 9066,
      "Ġconseru": 9067,
      "Ġantiqua": 9068,
      "Ġpersuad": 9069,
      "Ġmentes": 9070,
      "Ġintentione": 9071,
      "Ġpraedicta": 9072,
      "Ġauctores": 9073,
      "Etiam": 9074,
      "Ġalleg": 9075,
      "lice": 9076,
      "ĠPros": 9077,
      "Ġcommin": 9078,
      "Ġconstituta": 9079,
      "Ġexitum": 9080,
      "Ġinser": 9081,
      "ein": 9082,
      "Ġcalore": 9083,
      "ertit": 9084,
      "klam": 9085,
      "igil": 9086,
      "Ġpraesentis": 9087,
      "The": 9088,
      "Ġlaed": 9089,
      "Ġmoenia": 9090,
      "Ġiacet": 9091,
      "Ġpacific": 9092,
      "Ġnuntium": 9093,
      "Ġmatrimonium": 9094,
      "Ġnoua": 9095,
      "acius": 9096,
      "Ġuirtutem": 9097,
      "Ġhabuisse": 9098,
      "ĠRos": 9099,
      "Ġplaga": 9100,
      "egi": 9101,
      "Ġfestum": 9102,
      "ĠMunicipia": 9103,
      "ĠScilicet": 9104,
      "Ġcontex": 9105,
      "Ġmerita": 9106,
      "Ġfar": 9107,
      "Ġcommov": 9108,
      "Deus": 9109,
      "Ġinaequ": 9110,
      "Ġpenes": 9111,
      "ĠArcu": 9112,
      "ez": 9113,
      "Rom": 9114,
      "ĠTri": 9115,
      "ey": 9116,
      "Ġhabuerit": 9117,
      "sequi": 9118,
      "sil": 9119,
      "Ġgrata": 9120,
      "Ġmalus": 9121,
      "hum": 9122,
      "Ġvestro": 9123,
      "Ġpraemium": 9124,
      "Ġparia": 9125,
      "Ġsingulari": 9126,
      "Ġvast": 9127,
      "mb": 9128,
      "Ġlibrorum": 9129,
      "Ġexempli": 9130,
      "Ġsimulac": 9131,
      "ĠFranciscus": 9132,
      "ÌĶ": 9133,
      "Ġprophetae": 9134,
      "Ġaequales": 9135,
      "Ġpublicum": 9136,
      "Ġmercedem": 9137,
      "Ġfuturi": 9138,
      "Ġpraen": 9139,
      "Ġsacramenta": 9140,
      "Ġtestimonio": 9141,
      "Ġscelus": 9142,
      "Ġpraesid": 9143,
      "runt": 9144,
      "Ġfundamentum": 9145,
      "Ġsaeculum": 9146,
      "arÄ±": 9147,
      "tinam": 9148,
      "ectorum": 9149,
      "Ġgente": 9150,
      "Ġmolli": 9151,
      "ating": 9152,
      "Ġomnim": 9153,
      "icias": 9154,
      "Ġbl": 9155,
      "Ġcorona": 9156,
      "Ġquendam": 9157,
      "ĠIng": 9158,
      "the": 9159,
      "Ġcustodia": 9160,
      "Ġfactam": 9161,
      "empt": 9162,
      "Ġnotis": 9163,
      "Ġtranst": 9164,
      "Ep": 9165,
      "ĠRisus": 9166,
      "decim": 9167,
      "Ġforas": 9168,
      "erata": 9169,
      "Ġphantas": 9170,
      "ĠIN": 9171,
      "Ġnovae": 9172,
      "lips": 9173,
      "ĠAtqui": 9174,
      "Ġlineam": 9175,
      "Ġdisciplinam": 9176,
      "mar": 9177,
      "Ġdignitatis": 9178,
      "Ġaurea": 9179,
      "Ġarca": 9180,
      "Ġculpam": 9181,
      "Ġrobor": 9182,
      "itatur": 9183,
      "ĠBeatae": 9184,
      "ĠIulii": 9185,
      "Ġlongi": 9186,
      "ĠTerra": 9187,
      "Ġimpend": 9188,
      "ĠScelerisque": 9189,
      "Ġdilat": 9190,
      "Ġfist": 9191,
      "ĠError": 9192,
      "ĠCaput": 9193,
      "sp": 9194,
      "risque": 9195,
      "ĠTempor": 9196,
      "ĠLin": 9197,
      "Ġfontes": 9198,
      "Ġmysterium": 9199,
      "Ġcurios": 9200,
      "olia": 9201,
      "ĠEvangelium": 9202,
      "Ġeiusmodi": 9203,
      "Co": 9204,
      "EM": 9205,
      "Ġferme": 9206,
      "Ġcogitare": 9207,
      "Ġplerique": 9208,
      "Ġpy": 9209,
      "Ġbrac": 9210,
      "Ġsubiecto": 9211,
      "Ġperit": 9212,
      "ollo": 9213,
      "Ġuirum": 9214,
      "ĠIllo": 9215,
      "Ġpotui": 9216,
      "entini": 9217,
      "Ġher": 9218,
      "vere": 9219,
      "Ġevangeli": 9220,
      "Fr": 9221,
      "ĠIap": 9222,
      "Ġgraviter": 9223,
      "Ġnotitiam": 9224,
      "Ġeosdem": 9225,
      "Ġnimia": 9226,
      "Ġpauperes": 9227,
      "rud": 9228,
      "Ġsenatu": 9229,
      "Ġportum": 9230,
      "edum": 9231,
      "edes": 9232,
      "Ġverus": 9233,
      "Ġlaetitia": 9234,
      "Ġsuperior": 9235,
      "Ġinfer": 9236,
      "Ġprovinciae": 9237,
      "ald": 9238,
      "ĠPatrum": 9239,
      "annis": 9240,
      "Ġregionis": 9241,
      "Ġlegati": 9242,
      "riter": 9243,
      "ĠUsque": 9244,
      "Ġcommerc": 9245,
      "actu": 9246,
      "iebat": 9247,
      "edam": 9248,
      "Ġmedicina": 9249,
      "ĠOfficia": 9250,
      "ĠIndi": 9251,
      "ceps": 9252,
      "ĠsÃ¦": 9253,
      "ĠVinc": 9254,
[...]
